#version: 0.2 - Trained by `huggingface/tokenizers`
l a
Ġ a
Ġ t
o n
Ġ k
e n
e r
i n
i s
Ġ p
Ġ d
Ġ la
Ġ s
t a
a n
o j
e s
o r
Ġ m
a j
Ġd e
Ġt h
l i
a s
r e
Ġ f
a r
Ġ n
o m
t i
r i
l e
Ġ h
Ġ b
u n
t o
Ġ e
r o
Ġk aj
Ġth e
t e
Ġ w
a l
Ġ o
Ġ v
Ä Ŀ
Ġ es
Ġ en
Ġa n
r a
Ä ī
Å Ń
in g
Ġ in
Ġ c
Ġ i
l o
Ġa l
a t
a m
c i
e d
Ġk i
e l
u r
Ġ g
u s
ta s
Ġt i
o v
t er
Ġo f
Ġ re
u l
a d
o s
Ġ Äī
Ġt o
Ġan d
Ġ S
Ġ I
Ġ li
oj n
Ġn e
Ġ T
i o
i l
i g
Ġes tas
Ġ L
i d
Ġ A
Ġ E
Ġ K
t h
Ġ j
k a
en t
Ġ M
Ġ (
e m
p er
t is
u t
Ġk on
b r
i r
â Ģ
Å Ŀ
Ġp or
u m
l y
i ta
a v
Ġ is
Ġm i
o l
Ġ on
Ġ P
e k
Ġp ro
t oj
d i
Ġv i
Ġ 1
Ġ /
c h
i m
Ġb e
Ġ/ >
d o
Ġ l
c e
r an
u j
Ġ B
k o
Ġp er
Ġf or
Ġm al
Ġ ÄĿ
Ġs u
Ġi t
ta j
Ġk e
v er
Ġp ri
i a
h e
Ġ D
r es
Ġ N
Ġk un
Ġw h
e t
Ġe l
aj n
ĠÄī i
a k
la n
Ġ un
t u
Ġe k
t t
c o
Ä µ
p o
r u
Ġth at
Ġ "
i e
ĠL a
i ÄĿ
Ġ ÅĿ
Ġ H
p e
k on
d e
Ġh av
ta n
Ġs e
Ġes tis
s t
' s
d a
Ġ C
. .
v e
per an
Ġ âĢ
er e
Ġ F
t or
o u
Ġ R
Ġk om
b le
la s
Ġ 2
Ġa s
c om
Ġ V
Ġ G
Ġth is
a g
Ġa ÅŃ
Ġm ov
m o
Ġ lo
u z
Ġn o
k e
Ġ J
b o
Ġin ter
Ġf il
t on
a ÅŃ
Ġki u
Ġp ar
a p
Ġ ri
i th
i c
Ġ y
ti on
Ġp li
Ġw as
Ġ or
d on
w w
r en
v o
Ġd i
Ġd is
Ġp re
Ġp o
a c
Ġki el
Ġfil m
0 0
Ġ/> <
ad o
Ġw ith
ka ÅŃ
ĠE s
Ġ Ä
r om
a ci
o w
Ġp ov
Ġv er
Ġa t
os t
m an
Ġn i
g h
on e
Ġi li
d u
Ġun u
i k
f or
a y
L a
v en
i on
Ġs i
Ġa li
Ġmov ie
Ġh e
i t
Ġti u
Ġs o
Ġh is
Ġ -
Ġs en
l u
Ġm on
v a
Ġd o
Ġs ed
om e
in o
Ġa p
o d
Ġ le
t ra
Ġ W
k s
ĠEs peran
m a
Ġs ur
m e
Ġ O
Ġ U
ĠÄī e
on g
ar o
. <
m ent
v i
j o
Ġ1 9
Ġa r
ĠT he
f er
t en
a b
a Äµ
p le
es t
r is
Ġm an
' t
a la
Ġb ut
ĠÄĿ i
Ġt ra
Ġon i
Ġc h
Ġ uz
Ġf ar
ri b
g o
Ġki uj
en d
Ġm e
te d
Ġs h
ta ÅŃ
Ġd u
Ġ ra
Ġa re
n i
di Äī
Ġl ing
Ġy ou
g e
a ta
Ġ res
ar d
al ly
u p
Ġp le
c a
Ġa c
Ġg o
g i
ÄĿ o
) .
Ġan kaÅŃ
ul d
Ġs ta
Ġm or
t s
Ġla ÅŃ
t le
Ġsu b
us t
o uld
ci o
Ġpov as
Ġno t
Ġhav e
p on
er o
s o
th er
b or
Ġm in
Ġ 3
Ġti o
ĠM i
Ġa k
c es
ĠA n
ĠEsperan to
ita j
z o
Ġa m
Ġple j
s on
er n
/ /
0 1
i te
tt p
: //
p ren
Ġh om
Ġn ur
f e
Ġd a
ment s
Ġm em
en to
t ing
ĠÄ Ī
o k
v as
g an
Ġm ul
) ,
c k
ww w
u d
i lo
b er
s e
Ġkon s
Ġe x
Ġn om
.. .
h ttp
d b
Ġt ro
b las
Ġek z
us er
u b
ti tle
Ġs ome
Ġon e
im db
com ments
user comments
ĠE n
el l
f i
Ġf in
g ra
g a
Ġj ar
Ġc om
v an
b ro
Ġs am
Ġd um
v is
du k
z i
Ġs c
Ġwh o
un d
e o
ĠL i
t r
Ġg ran
m es
Ġb y
Ġre g
q u
p a
ĠI n
v id
ĠÅĿ i
te m
Ġ r
an d
t ojn
ĠT h
Ġt em
en s
Ġan taÅŃ
ek s
es s
Ġt u
Ġo l
am en
c on
Ġp l
Ġn ov
Ġal l
d is
la j
ver s
Ġh er
p or
Ġs er
al o
âĢ Ŀ
u ti
a z
l l
ul oj
ka z
Ġc on
Ġt re
a li
is to
k aj
Ġf rom
l oj
Ġla n
Ġp ost
n o
Ġs in
Ġv id
iÄĿ is
er s
l in
p ar
Ġw or
Ġthe y
aÄµ o
i u
m on
ĠN e
le k
Ġek s
d oj
Ġg ra
ig h
an te
ÄĿ is
r on
Ġo ut
Ġp os
Ġs ci
Ġd on
kon diÄī
i li
Ġi m
u lo
Ġs im
Ġhav as
Ġli ke
Ġ :
v ol
Ġes t
Ġn un
st ru
Ġs t
Ġ ur
a te
Ġp a
k i
ĠÄīi uj
is t
Ġ Â
n e
or o
Ġf e
Ġd ir
a re
ti ta
us e
Ġo kaz
Ġj am
Ġb on
an t
Ġ ro
Ġh as
Ġs ek
ti c
Ġki am
bo ut
en c
Ġes peran
p i
s ta
Ġp la
r oj
a le
Ġa bout
Ġe ble
Ġt e
v oj
i z
Ġv en
Ġm ak
ĠK om
i es
an o
ĠÄī ar
en ta
Ġch ar
in e
ĠâĢ Ķ
p ro
o ur
Ġn en
Ġt er
Ġti uj
i ch
Ġj ust
u ra
Ġt ri
Ġj e
ĠâĢ ľ
Ġla bor
ľ i
rib u
at ch
Ġc an
Ġkon tra
ti k
Ġal don
ĠÄĿ is
Ġs pe
ig i
ĠÄĿ in
Ġs ia
as t
r y
ou gh
ĠI t
Ġa d
u la
ar a
Ġs k
l ing
an toj
ti g
Ġv or
r in
Ġk re
an ta
p re
an oj
on o
u gh
Ġling vo
Ġt ran
th ing
Ġv o
u re
Ġb o
Ġes ti
Ġ up
Ġo k
an to
Ġ2 01
ĠK aj
en e
for m
Ġali aj
ac ter
iÄĿ as
ĠS e
en ce
tor y
il l
b e
Ġf un
is toj
t y
Ġin s
T he
Ġper mes
d er
Ġchar acter
Ġm ar
k oj
Ġ 4
to s
Ġan y
Ġgo od
Ġk el
er man
u ro
ce p
ï ¿
ï¿ ½
Ġkontra ÅŃ
Ġmor e
Ġe ver
i am
in a
p an
h o
n a
s i
in d
Ġt eks
t ribu
i p
Ġg et
i le
Ġa g
Ġkom un
Ġw e
Ġpar to
Ġw ould
taj n
p l
Ġth ere
li g
ti ve
Ġm y
Ġ [
ĠM ar
Ġ2 00
Ġver y
f ul
Ġf am
en er
Ġw atch
al l
Ġwh at
an k
Ġti e
re at
Ġjar oj
Ġpre z
id e
um o
Ġse e
Ġe Äī
Ġti el
a ÄĿ
ub li
Ġde ta
k or
v in
Ġh el
Ġh o
Ġ 5
li o
Ġl ong
Ġh ad
c t
Ġh im
lo g
i ko
b la
k to
ti ko
t ro
u ch
en o
1 9
Ġin f
z e
Ġti me
re a
Ġk ap
p li
ĠS ed
z on
Ġ Z
Ġdi re
Ġs tory
Ġk or
Ġ us
ur n
Ġk o
p en
m en
Ġthe ir
ĠâĢ ĵ
ci d
Ġdis p
Ġs he
Ġwh en
aci a
Ġf o
Ġe ven
Ġk n
Ġmi a
ĠC h
Ġkon diÄī
ĠA l
Ġsi an
r as
Ġt ag
Ġwh ich
ri g
Ġs tu
ĠR e
Ġteks to
Ġw ere
v es
Ġmi li
Ġc er
an g
ĠÄīi u
un g
Ġap li
Ä ¥
m in
Ġde vas
Ġtran s
Ġl in
lan do
p h
Ġm o
av e
ĠKom un
Ġon ly
Ġ Å
Ġi f
an ÄĿ
E n
Ġper son
or d
Ġhom oj
Ġ '
u o
or e
Ġa b
Ġf ir
Ġre ally
Ġo ther
is mo
Ġgran d
Ġs ig
Ġa f
ac k
in k
Ġ1 8
Ġsh ow
Ġpo li
ĠV id
Ġk a
l on
Ġap ar
Ġp as
ĠkondiÄī oj
Ġd id
ig is
p ek
ĠÄīe f
as k
m er
Ġp lu
v on
e j
ent oj
ĠÄ ľi
u e
Ġki un
i er
os e
Äµ o
is tas
Ġ qu
Ġen d
ÅŃ ro
om o
Ġspe ci
es e
Ġo b
Ġdisp one
Ġp res
Ġki e
ad e
Ġi de
w o
igh t
Ġth an
Ġpermes ilo
am e
Ġf ra
Ġin K
ar s
Äī e
Ġunu a
b on
Ġdeta loj
i el
ter n
Ġsu per
Ġa per
ĠVid u
e p
Ġdo es
v aj
Ġ |
k u
Ġor gan
t ri
Ġh or
Ġthe m
ÄĿ as
Ġur bo
Ġt ak
Ġp at
Ġmul taj
p ri
ti o
ĠÂ «
Ġ Y
is h
Ġe lek
y s
Ġv ir
oj e
Ġti un
t in
Ġl ern
Ġm en
Ġli a
S am
Ġbe en
ks im
e jo
Ġpar o
Ġki o
Ġ Ġ
ĠV i
Ġj un
s k
Ġg reat
ĠU n
Ġmal s
" ,
ĠK rea
ĠKomun aÄµo
Ġan g
a ch
Ġn ia
Ġc ould
kondiÄī e
ĠA tribu
" .
Ġin to
m i
s el
Ġpl en
w n
Ġgran da
in t
ig o
is ta
v ar
Ġm uch
Ġapli ke
Ġsta r
Ġaldon aj
Ġb ad
ĠAtribu ite
at h
tion s
Sam kondiÄīe
kondiÄī ojn
Ġbe t
Ġdispone blas
ap tita
eo ple
Ġf on
Ġe f
T h
er i
Ġdi vers
Ġh ow
ĠN i
z a
Ġuz kondiÄīojn
ad aptita
ĠNe adaptita
d s
Ġaplike blas
w ay
Ġo ver
Ġ ren
ad on
Äµ oj
Ġde k
Ġkom pren
m oj
ri o
ca use
t ur
Ġc o
ĠAn d
i ci
Ġkn ow
Ġk la
j n
Ġj aro
Ġw ill
vol u
an a
Ġa fer
Ġp ubli
Ġo p
Ġp e
Ġm at
Ġm ost
å Į
ç ¤
m ar
Ġan kor
Ġw ell
ç¤ ¼
âĢ ¦
åĮ ħ
Ġti on
ç¤¼ åĮħ
ç¤¼åĮħ ç¤¼åĮħ
Ġp lan
Ġmon do
Ġp eople
ti ka
ĠTh is
Ã ©
Ġtu te
Ġc e
Ġres pon
c ent
g res
Ġtro v
Ä Ī
Ġ 6
Ġdir is
Ġs ti
k om
Ġpro f
Ġw ay
i la
lo w
Ġs a
ita n
ĠJ o
Ġm ala
Ġpos te
ĠÄī u
Ġf ak
r aj
Ġg i
Â »
d as
Ġti am
u x
Ã ¡
Ġi lin
v ed
f in
Ġk ul
M i
Ġri ce
Ġb one
Ġv oj
Ġbe cause
ĠF ran
Ġor ig
gh t
Ġever y
Ġsam e
Ġso ci
ir kaÅŃ
f o
Ġi om
ĠD e
p oj
Ġt amen
Ġv in
Ġhis tor
h av
a to
Ġinter n
ĠâĢ ¢
âĢ Ķ
Ġes tos
Ġi u
ĠH e
k is
Ġ 7
Ġmak e
Ġfir st
io us
Ġth ink
tem pe
Ġv ar
Ġg u
Ġm a
Ġ 8
a ble
Ġde man
ĠW h
Ġankor aÅŃ
i an
re d
Ġvi a
o b
Ġth ing
li e
Ġf a
ta in
Ġm ade
en co
ov e
f f
Ġd es
Ġp ra
Ġp ens
Ġk ar
Ġpro p
n y
en te
Ġkel kaj
ti v
Ġri la
k ces
Ġsk rib
en ti
Ġali a
il d
aÄµ oj
Ġtem po
ag e
ĠA r
lan d
E A
Ġmul te
Ġal so
Ġth ough
Ġre z
c oj
ig as
Ġlo ÄĿ
p la
i uj
o t
Ġparto pren
Ġesperan tis
Ġde v
ta do
Ġn or
Ġs ol
Ġit s
1 0
Ġin form
ĠÄī irkaÅŃ
Ġ 9
ĠP ar
Ġekz em
Ġse em
Ġinter es
iÄĿ o
ĠK on
- -
ol on
Ġin di
Ġ1 0
lo t
Ġsig ni
Ġkon stru
Ġeks ter
Ġpro gra
Ġtra duk
Ġlo ok
Ġdire c
er a
Ġth ro
Ġs ay
k as
il oj
ĠL e
p os
ĠÄīi am
Ġsi tu
Ġto o
it y
Ġof te
g ran
Ġpro ble
Ġekz istas
m is
Ġmov ies
Ġm is
k am
i oj
Ġri g
Ġkom enc
Ġj a
le d
Ġtu ta
tor o
Ġk ri
Ġof f
t re
ĠP or
p t
in s
Ġcharacter s
la bor
Ġlan do
Ġhav is
sel f
0 4
Ġr aj
Ġver s
ĠÅĿ ta
in ta
ÄĿ oj
w e
Ġd aÅŃ
ig ita
uj o
Ġg ru
br oj
Ġin stru
k ci
Ġs p
Ġm uz
aci o
el y
' m
v ent
Ġe b
i b
Ġfilm s
res s
l ong
e to
Ġsu kces
Ġc i
Ġth en
Ġorgan iz
Ġy our
0 2
Ġh um
p is
tt le
Ġpo p
0 3
Ġpla y
Ġ Äµ
ro s
1 8
Ġbe ing
in oj
m as
an s
p u
Äī o
ĠB ut
Ġy e
ĠE k
at ur
Ġ ru
l es
Ġc ent
Ġvo las
ĠM on
f oje
ĠP ro
ĠI li
al k
Ġaf ter
Ġorig in
Ġle g
Ġf ran
Ġpro ksim
Ġse en
Ġt wo
Ġb ri
ĠR o
Ġne ces
âĢ ľ
at oj
. "
en a
Ġre al
Ġ <
s er
Ġac tor
! !
a tion
l d
id er
Ġsi aj
Ġne ver
a taj
ir is
Ġat ing
Ġb est
Ġs is
Ġman y
Ġp lot
ÄĿ i
' ve
b a
1 2
Ġ rom
Ġokaz is
Ġvi vo
ic k
Ġra p
Ġwh ere
d ek
Ġj u
Ġnov a
Ġbe zon
or g
ĠE ÅŃro
Ġm om
f a
Ġpl ur
Ġli fe
w ave
u ri
Ġf i
ĠP o
Ġfar i
ed io
Ġg erman
Ġpro duk
ta ro
Ġk am
z io
as e
Ġop in
o ut
Ġmal f
Ġ1 5
Ġthro ugh
Ġb ack
Ġne k
Ġc x
Ġli ttle
Ġdivers aj
Ġac ting
Ġt urn
Ġ z
es to
m ul
Th is
Ġ19 9
k ur
e lo
van kam
Ġren kon
b oj
Ġsc en
Ġlo ve
Ġling voj
Ġli ber
ĠG erman
ĠS o
in te
i ero
Ġde z
ĠÄ ľ
al s
ti tu
l er
Ġwor k
or i
Ġfam ili
ta l
Ġk va
Ġpro pon
Ġli g
Ġsc ene
ĠÄĪ u
Ġsu p
Ġli ter
s tan
Ġsigni f
Ġ ï¿½
th e
Ġjar c
Ġun i
ga in
Ġv al
Ġk an
il y
ĠT io
ol oj
Ġk ur
Ġreg ion
d aj
Ġper for
ÄĿ a
Ġd en
ed er
Ġlan doj
Ġb u
ĠD io
Ġa u
ĠD o
Ġbet ter
p as
A n
00 0
Ġa jn
tu ro
ro und
ĠâĢ ŀ
Ġk uti
i al
tiko lo
Ġsh ould
Ġk rom
Ġm od
as on
ac t
ic al
le g
w h
Ġre m
Ġe d
Ġde ci
re e
Ġpar t
E s
ow n
ÄĿ on
ci oj
an ce
Ġki on
f t
c tion
Ġ .
u te
ĠÅ ľ
p s
ci a
k ti
n ov
i aj
1 5
Ġkiuj n
Ġsu fi
. [
Ġl u
Ġen hav
Ġf lu
ar y
Ġpre ci
I n
1 7
ĠT iu
Ġp rin
ala j
ita to
e b
or a
w s
Ġm us
Ġ1 7
ĠJo h
e c
Ġa gain
Ġki es
Ġf aci
te jo
Ġv ol
E R
c ed
Ġel don
Ġhom o
or t
Ġ ,
Ġkon f
an taj
Ġar tikolo
ru e
ad is
Ġb lo
Ġd ra
ĠU EA
Ġm ay
Ġkel k
Ġh ere
ĠÅĿ anÄĿ
Ġfar is
us te
ĠÅĿ ajn
Ġt ut
Ġs on
Ġp i
Ġkon gres
Ġfe el
ri end
om b
ĠB e
ent s
ol d
Ġb az
Ġ Ã
Ġre v
Ġw on
Ġscen es
roj ek
ti gi
p ed
Ġnom o
for e
l is
t p
c is
p lo
Ġest us
Ġvi an
Ġp ris
ĠV ik
t un
c er
Ġs tra
Ġmal pli
n ing
Ġk u
r or
Ġak cep
1 6
1 3
1 4
v ita
Ġ2 0
em bro
ĠU ni
Ġh ap
Ġs em
Ġbon a
Ġfor m
Ġsti ll
Ġf la
K O
Ġsci as
v ing
Ġsu ch
Ġs et
pe c
Ġti a
Ġt uj
st ra
ir l
am o
el oj
e ver
Ġang la
Ġfun kci
ĠÄĿ ener
Ġsome thing
e ble
al oj
Ġw ri
ĠO ni
Ġth ese
Ġm aj
Ġpov us
l or
ĠTh ere
k ta
t es
Ä ł
i ce
ĠA ÅŃ
e w
iÄĿ i
pi ri
Ġ1 2
Ġg vid
0 8
Ġn ask
Ġam b
Ġver k
Ġmem or
b ar
g et
Ġsi ajn
Ġmal gran
Ġpres kaÅŃ
Ġkom p
Ġra kon
âĢ Ļ
Ġes pri
Ġv es
Ġstu d
Ġ1 6
i re
n er
Ġk var
ĠT amen
te mo
Ġprez id
di aÅŃ
ĠA s
d ing
Ġti es
ĠD um
Ġ &
* *
on a
Ġdi f
ĠH is
i ka
ir as
Ġan im
ĠP ost
ĠS h
Ġjarc ento
k ov
ĠA mer
ent is
Ġla s
ik oj
Ġe le
ag o
ci on
ĠÄĿ ia
ĠB ri
lo s
pre z
Ġac tu
m aj
re en
Ġk ol
Ġek de
an c
Ġpov is
ul t
a h
est ro
Ġekzem ple
Ġth ose
m ed
l ess
ĠI s
ĠU son
Ġh al
Ġre t
Ġm ur
Ġ er
Ġf re
j ek
Ġperfor man
ĠH o
Ġh on
g oj
Ġk tp
g es
o ther
Ġb or
em a
in da
tt y
ar t
tr as
Ġt ek
Ġnen iam
Ġg en
o ung
Ġin ten
ĠIn ter
Ġb ata
Ġre d
ig n
Ġm as
Ġf ilo
ĠB o
r un
te l
Ġ1 4
Ġc ar
ç¤¼åĮħç¤¼åĮħ ç¤¼åĮħç¤¼åĮħ
Ġw om
Ġc he
Ġdoes n
ĠE l
um e
Ġk ura
Ġd own
ĠM al
ter s
Ġk res
ĠR us
Ġ1 3
Ġf er
b ur
sta taÅŃ
in io
Ġmin ut
ĠA f
Ġye ars
Ġf av
Ġn u
Ġtrov iÄĿas
uz i
Ġar tik
p aro
ti va
ĠM e
Ġdid n
Ġm ed
Ġin k
Ġp rom
Ġhe j
en ci
te co
Ġp ren
Ġes tu
Ġsub ten
Ġ19 8
g u
Ġdirec tor
ĠJ es
Ġe m
' d
f on
Ġv ere
p ens
Ġwatch ing
ent on
Ġactor s
Ġte le
Ġinter est
Ġin c
Ġt ry
o o
Ġj en
in taj
w ard
ĠÄĪ e
i ri
Ġf lan
Ġg irl
ĠP er
ĠUn u
Ġti om
Ġuz as
Ġre ali
Ġbe fore
Ġfun ny
Ġgo ing
d y
jo y
e ter
Ġol d
ank ta
Ġrez ul
Ġg ener
Ġfin d
0 7
Ġmak es
Ġ uti
li gi
Ġesperan to
en tas
Ġn aci
ĠĠ ĠĠ
Ã Ń
u g
Ġab s
ĠI f
ed y
Ġuz i
Ġp un
Ġim p
Ġt ur
Ġbe lie
Ġde p
d en
Ġesperantis toj
4 5
Ġ â
Ġlo t
Ġvi zi
at uro
Ġd om
Ġb as
v or
o f
k ri
al is
Ġli bro
Ġfe w
Ġf are
Ġk aÅŃ
tan te
ĠÅ ľi
Ġb ro
6 5
Ġpubli k
Ġs per
c ern
o p
Ġof ici
Ġo wn
ling va
r ing
on om
Ġapar ten
k ra
Ġre la
an e
E S
ti taj
ul ojn
Ġdu a
Ġs il
Ġwh ile
ĠUni vers
ar k
KO KO
Ġde c
Ġn in
Ġre ven
Ġen joy
Ġl ud
Ġn um
' re
Ġvi v
m s
Ġre k
Ġpro du
Ġvi ew
Ġp rojek
Ġintern acia
Ġdo k
tu re
j oj
Ġb it
Ġnen iu
Ġrig ard
0 9
ve lo
k rib
Ġy oung
Ġpo ten
Ġf an
Ġg e
in to
Ġmal fer
Ġactu ally
Ġr us
la r
laj n
z aÅŃ
ab ly
ul l
pl or
Ġi am
Ġfin e
pe ci
ĠK ong
Ġkap ab
Ġk vankam
ĠN ov
g on
v el
Ġsam a
âĢĿ .
Ġ ...
Ġvor toj
2 2
ĠF or
Ġwh y
Ġkomun umo
ku to
ĠVik ip
ĠÄī io
las s
Ġreg ista
an io
id o
Ġok up
Ġling von
res o
g or
tan d
Ġed z
amen ho
Ġdir as
Ġhel p
Ġan stataÅŃ
Ġan other
tig is
Ġc re
Ġmalf aci
Ġno thing
Ġtra di
Ġdis vol
Ġper s
I N
Ġsim ple
Ã ³
Ġd ay
Äµ ojn
ĠP a
Ġla ugh
Ġm il
Ġp en
Ġd os
fe c
tt en
ra p
Ġvor to
po lo
e co
u aro
ĠÄīiuj n
log io
Ġ19 7
Ġt r
Ġt en
on d
Ġh igh
A T
is e
Ġili a
v il
Ġthough t
f ar
ĠUson o
er oj
L i
0 5
per i
on oj
Ġkon tro
Ġno w
ris to
Ġser Äī
Ġkons ider
Ġvi la
Ġven is
Ġki ll
Ġafer o
Ġc ast
Ġk las
Ġw ant
ĠO r
Ġf riend
ula r
m al
u al
Ġkva zaÅŃ
ch o
Ġpro b
ĠAmer ic
Ġcom ple
Ġko lek
Ġb ig
end as
Ġkomenc is
ĠA li
gra f
Ġb ra
st re
] .
2 5
Ġgra va
i zo
Ġse p
a u
Ġaper is
g n
Ġden ove
Ġe blas
S e
âĢĿ ,
3 3
Ġs id
Ġqu ite
ĠS ta
Ġa ran
Ġst ran
Ġap ud
Ġra di
Ġtag o
Ġa round
way s
f lu
Ġgo t
Ġthing s
Ġrenkon ti
Ġla sta
Ġ ran
Ġb al
Ġim ag
m ento
6 8
d ers
Ġs al
Ġpat ro
t ran
g as
Ġb il
Ġf act
peran to
ar io
Ġek onom
Ġh ard
Äī a
a ti
Ġp ut
Ġe vent
Ġ ;
um oj
Ġvi z
Ġseem s
Ġla st
y ing
we en
ĠK iam
Ġpo int
k ul
ven o
p ubli
g io
ĠEsperan ton
i f
w er
d io
Ġlabor o
n ess
z oj
Ġper io
a lan
Ġas o
ĠÄĪ i
ĠP ri
Ġlo ko
Ġred ak
ĠÄīe fe
Ġen ough
p y
Ġmi an
2 7
k an
Ġri mar
i tor
ĠK ar
ĠJ en
kon s
ĠÂ »
Ġri ver
ter o
ĠD u
te ly
ar ly
Ġsc reen
li ta
ajn e
2 8
Ġpre tty
Ġkun e
e bla
Ġen ter
v al
Ġs te
ath er
Ġhistor io
tis toj
Ġkun labor
m ost
Ġni aj
ĠS u
ĠP re
il on
Ġtak e
6 7
Ġne ed
g is
Ġrice vis
ĠM o
Ġpos ed
Ġbet ween
us to
Ġinf lu
Ġkom ple
l uzi
Ġac tion
ĠS te
ĠL u
ĠVikip edio
Ġap pe
3 8
Ġi uj
ri ko
Ġm ust
Ġpar ol
. )
1 1
ri pt
ig itaj
Ġvers io
ĠM an
Ġne w
j or
Ġamb aÅŃ
j a
ĠZ amenho
em o
Ġes per
Ġkon k
Ġla r
ĠP ol
Ġsis temo
4 8
Ġc am
Ġk v
Ġst re
Ġi on
Ġhor ror
Ġri ght
Ġwor ld
Ġprof es
Ġgi ve
p aj
Ġuni vers
ĠEÅŃro po
Ġbe com
ÅĿ o
Ġde f
Ġor i
br on
o ks
ta b
ur bo
Ġe pis
Ġin d
2 9
an tojn
d ojn
Ġmal nov
Ġp ag
s en
Ġ X
ĠGerman io
g g
re ta
Ġb la
Ġh and
Ġmon d
Ġm et
Ġd or
j on
Ġwho le
Ġs piri
Ġw an
ĠJoh n
Ġ Ð
ta k
min is
x i
Ġt ab
ĠN or
ĠJ e
b ere
ĠIn tern
un a
Ġcon s
Ġgru po
t ru
Ġwon der
ces s
po zi
ĠV er
ri ta
Ġg ro
Ġli k
ĠK iel
4 9
Ġle ad
Ġa w
Ġli aj
6 9
j e
x o
Ġf ru
ĠS he
Ġrap ide
Ġfran ca
Ġmod ern
m ojn
ĠN o
.. ..
Ġvid is
Ġgrand an
Ġre tejo
Ġmul t
3 5
d in
Ġdi alo
Ġc ome
Ã ¼
Ġal ta
v ious
Ġplur aj
Ġse x
c as
Ġorigin al
tig as
Ġt ell
Ġre ason
Ġal ways
Ġd at
da ÅŃ
Ġ3 0
Ġsa w
Ġmat eri
' ll
Ā Ā
ĠThe y
men aÅŃ
ik aj
Ġkom er
Ġro le
ĠH ow
di c
Ġrem em
az e
, "
Ġe t
Ġregion o
Ġfar as
k os
3 9
Ġe li
4 7
Ġas pek
Ġtem as
Ġwith out
m ov
Ġma in
Ġgrand aj
Ġ ?
Ġre ad
um i
Ġtiuj n
ĠC ar
Ġbe g
ov er
Ġho diaÅŃ
Ġdif fer
Ġg as
st r
Ġme z
sk ul
ti es
Ġbo th
3 7
Ġle ast
ĠE tern
A N
W h
Ġmus ic
Ġm er
et on
Ġis n
5 0
fe ct
Ġinterest ing
Ġf ol
Ġali an
ik i
Ġser ies
Ġe volu
Ġmili to
Ġw ar
Ġti mes
ĠJ u
Ġgerman a
Ġkons er
Ġsignif as
tan ta
ĠLa ÅŃ
2 0
Ġk ris
Ġt al
Ġok cid
Ġdi ri
at ing
Ġt ru
ar on
s ter
Ġpreci pe
Ġsufi Äīe
Ġget s
p ris
Ġcom edy
Ġvo Äī
Ġs to
Ġk ind
Ġkelk ajn
Ġkon ata
da y
Ġali ajn
Ġsc ript
Ġokaz as
Ġd one
Ġc in
ĠY ou
Ġ- -
ar oj
ĠEs tas
Ġde cid
ar an
ĠZamenho f
Ġsim p
Ġra por
Ġst ru
Ġak vo
ĠT o
v ojn
Ġun der
Ġopin i
f lan
Ġch ild
Ġs us
at ure
Ġmen ci
Ġsa id
s u
Ġkon cern
h el
Ġc are
is ma
j ara
Ġd an
Ġm ag
k ojn
Ġef fec
Ġef ek
Ġmul tajn
N i
f ek
Ġre prez
Ġal most
ĠEk z
Ġm ight
Ġc le
Ġnov aj
Ġs m
Ġbezon as
as te
Ġpro vi
Ġcer te
Ġs av
Ġex c
e g
Ġminut es
gra ph
ĠG ran
Ġc our
Ġwor th
ĠS in
ri ble
Ġv et
us o
Ġbe a
c ks
tis to
Ġpris krib
Ġdis tri
ĠH er
ĠH ol
c aj
Ġfar iÄĿis
Ġc lass
Ġgu y
Ġb ru
Ġso und
Ġde fin
ĠR es
Ġtro vi
ĠB ar
r ojn
th ough
ing s
Ġli m
Ġk vin
Ġes tr
Ġa way
Ġc ri
b laj
Ġide o
ĠEtern ulo
k la
Ġde li
el on
Ġfav or
e z
Ġi o
Ġb lan
a ted
du ko
un o
3 0
tan toj
ĠA d
ul ino
g er
Ġnov an
ĠJ ap
Ġintern aci
ol or
Ġter itor
ĠÄĿ uste
m ili
Ġmal long
Ġany thing
Ġkuti me
d an
Ġes plor
Ġn a
Ġi ÄĿis
Ġman ÄĿ
ĠA m
Ġb ir
ka p
en ca
Ġal menaÅŃ
ĠÄī am
Ġtag oj
Ġdi fin
ur ing
Ġpat r
Ġves per
l ojn
s h
j oro
Ġ1 1
Ġd ia
at er
Ġsem ajn
Ġperforman ce
I t
g aj
us ta
pos ed
Ġf oj
ĠB ra
s ed
Ġinf anoj
Ġperson oj
Ġmal mul
Ġfo und
ĠT V
Ġper e
pan io
Ġb ar
Ġg h
ÅĿ i
Ġmi aj
Ġe ÅŃro
Ġkom enci
Ġti al
ig a
ad oj
one y
Ġmon tri
Ġunu e
ik s
in on
ĠM a
Ġs or
ĠJ am
ĠB er
un t
T O
Ġc ir
ĠS ek
ber t
a tas
ul on
ĠW e
Ġabs ol
V D
ĠFran cio
Ġl er
2 4
Ġs es
ta ge
ĠAn kaÅŃ
pro ksim
p un
Ġsim i
z as
Ġo ur
ĠS er
Ġmal bon
Ġfaci le
Ġan ka
as o
Ġf en
P or
E J
Ġe vid
Ġse qu
Ġa ma
Ġf ino
ĠS en
Ġekz is
ton o
i ro
om a
tion al
Ġenter tain
Ġfam ily
Ġsu po
pe ct
Ġr un
ak e
Ġb an
ad em
ĠA k
Ġg la
li a
Ġau di
Ġnom bro
es ta
aÄµ on
Ġor don
Ġ1 00
Ġdire k
wo od
en oj
Ġsh o
c an
h a
Ġkar ak
ĠO n
lo v
ĠÄĪ inio
ĠG ra
ĠN un
itaj n
Ġtro vis
Ġmem broj
Ġn atur
Ġili aj
ĠD av
Ġfor mo
Ġvers ion
Ġb ud
ĠW il
ib lio
ĠD an
aÄµ ojn
A l
Ġpi ed
m p
Ġac t
b re
at ura
Ġk ov
Ġprezid anto
Ġki al
Ġafer oj
Ġun ders
peci ally
Ġwom an
Ġe mo
ĠH ar
Ġvid i
2 6
Ġ Q
tan t
Ġkon tribu
ĠS ankta
ĠT e
Ġpro te
b ra
ej oj
Ġkul tur
Ġprop ra
Ġde vis
ĠÄīef a
ĠI ta
Ġmov ado
Ġmon tras
p ing
Ã ¶
Ġc lo
O N
ĠG e
Ġdok um
Ġpo polo
Ġhav i
ali ty
Ġsu re
ĠK rom
g ru
lan da
Ġpop ula
Ġh ero
Ġprob ably
Ġsin ce
ĠaÅŃ tor
Ġhap pen
Ġ2 5
ĠT ra
Ġdev us
2 3
ti kaj
Äµ on
Ġfamili o
a ÄĿo
ĠK un
Ġres pek
Ġtu tan
Ġre lig
at or
Ġrig ar
l us
Ġregista ro
tan o
f ic
Ġink luzi
Ġpla ce
âĢ ĵ
Ġparo las
Ġra ther
Ġpre par
Ġdi fer
Ġs eks
Ġt end
ĠA t
Ġn ig
Ġsen de
s ion
tu ra
on s
ith er
Ġlong a
a w
ĠD VD
ĠIntern acia
Ġse ver
Ġaper as
ent ly
Ġan ta
8 7
x t
Ġes ton
Ġli an
aci oj
Ġmor tis
ti l
Ġdek la
2 01
Ġdialo g
Ġme an
ĠÄĿ oj
le y
Ġce lo
d ed
Ġcour se
y le
c al
te ma
c tor
Ġn ome
Äī i
lo gi
ful ly
ĠF o
ĠÅĿta to
Ġo per
Ġpro vin
Ġke ep
Ġti to
Ġmor to
Ġ =
ap s
Ġre ÄĿo
n u
os te
Ġtry ing
Ġw i
Ġpo or
van ta
Ġhis pan
Ġd omo
id a
vid u
el s
Ġin for
Ġar b
Ġsci enc
Ġe ach
Ġni an
as h
Ġar me
Ġprogra mo
6 6
rig is
ge ther
Ġs ing
et ro
ĠK an
Ġt y
o od
ti re
ĠÅĿ ia
ĠD on
Ġt w
or k
ĠK o
Ġmal j
n am
ne y
k toj
Ġdon is
Ġp ast
in ter
Ġm es
Ġmak ing
Ġf li
ent ojn
Ġb re
Ġres t
Ġwor st
ĠS am
Ġs an
at on
Ġbelie ve
Ġdiffer ent
ĠC ent
Ġdec embro
Ġin te
Ġy et
ĠWh at
Ġhe ad
Ġki om
Ġk os
4 4
Ġfe li
Ġsig n
Ġuz ata
en on
d ita
ri lo
Ġkn ab
lin e
Ġob ser
po ko
ĠPol lando
ti go
it s
Ġp ru
b i
Ġti aj
ed ia
ion o
Ġany one
z is
Ġa mo
ĠantaÅŃ e
Ġsur pris
Ġval or
į ã
Ġt alk
Ġg re
Ġdos ier
so cio
Ġkon duk
Ġre ÄĿ
ti ÄĿis
s y
p id
Ġj ud
ar n
o us
Ġunu an
Ġsu fer
ch e
k vi
Ġnom on
4 0
ĠTh at
Ġcom es
il la
Ġpro gres
en ces
Ĩ įã
v io
ĠAmeric an
ÅĿ is
r us
ĠP at
ĠA le
Ġsen se
ch a
E N
Ġshow s
Ġc li
Ġser io
! "
Ġpre fer
sk rib
N e
m or
Ġb ed
Â Ń
Ĩįã Ĩįã
Ġv is
Ġbea uti
st on
Ġfak te
b ly
Ġprin ci
b u
Ġas er
Ġend ing
2 00
Ġgo es
ate gor
ĠaÅŃ skul
Ġpre ÄĿ
s c
publi ko
Ġmalgran da
Ġk lo
ĠIn s
Ġs po
Ġj ob
te ad
Ġplay ed
Ġcon f
Ġspeci al
Ġpov os
con d
Ġst ri
ĠC o
Ġvid as
u ally
Ġhim self
Ġp ac
ing ly
em ple
Ġf es
at is
T iu
Ġm oney
f oj
j u
m end
Ġle gi
in toj
Ġre c
5 7
k cid
um on
b ri
Ġlook ing
Ġdu on
Ġf ig
ta ble
Ġbo ok
Ġvi aj
ÅĿ ajne
Ġfol low
Ġkongres o
ĠM or
Ġki l
Ġdis ap
or ge
6 0
Ġmals am
Ġc ou
ĠÄīi on
Ġa Äīe
ĠÅĿ in
Ġm ale
Ġen e
S ed
Ġk al
ĠS ur
em on
Ġfre m
Ġhav ing
Ġam as
x is
Ġob jek
Ġcer tain
Ġli bere
ie ce
ĠV in
Ġpos tu
Ġfor las
qu e
ĠB on
Ġmon o
Ġmem bro
Ġaparten as
ĠL o
s a
end is
Ġinf an
Ġk ru
Ġp ic
Ġi d
ĠB en
Ġt aÅŃ
ĠS im
Ġpra k
Ġuz o
Ġdis k
Ġur b
ero tika
de co
minis tra
gra ÅŃ
Ġre f
Ġsam tempe
Ġsim ila
D um
ĠS a
Ġdez iras
Ġsukces is
Ġlo oks
Ġan on
Ġind ust
m y
Ġkris tan
ĠAn taÅŃ
Ġre le
Ġto gether
Ġvoj o
Ġwas n
P ost
Ð °
Ġeffec ts
g usto
Ġf u
ĠAn g
ig u
Ġpla ys
Es peranto
ÄĪ i
ç¤¼åĮħç¤¼åĮħç¤¼åĮħç¤¼åĮħ ç¤¼åĮħç¤¼åĮħç¤¼åĮħç¤¼åĮħ
Ġdi vid
Ġb el
5 9
er on
ili o
Ġlong e
ri gi
) ;
ber g
per mes
ĠU K
Ġtem o
ĠT H
re ad
u le
cep t
ĠT iam
s es
ta r
to li
Ġv e
n om
ĠJes uo
Ġhum an
Ġe y
Ġth ree
Ġhal f
Ġv io
z y
Ġdis vas
8 9
A L
Ġs ank
Ġb ab
A R
Ġp ent
Ġg ri
Ġal ven
ĠA ll
c us
Ġre com
ĠÄĪ ar
Å Ĥ
Ġj an
ĠS ch
Ġle ft
ie w
f ine
3 4
Ġd ank
Ġso la
Ġri f
Ġs ide
tr um
ĠÄĿener ale
v os
K aj
h er
ĠM os
Ġtak es
Ġh ttp
ple ks
da p
Ġfor ges
kaz e
i ve
is m
ĠP l
ar aj
Ġpli bon
c um
Ġle t
Ġwatch ed
Ġabsol ute
Ġsitu as
c ojn
Ġpa ÄĿo
tre pren
Ġver ko
Ġkomun ik
Ġel se
par te
s ek
Ġpo la
ad a
Ġnun a
Ð ¾
ra do
Ġr as
Ġplen um
v et
Ġprogra m
Ġres tis
ate ly
Ġf el
Ġp u
or s
Ġkomp uti
ic ally
Ġvoj aÄĿ
Ġk m
s oj
ros s
Ġ2 4
fi ci
Ġk li
Ġre kom
Ġen tu
Ġlo kon
Ġsome one
Ġi r
Ġbal daÅŃ
Ġmin d
Ġklo po
Ġk ad
an i
s is
ĠT ial
Ġes pecially
A S
ĠÅĿ an
Ġaudi ence
. âĢĿ
Ġbeg in
Ġa po
m os
Ġo ka
y ed
pa re
3 6
si ble
flan ke
al on
Ġmal kov
en taj
ĠD i
lig as
ly wood
Ġ use
Ġman iero
Ġ5 0
Ġdeci dis
Ġm id
ta lo
la do
Ġdis ting
cho ol
Ġre fer
Ġce ter
Ġar g
en di
b io
Ġh our
Ġi a
ti a
Ġh ome
b as
Ġunu aj
ĠF in
Ġn ight
f ra
Ġkarak ter
. ,
ĠKong reso
Ġme to
l ern
re g
s pe
Ġparo li
li ke
le co
Ġide a
Ġc ap
Ġla ter
Ġf oje
l ish
g en
Ġdra ma
Ġgra vaj
tr y
graf io
an do
Ġpoli tik
? ?
ord in
Ġt rue
un do
Ġen trepren
Ġd uring
ĠK risto
Ġh ar
Ġper fect
Ġhom ojn
ta la
Ġver koj
Ġf ab
ĠB u
Ġde ven
Ġenhav as
Ġrecom mend
Ġsh ort
ĠIs ra
ĠEÅŃro pa
br ojn
ell ent
Ġin vol
Ġ #
Ġvid eo
Ġto tal
Ġpartopren is
ti vo
Ġag ado
Ġ !
ĠI m
ĠB ro
ĠdaÅŃ re
Ġri med
Ġpo zi
Ġwi fe
p lan
t ino
Ġjar ojn
0 6
Ġl is
Ġl ess
Å ľ
Ġc a
Ġre volu
Ġp h
Ġt as
Ġres tas
ĠT i
ĠE d
Ġfilo zo
Ġdon as
Ġf aj
Ġen tire
Ġt ero
ĠT iel
Ġpo ÅĿ
Ġevery thing
le zio
Ġp ur
Ġen er
re am
it ch
ĠÄīe es
od y
I S
a Ä¥
Ġ201 6
Ġre kon
Ġon ce
et s
Ġob vious
5 5
al d
Ġp ol
Ġmuz ik
Ġneces as
Ġso cio
ĠEsperan ta
Ġju lio
Ġus ed
ĠCh ris
as s
Ġi ris
tig ita
Ġ201 7
ĠK e
ek z
ĠJ a
Ġver a
v u
s ki
um a
KOKO KOKO
? "
Ġti m
Ġtut mon
fi ce
Ġs ong
e li
Ġvol is
Ġesperan ta
Ġa ver
la ÅŃ
9 9
m enta
ĠÄīef urbo
Ġpens as
re to
ĠC om
Ġsee ing
k un
Ġre te
Ġprojek to
ĠKon s
ÄĪ u
Ġpor tra
m ak
Ġsh ot
tr on
Ġc ame
per io
p ov
ĠB el
ĠNe w
no t
Ġevery one
Ġde mo
ĠC on
om oj
Ġven as
V i
ĠL ia
Ġj o
Ġan tik
Ġdistri kto
Ġo pen
Ġen kon
Ġa go
ĠK el
ĠH ung
ĠCh ar
Ġok to
Ġkul turo
Ġkre i
il ojn
Ġfa ce
ed o
Ġye ar
l li
Ġc or
2 1
ig on
Ġinform oj
Ġde ath
ut on
y n
Ġe fi
Ġt or
Ġraj tas
ĠaÅŃ toro
k lo
an n
n os
P ro
Äī oj
Ġat tem
Ã ¤
d os
Ġc al
ist ro
tem bro
in ed
Ġbe la
re t
Ġs tor
Ġs pek
ten o
EJ O
Ġi un
Ġ201 0
r ong
Ġmar to
Ġf ather
ĠD is
Ġrila te
ĠT iuj
Ġ2 1
ĠEn g
Ġvi c
Ġsu c
Ġse cond
Ġbeauti ful
Ġde tru
Ġin vi
ĠS an
Ġh a
ir d
ĠÄĿ u
Äī as
ĠP oste
in i
Ġblo go
Ġkon as
Ġh ung
Â °
ĠI M
iÄĿ os
Ġm ir
Ġl ine
Ġok uloj
Ġa dap
Ġn acia
Ġg ajn
ĠWh en
g ri
4 6
Ġcomple tely
Ġn ut
Ġperson o
Ġlo w
m ita
Ġf al
Ġnen ion
im o
graph y
Ġaldon u
Ġexc ellent
Ġb us
Ġ4 0
Ġjan uaro
ul y
Ġco un
Ġsimp ly
z er
Ġkon kur
Ġling va
Ġrom an
H el
Ġv as
Ġk van
D is
8 8
ÄĿ ojn
ta Äµoj
ĠÄĿener ala
Ġvi von
Ġ ris
Ġmaj o
K om
Ð µ
3 2
Ġstu pid
Ġa ta
Ġka ÅĿ
k ton
e x
ĠG re
st ro
z ono
es toj
t om
Ġto p
Ġfon ton
Ġmala l
Ġs tand
Ġv ok
ka to
Ġal ong
Ġhom a
as ed
Ġremem ber
ĠI a
Ġdisap po
Ġe duk
ti ÄĿo
Ġf und
iblio te
Ġstar t
O R
Ġbo y
Ġmili onoj
Ġs tr
c y
Ġpli long
Ġvor tojn
ugh t
Ġvila ÄĿo
Ġnom ata
I V
ĠS ud
Ġproble mo
ĠÅĿajn as
Ġex pec
m it
tan to
Ġsm all
Ġclass ic
Ġriver o
Ġe ten
Ġnov embro
Ġc el
Ġe as
Ġb a
Ġser ious
Ġc ol
ri a
Ġinc lu
Ġsende pen
k ol
E L
ta Äµo
Ġokaz os
s ing
am a
ta ta
Ġpar ti
k res
li to
Ġal t
a f
ĠO f
Ġka toli
Ġgra ve
el f
b y
ment oj
Ġam ikoj
ĠDav id
Ġokto bro
Ġf ut
Ġur boj
li bro
Ġkom enco
Ġcou ple
iÄĿ on
tic ular
Â» .
Ġstru k
Ġskrib is
Ġn aj
kom pren
I L
Ġ u
ĠT om
Ġvio l
Ġw rong
ver y
Ġne pre
Ġhel pi
ĠN ur
ĠRus io
k ar
p ir
Ġsu f
Ġlan d
ĠHol lywood
Ġkla re
Ġd ol
gan te
Ġnen io
ep at
ĠÄµ us
in de
anta ro
k ing
ĠH el
Ġm ess
Ġwom en
lan toj
Ġver ÅĿajne
enc oj
Ġs pa
Ġmuz iko
Ġj ap
Ġfil mo
ĠN ot
Ġf lor
ĠĠĠĠ ĠĠĠĠ
Ġt a
em ent
D e
Ġni ce
ci ante
Ġperforman ces
ĠP rin
Ġsin jor
Ġsitu acio
Ġkompren as
Â» ,
Ġas s
ro w
Ġekz amen
ur is
Ġe ither
Ġap rilo
ĠÄī es
ĠG u
Ġating is
b el
Ġlabor on
ber a
ĠaÅŃ gusto
] [
Ġapar te
end aj
Ġjun a
Ġd ri
Ġk olon
ti lo
Ġ201 5
Ġvir inoj
ĠM c
Ġrek te
ĠN u
ĠO ne
Ġperio do
Ġho use
ad i
Ġv olon
ĠR om
Ġs om
7 7
ar do
ĠM ia
Ġmala per
h aps
Ġcam era
Ġun til
Ġw ent
Ġ201 8
Ġp an
Ġlabor is
Ġb i
z ing
ĠHis panio
Ġsup posed
mili to
Ġbor ing
Ġfriend s
Ġgi ven
Ġt rin
ĠT ie
Ġpoli tika
ur oj
Ġnask iÄĿis
lov ak
ar ing
Ġsep tembro
b an
por t
Ġvir ino
Ġcent ro
Ġrespon dis
Ġg epat
Ġpri va
Ġz org
Ġcin ema
k ita
e f
Ġnov ajn
Ġex am
Ġunders tand
Å ¡
don o
ĠM y
5 8
re di
for tun
Ġler ni
di ÄĿis
Ġf all
Ġpa ÅĿ
Ġor din
Ġam pleks
Ġ200 0
Ġsis tem
Ġs un
en do
Ġbon an
wh ere
ĠRes publiko
Ġmon t
Ġkla rig
Ġimp res
h ip
Ġnen i
Ġopin ion
Ä¥ a
p ite
Ġf id
Ġpa per
il s
e la
di re
Ġsu d
Ġtra duko
c x
Ġc ra
ci aj
Ġindi vidu
ĠT ur
ĠT EJO
Ġating i
Ġuz is
Ġali lingva
ab lon
Ġus ona
Ġmo ther
Ġtraduk u
Ġinform ojn
Ġal vo
Ġbla ck
Ġrap id
ĠR u
Ġla t
ĠRe g
Ġinter v
Ġdisvol vita
Ġdez ir
Ġpatr ino
Ġs chool
Ġmom ent
ĠS ci
Ġpo wer
Ġlas taj
ĠHow ever
ter na
Ġv ali
Ġartik oloj
Ġki ds
ĠK u
or is
un da
Ġit self
Ġfam a
Ġf ull
Ġparol is
Ġtem pon
k en
Ġte or
Ġjun io
Ġdeman do
Ġan ali
Ġki d
Ġkre das
at ojn
Ġarg um
Ġd im
ã ģ
ula ro
I I
Ġdemo kra
ut oj
log ia
ĠÄµ urn
ĠL ing
Ġplilong igi
ul taj
Ġam ik
Ġproksim e
ti ÄĿas
ĠP le
Hel pu
ĠB ur
b lan
p ojn
Ġb ring
Ġe ta
Ġprez entas
Ġrev uo
Ġlo koj
p ag
ÄĿ aj
li am
Ġgru poj
Ġmom ents
Ġkomun a
Äī jo
ata l
Ġw a
â Ī
Ġfor te
Ġs li
Â «
Ġpar ticular
L aÅŃ
ÄĿ os
Ġsam tema
ÅĿ ta
tem pa
Ġ *
Ġprodu ction
Ġflan ko
Ġof er
ĠS vis
Ġkap ita
c ing
Ġreg ist
in ess
Ġsta b
and id
men ciante
o de
ĠEsperan t
v ajn
ĠE U
Ġmom ento
en n
Ġrus a
Ġf ron
Ġdivers ajn
ite ly
ĠN a
po la
Ġkons istas
Ġins tead
Ġf em
Ġedz ino
at es
Ġar m
ck ing
Ġne xt
ĠP li
Ġ( "
Ġle v
E k
or oj
Ġi ome
Ġal por
Ġd am
Ġe ge
Ġins titu
Ġget ting
Ġs ent
Ġki a
K iam
lig is
6 4
ĠJ er
g le
9 7
Ġme ze
Ġ2 2
Ġdes er
Ġaso cio
Ġb lu
ĠM r
Ġde ad
ck ed
Ġn ame
Ġo c
ig os
Ġfar ita
v ado
Ġtri a
es peran
d es
Ġ2 8
Ġvor t
ĠKrom e
Ġim por
] ,
Ġtr uly
Ġgran de
ĠG o
Ġbe le
ĠS ome
Ġbud get
Ġprovin co
Ġa ux
ĠS al
fer o
Ġof ten
Ġother s
rio us
ak te
Ġs w
Ġex peri
" )
b lo
ti m
Ġp ron
Ġmalnov a
Ġb ran
te lo
Ġlo ka
Ġdis pon
I D
br uaro
on to
Ġre ligi
Ġkons ci
ak s
Dis kuto
ĠN en
Ġri Äī
Ġnum ero
bo dy
Ġproksim ume
ri ed
3 1
v itan
ĀĀ ĀĀ
ajn o
la v
Ġnor ma
p ita
ar th
Ġle gan
Ġdo ing
Ġbecom e
Ġtro vas
li k
ĠâĢ Ŀ
Ġs low
ĠM in
ĠÄĿi aj
Ġhow ever
ĠT er
Ġprom es
ĠS i
Ġkon d
I f
ti me
Ġkons is
h is
ĠK iu
Ġel sta
k io
Ġproble m
Ġcons ider
f ere
Ġho pe
un de
mul to
Ġe vol
Ġkor po
Ġ2 7
Ġvi vas
Ġfel t
Ġgi ves
ili ty
Ġma lan
por tun
Ġter rible
Ġc ase
j ar
et y
9 8
Ġper fek
Ġkons ta
Ġ200 8
Ġmo di
ĠMar ia
Ġhe art
ã ĥ
Ġe ga
ri ll
Ġg az
Ġf eder
ĠH en
Ġf ac
Ġde velo
Ġcre di
Ġlo ÄĿas
Ġpre ter
b ut
ti vaj
ĠH a
Ġeks ci
Ð ¸
Ġliter aturo
Ġs la
ÄĿ e
u a
Ġprop ran
Ġteritor io
Ġtrans form
Ġe poko
aÄĿ on
Ġb ur
Ġaw ful
Ġli broj
ĠloÄĿ antoj
S o
tan taj
Ġdon i
on ta
) :
Ġp al
Ġag nos
us h
Ġplen a
ĠW ell
Ġl isto
ĠÄĪ iu
Ġlin es
ĠJ un
Ġar t
' ,
Ġhum or
Ġ8 0
Ġfan tas
gan iz
Ġs ad
Ġvi ajn
ĠV ir
m ing
ĠUnivers itato
l um
ver se
Ġs ort
Ġagain st
Ġ2 3
âĪ ŀ
Ġplay ing
li an
5 6
Ġprez enti
ks o
Ġdon ac
ĠIsra elo
Ġliber a
Ġl um
Ġkompren i
Ġdialog ue
pro duk
ur aj
Ġbon volu
Ġti tle
ĠT em
Ġmur der
ĠÂ ĸ
Ġseem ed
Ġn er
Ġsub stan
tr oj
ĠE ble
Ġgu ess
Ġd anÄĿ
Ġver kis
Ġgra ma
Ġkura c
Ġsim pla
Ġofici ala
4 3
p ress
Ġe arly
m ig
tt ing
b aj
Ġver kon
Ġlo k
ĠS AT
ĠÄĪ iuj
Ġpar la
Ġtra f
ul g
da Äµo
Ġak tiv
Ġle ter
at u
Ġso li
ĠK or
Ġwonder ful
Ġg x
Ġcould n
z ed
Ġopini as
Ġkon vin
i to
K iel
r ajn
Ġc ut
ri la
Ġbe h
Ġentertain ing
Ġin ici
Ġte at
b s
O T
Ġrice vi
Ġhispan a
Ġfor ta
ĠTH E
en aÅŃ
Ġe di
ĠM uz
Th ere
Ġartik olon
ĠL ud
ulo us
Ġti en
ĠL on
ti ma
Ġkon cep
Ġd ark
Ġmalfaci le
Ġpar toj
4 2
ĠP e
m ino
Ġk oro
ran s
Ġsta to
sel ves
c le
u to
ĠÅĿ atas
b and
in ted
Ġtag on
el ess
Ġex tre
Ġe vi
Ġrespon de
O ni
Ġlik ed
i tion
Ġesperantis to
is ts
c or
ĠM ad
en con
ÅĿ anÄĿ
ÅĿ a
Ġdosier oj
ki el
eb laj
Ġap enaÅŃ
ej on
âĪŀ âĪŀ
Ġbed aÅŃ
Ġstr ong
Ġ201 2
Ġiome te
read y
ren ch
rin de
er io
Ġb log
ĠMi cha
Ġchild ren
Ġkre is
si ve
Ġinter pre
Ä ľ
Ġli ve
U T
Ġad ministra
Ġb at
id oj
h am
ĠEsperan tis
for t
Ġkun ven
ĠU S
Ġci vi
ĠJ an
7 8
Ġp iece
r um
lu bo
z aj
ugh ter
Ġqu es
Ġb io
Ġkompren eble
ĠK a
Ġbri lli
k t
ĠUn io
Ġsci is
Ġvor ton
l ino
Ġ 0
ĠAnd re
Ġmals up
Ġepis ode
Ġmal dek
Ġrela tions
f il
c ted
Ġti an
Ġmen tion
ci e
iÄĿ intaj
ĠB la
K U
Ġin sta
Ġraj toj
Ġvi ro
Ġus on
ĠAk adem
ri c
Ġst yle
Ġce las
ĠUnivers ala
ĠR i
Ġj es
an ge
Ġd ro
Ġs x
Ġdisvol v
ĠC i
Ġg eo
z ilo
Ġpre leg
Ġa vi
Ġmal proksim
te k
ĠS ub
Ġfunkci as
Ġa ra
Ġmay be
Ġv end
ĠSin joro
ĠE m
Ġsever al
t us
Ġm aro
ĠI z
ar ch
mov ado
Ġmal graÅŃ
lo k
d or
ar i
Äī is
tu lo
Ġsoci al
Ġb alo
pl en
ĠWil liam
Ġsoci a
Ġbon aj
Ġteks toj
Ġ2 6
Ġspeci ala
et ojn
Ġd in
Ġpar ton
ĠK i
Ġpl ene
ĠÅĿ ton
Ġact ress
Ġi ri
Ġmal ri
Ġan no
Ġal ready
Ġbegin ning
Ġkom pon
Ġnun tempe
Ġof ic
tor oj
om et
k er
p ic
An d
Ġ {
Ġmalj un
Ġ erotika
on y
ĠO ri
ĠT re
Ġfin an
Ġstar s
ĠM at
ran o
ĠT ri
Ġkon cer
Ġku ÅĿ
Ġare o
Ġmalan taÅŃ
p res
ÄĿ en
Ġwas te
ĠU r
z an
va ble
Ġ200 6
ri k
Ġg aze
Ġinkluzi ve
ol ojn
ali e
E l
li taj
!! !
Ġgro up
s im
Ġ ul
Ġkre d
Ġpartopren i
t uloj
ĠEkz emple
ĠJap anio
en g
Ġh oro
Ġre ci
Ġdis c
Ġ200 7
Ġb ild
Ġtem p
Ä į
str um
Ġfak to
Ġevol uo
Ġsol d
ĠÃ Ĺ
Ġpop oloj
Ġmal var
ik an
h i
Ġ200 9
Ġdefin itely
Ġsek ve
Ġs y
Ġfir ma
Ġwor se
Ġcertain ly
Ġdeman dis
Ġa ble
Ġmal permes
E T
Ġd ou
ard ek
ĠW ar
Ġak tu
Ġpubli ka
Ġsto p
ĠI S
A s
Ġgu ys
Ġpens is
d om
tic al
ĠIta lio
m un
Ġher ed
Ġ201 1
ĠÅĿta toj
Ġmals an
Ġmon atoj
Ġak om
Ġp ek
Ġf as
Ġabsolute ly
un io
Ġri de
Ġpar tio
Ġbecom es
Ġe v
Ġ7 0
Ġwri tten
Ġa j
Ġw in
Ġpa co
Ġtele vid
Ġt om
cum enta
Ġkon tin
Ġs ab
Ġdirec tion
Ġwan ted
pun kto
Ġv ek
9 5
ĠMicha el
in aj
aci on
Ġg ame
f riend
Ġbata lo
d le
Ġmalfaci la
Ġde diÄī
Ġp ala
Ġpren is
f un
aÄĿ a
j are
land aj
Ġcal led
Ġes tab
Ġpro ce
Ġro lon
Ġkon ten
b b
Ġmala m
Ġli ves
R e
Ġsuc cess
ĠÄīi un
J en
Ġsen di
Ġpic ture
pla y
Ġra dio
Ġn am
Ġmen so
to p
ĠN ord
Ġto wn
Ġmon on
ub a
Ġreprez en
Ġvar i
Ð ½
Ġbro ther
Ġmal hel
pozi cio
6 3
k y
Ġpoli tiko
ur on
Ã¡ n
Ġni velo
u ta
Ġc as
Ġmaj or
c el
f an
Ġv illa
ĠE ven
ĠBri tio
ĠV al
Ġk andid
en ted
az ar
Ġpa in
Ġap ro
per im
Ġte am
Ġfe bruaro
Ġcon tin
ĠM ay
ĠT im
Ġs elf
Ġrelations hip
Ġle ÄĿo
fortun ately
tis mo
Ġmal b
ĠU N
ĠK ris
Ġvizi tis
te ks
00 7
6 2
s ti
an tan
Ġprovi z
Ġn ord
is tic
k cio
Ġarme o
Ġbrilli ant
ĠW or
le t
Ġf rue
ab e
Ġmont ris
00 8
Ġkom ence
es tas
D o
ĠC ol
Ġn aturo
Ġw ish
Ġd ese
ĠC la
Ġ200 5
ĠR os
c tive
ĠP h
Ġal b
Ġak iri
iÄĿ inta
Ġf ans
ĠF a
Ġso le
Ġtran kvi
ti mes
Ġmat ter
ĠRo bert
le gi
Ġkres k
za ÄĿo
wh at
ak ing
Ġras trum
Ġverk isto
Ġlo ved
ti al
Ġh i
ars ov
a in
ĠK ial
Ġe g
fer enco
4 1
Ġuz ado
tan oj
Ġm edio
m id
ok ra
Ġse c
ĠP al
Ġim peri
bur go
Ġsen dis
Ġ201 4
ind aj
Ġspeci oj
Ġro om
ĠÅĿ ablon
enta l
Ġtotal ly
Ġey es
ĠA X
Ġch o
5 3
ĠM em
ĠP la
Ġesper as
Ġexam ple
Es tas
ti ce
Ġlo st
Ġman kas
i or
Ã ½
Ġsu pre
is s
u k
Ġto uch
v ad
Ġday s
Ġn on
! )
Ġmas ter
C h
ĠAf riko
Ġstran ge
ward s
Ñ Ģ
Ġal though
ĠN eder
is ter
Ġnum ber
Ġma ÅĿ
Ġ om
Ñ Ĥ
ou th
Ġhis tory
Ġkon ven
L E
Ġkon ta
Ġprez entis
Ġbil do
ĠÄľ is
Ġrastrum eroj
Ġvid e
is iono
ti ci
ĠEk de
cio us
Ġstra to
Ġd anc
Ġrice vas
Ġka po
Ġn es
a tions
ĠR en
las h
u li
Ġkrom e
Ġg ave
ina tion
g y
b is
Ġfin fine
g x
Ġproble moj
ĠFran k
g s
Ġg ar
ĠR ad
Ġc rap
ĠE gi
Ġkun s
li on
i kon
Ġf iks
Ġinter kons
Ġb r
ĠK vankam
ĠP ra
ĠloÄĿ antaro
Ġbas ed
Ġs ankta
Ġthem selves
ĠR ich
en da
Ġfi ÅĿ
Ġde al
for ma
Ġfli ck
A r
5 2
ir st
Ġlabor as
Ġhel po
Ġman ag
Ġling vojn
Ġentu te
Ġth rill
bar oj
ol f
ĠIn di
Ġtrans por
ĠMar tin
ab l
Ġ6 0
ĠA p
Ġkons id
ist ino
Ġreven is
Ġclo se
Ġpro fi
at s
Ġsam an
Ġskrib i
ig oj
Ġakom pan
ĠÄĿi an
ĠA ra
Ġgra vas
ti kon
us ed
uz o
Ġ201 3
Ġwan ts
ĠÄľ ener
Ġwa it
M ar
ĠGran da
in ing
ara to
ion s
p et
Ġpar ts
Ġrigard is
ĠF ine
Ġle arn
k le
in ts
5 4
ĠaÅŃ to
Ġstu ff
ĠF il
Ġel ÅĿ
p end
es peranto
st rio
em e
Ġhor oj
ra Äµo
n et
pen se
ĠB al
Ġmalgran daj
Ġe ÅŃ
id anto
Ġlern ejo
Ġgen re
Ġh us
Ġam iko
am p
Ġkon tak
Ġmi ks
Ġfa ir
Ġkur so
Ġthrough out
Ġsub skrib
Ġdes c
Ġsu da
Ġri d
ir on
Ñ ģ
Ġb lin
Ġokaz e
Ġat mos
ĠAf ter
Ġqu ality
Ġekzem pl
ĠaÅŃ dis
ta g
Ġestr aro
Ġwri ting
ategor io
Ġcol le
us ing
Ġc reat
Ġc all
Ġhe ard
Ġtri es
Ġprop ag
Ġret urn
ĠL in
b all
ic a
Ġkor ek
Ġb ibliote
Ġfor ma
ĠC er
ĠPar izo
ĠT omo
Ġr on
lan te
Ġwor ks
Ġide oj
li z
Ġto ok
ĠJam es
Ġa tt
Ġok ul
H o
ed i
ĠJoh ano
long e
Ġrezul to
Ġal f
Ġleg is
Ġpropon as
Ġdos iero
Ġvir oj
Ġdis tan
un ch
ur es
ĠvoÄī don
Ġ 000
Ġne kon
ĠP i
Ġc rea
ĠW ith
Ġn atura
Ġlook ed
s eks
Ġk az
ĠC an
M al
am er
Ġp sy
Ġn ar
Ġmar k
Ġenhav o
ta tion
Ġpubli ko
ã Ĥ
Ġelek ti
8 0
ĠI KU
ĠE uro
Ġpre m
Ġte en
tem po
Ġbeh ind
Ġfin al
Ġinteres a
ĠG od
ling vaj
Ġpo em
Ġs tan
Ġrila toj
Ġvor taro
Ġpar te
Ġs por
Ġb en
Ġhon or
tis h
ĠS E
ĠEsperan tistoj
Ġman o
ĠÄīef aj
Ġflu g
Ġi ras
Ġv ag
ĠÅĿajn e
ul is
Ġview er
Ġink lu
f es
es per
ĠM ag
Ġsub ite
Ġv ig
Ġmalmul te
Ġins ulo
Ġenjoy ed
Ġpa ÄĿoj
Ġto day
** **
don e
em ble
Ġri pe
Ġs um
Ġmy ster
Ġkil led
e v
ĠAle ks
Ġ9 0
ĠHung ario
Ġin ves
Ġsek reta
Ġk av
Ġt rib
ĠantaÅŃ a
i ke
par to
Ġfo li
ti an
Ġex pect
Ġtra k
Ġet c
S T
Ġkompren is
Ġkarakter iz
z ojn
Ġsen d
Ġstar ts
ri ka
Ġparo la
ĠP etro
Ġili an
Ġtrans don
Ġkom b
Ġk ron
Ġs le
ĠE ks
Ġpartopren antoj
Ġturn s
Ġman oj
Ġmal for
ĠS tu
ĠE Äī
Ġle vel
po ÅĿ
ĠJ ack
ĠFran cis
Ġnom oj
ĠloÄĿ antojn
In ter
g ed
ĠTh en
Ĩ Ĵ
Ġh id
Ġblo od
Ġdi pl
Ġdis kuto
Ġre vi
Ġlern is
ri go
Ġkonk lu
em okra
Ġso on
pren eble
Ġaldon i
Ġter min
Ġmodern a
Ġ %
Ġenkon duk
ĠE r
Ġapar ta
gan ta
z or
Ġeldon o
Ġ3 1
Ġtem oj
Ġmy self
Ġinternaci aj
c la
Ġmor t
tic s
Ġsur pri
Ġrenkonti ÄĿo
_ _
Ġdu e
K on
Ġmin im
ile d
Ġevent u
ĠP eter
ula ra
Ġreg is
Ġhor rible
Ġanka u
f ac
Ġvi vis
Ġcx i
Ġhej m
Ġur bon
bur g
ĠS p
Ġce le
Wh at
Ġpro s
ĠIz ra
A socio
ĠantaÅŃ en
al isto
iÄĿ u
ĠK ol
Ġam uz
Ġnor da
ĠA socio
ik ip
u es
van ge
Ġle av
Ġm un
Ġokcid enta
ĨįãĨįã ĨįãĨįã
M on
Ġfor to
Ġfin ally
t ent
Ġling v
Ġex act
Ġvo ice
Ġla te
Ġrimar k
Ġde cent
Ġ2 9
Ġpun kto
ĠM ov
) .<
Ġfra to
ĠÄĪe Ä¥
Ġo d
ĠÄĿ ard
R O
Ġda ughter
Äī on
a tan
Ġch ang
p es
Ġka zo
Ġor der
Ġhe ar
Ġas k
Ġg ard
Ġmon aÄ¥
Ġnov el
Ġekzis tis
Ġp ul
Ġmon don
Ġh u
ĠV arsov
Ġrev iew
h or
vis ion
Ġmalsam aj
lovak io
Ġn ature
Ġnaci aj
pren is
ling vo
Ġkill er
Ġk anto
Ġde mon
Ġek stre
si ko
A f
Ġa gra
Ġin de
00 9
Ġen g
Ġfeel ing
ÄĿ u
ĠÄī ina
Ġplur ajn
Ġfavor ite
Ġd est
U n
Ġd ie
ĠPle j
Ġlan don
es pon
ol u
ĠH av
Ġsay s
ri taj
Ġthink ing
Ġhom aro
Ġh ila
ĠGe orge
Ġs ter
p at
Ġc eloj
Ġstra te
Ġhistor ia
B ut
ch es
Ġim pos
Ġavi ad
m ely
Ġkri tik
Ġpro vid
em ato
Ġpra kti
Ġvoj on
on on
Ġto ld
Ġefek tive
y e
Ġpre ten
Ġp ay
Ġi l
ĠK io
di k
Ġdu dek
Ġbil doj
Ġkam po
ĠÄµ e
eb l
Ġm u
ci ojn
Ġunivers ita
Ġli bron
ĠV an
Ġappe ar
ĠMos k
Ġpre mis
ĠN ow
ard s
k in
ĠAkadem io
P ri
ĠEs tis
Ġri dic
ĠPa ul
Ġes cep
Ġdu ono
Ġimpor tant
ti ke
Ġinter na
Ġk ne
Ġrif uz
ĠIKU E
ĠI r
h ow
ĠE x
ĠF er
Ġnom as
7 9
Ġsek ure
! <
Ġlo kaj
for mo
ĠÂ ·
Ġtak en
ĠEng lish
ta don
ĠAl so
Ġak tive
Ġi tala
Ġelek tis
Ġkul tura
er y
Ġe vil
Ġama zing
ras h
Ġc ost
vi ce
fe li
ĠpreÄĿ ejo
Ġtele fon
Ġseks a
Ġregion oj
te bla
Ġprak tik
Ġhus band
y al
Ġfer voj
ci al
Ġf lo
Ġhap pens
Ġli ght
lu te
I T
Ġin tel
Ġmo de
Ġexperi ence
f ik
lo go
Ġper haps
Ġp ure
ç¤¼åĮħç¤¼åĮħç¤¼åĮħç¤¼åĮħç¤¼åĮħç¤¼åĮħç¤¼åĮħç¤¼åĮħ ç¤¼åĮħç¤¼åĮħç¤¼åĮħç¤¼åĮħç¤¼åĮħç¤¼åĮħç¤¼åĮħç¤¼åĮħ
Ġnor do
Ġpoten co
Ġinf ano
Ġ +
ĠJ on
Ġpa f
Ġb estoj
Ġmal p
An taÅŃ
Ġf ur
ir u
vo id
Ġinter alie
lek to
em aj
ĠD om
min ist
Ġsu pren
Ġla ck
Ġli ver
Ġaj na
Ġsci i
Ġty pe
ov o
b al
Ġrespon d
E D
e toj
um b
ĠBra zilo
ĠR a
n as
Ġf ight
oo gle
Ġhappen ed
Ġg un
Ã³ n
Ġefek tiv
Ġre ve
Ġme ta
Ġkomenci ÄĿis
ĠM ac
ĠH am
n ask
p ical
Ġat end
Ġâ ĨĴ
es o
Ġmor tin
ĠPo la
Ġmal li
Ġknow n
ig ante
Ġle ave
Ġhav os
Ä ľi
je ct
i ra
ta ga
Ġci vitan
Ġsen s
Ġof fer
lo ÄĿ
ĠN acia
Ġdis ku
x oj
ĠO kcid
Ġfilozo f
i ojn
anÄĿ oj
Ġalven is
Ġunivers itato
li m
Ġf ing
' .
ĠF re
Ġsta ris
ff ic
Ġf ul
am oj
Ġsen co
Ġori enta
Ġpostu las
k ite
Ġp aci
Ġsin joro
aj o
ĠâĢ ĺ
an ton
Ġwh ite
Ġar tis
Ġpe tas
Ġt raj
Ġekzem plo
ĠV o
Ġmond milito
Ġki aj
ĠWh y
s ide
vo le
li c
di ÄĿas
Ġide on
Ġf ri
I A
ES TO
ĠKel kaj
Ã ¨
Ġs ki
Ġsta ras
Ġkapab las
Ġw alk
ens ion
ÅĿ an
Ġtito lo
o h
Ġt atu
Ġkon cent
ko po
Ġpast ro
ĠC or
6 1
por no
Ġsek vis
Ġviol ence
Ġmal of
Ġqu ick
Ġhila rious
Ġinvol ved
ĠU z
Äī aj
ĠÄ ¥
Ġfoj on
kom un
Ġpe tis
ĠS ov
Ġre to
ka ta
Ġkon ataj
Ġrelig io
Ġb ul
ĠM ultaj
es tis
ĠF rench
Ġne ÅŃ
Ġfon d
ĠS c
Ġcan not
Ġme ti
Ġmed ic
Ġap pro
Ġne ar
Ġdirec ted
da ta
Ġattem pt
lo ke
Ġtra vi
Ġgepat roj
Ġstor ies
ĠK ore
Ġte ch
9 0
u ck
Ġre ma
Ġtre jn
ov a
Ġl umo
Ġsen du
ani ere
Ġgra van
ĠJap an
i us
Ġmar bor
ĠÄī ap
Ġplej parte
Ġdo cumenta
Ġro les
Ġsim bo
ĠQ u
Ġkom pare
Ġcom ing
Ġtal ent
Ġad res
ar to
p ose
in ojn
Ġal low
ast ro
a co
Ġat ta
Ġwe ak
Ġinc redi
Ġni ajn
F or
Ġelek to
Ġcon vin
re co
ĠaÅŃ tom
Ġgirl s
Ġba zo
te con
Ġc la
Ġridic ulous
Ġnom ita
and er
ti voj
Ġkontro l
Ġ200 4
P er
Ġde zi
Ġte amo
l oro
b ara
Ġex pla
Ġmallong a
Ġmi ajn
he ad
Ġmalfer m
Ġextre mely
ĠÄīi e
Ġkvan to
Ġrela tive
Ġe to
Ġat endas
Ġf our
ĠG oogle
ate ma
Ġkom par
ie ws
Ġhour s
Ġesperan t
Ġdeci do
Ġd ream
ĠR ob
Ġde ter
ti ga
Ġup on
Ġpri pens
Ġsen tas
me o
Ġco ol
ĠS il
di es
Ġhom aj
Ġekonom ia
ĠL at
Ġv an
Ġen iris
a ux
ier on
Ġfon to
lan ta
Ġser vo
Ġp et
Ġmon to
ĠWh ile
Ġfor moj
im a
ig x
Ġd io
ri ch
Ġh os
ĸ ĳ
Ġdeman d
k te
Ġsigni fo
IN G
m em
ĠD ek
Ġac ross
Ġsc ore
Ġh it
Ġevid ente
Ġres ta
es ti
Ġeks plo
U nu
Ġge ed
Ġpro vis
Ġstab ila
ke y
Ġri po
Ġdese gn
Ġsek va
kri bo
ĠR ed
ĠP as
N un
Ġis la
Ġbir doj
Ġsimi laj
Ġwor d
Ġwould n
Ġp ho
Ġvid u
ÄĪ e
ĠV la
Ġtra g
Ġnom is
Ġkonf li
Ġek lezio
Ġsta tu
Ġspeci ale
th y
Ġs uno
ar ki
Ġi gn
ĠI I
Ġch ance
Ġdis tribu
ĠH or
Ð¾ Ð
Ġreci pro
tig itaj
ĠP IV
7 0
ent y
Ġhon est
Ġmal rap
8 5
ĠY ork
Ġnom iÄĿas
Ġsim ile
Ġbon ven
s ub
7 5
Ġrila tas
Ġturn ed
el d
Ġmalbon a
Ġ )
ĠÄĿ en
Ġj us
ĠG ar
Ġple z
Ġde b
ĠF ESTO
Ġmateri al
Ġa ir
aj a
Ġv eter
Ġar to
Ġpro tes
Ġakcep tis
ĠN ia
le go
Ġcer ta
Ġcent ra
m ir
log y
z ia
Ġre cent
Ġcin emato
Ġproduk toj
Ġpoli ce
Ġkonf ir
ur y
um an
Ġnig ra
k re
ĠÄīi elo
du lo
kur so
ili p
ĠB a
Ġf igh
ĠE very
Ġp il
kon stru
Ġorigin ala
Ġk alk
Ġb ody
Ġ200 1
eter e
ĠÄ ¤
Ġvor ta
ĠaÅŃ d
Ġcoun try
ĠT a
ĠB ern
Ġman ko
ĠÄīam bro
st ron
Ġre ta
po li
Ġap par
Ġcare er
Ġs lo
ed oj
pre ci
Ġa tten
Ġlabor i
Ġpos sible
rig as
Ġg ang
Ġtek ston
Ġme tis
Ġk aste
Ġproksim a
Ġsu do
Ġfar os
Ġkun veno
Ġapar t
ĠA zio
pl ena
U N
Ġmili ta
Ġpron on
li go
ĠF e
ri p
di e
l en
ĠÅĿablon oj
Ġkne w
Ġd rin
Ġs we
am ento
ol es
Ġpar don
Ġex ci
tic ally
Ġs entis
ĠKan ado
N o
ri bo
Ġde ep
Ġvi zaÄĿo
ĠF ar
c in
Ġpli multo
Ġpoli tikaj
es tern
Ġf ren
or do
Ġat en
Ġsek van
Ġaso cioj
est roj
Ġpre dic
for d
Ġer ar
X X
ish ed
Ġdeman doj
tor io
ĠM aro
is maj
Ġshow n
Ġsti lo
Ġcomple te
fi ko
pa ÄĿo
ut ter
ĠP res
ĠÄ ´
Ġtem per
Ġor do
g ar
u de
Ġe qu
ĠJ ust
Ġwor ds
Ġche ap
h an
Ġex plo
Ġsay ing
Ġanno ying
te in
lo ko
Ġrimar kis
KOKOKOKO KOKOKOKO
Ġsome times
Ġpers one
Ġkom pli
Ġsci enco
d ra
ig ado
R E
ĠRich ard
n ow
ĠâĢ ¦
Ġfen om
ter a
s ci
Ġa ro
b aze
ĠEk lezio
Ġdeven as
f ita
Ġkap on
Ġc ul
Ġi el
ĠM er
ac ks
Ġj ok
Ġblan ka
ĠDu a
n oj
in es
Ġfe ature
l s
Ġantik va
ic s
Ġkons titu
Ġkil omet
Ġ $
Ġad d
gran d
Ġhav en
Ġali e
ten as
ĠPl one
ĠÄľ ia
Ġfin anc
Ġobvious ly
Ġp ick
Ġminut oj
lu b
Ġorgan izo
ad as
Ġus ually
Ġfon dita
Ġek le
ĠU kra
ĠBri tish
Ġdou b
Ġuz antoj
ĠM eks
Ġplibon igi
Ġa ge
Ġk ro
ĠM as
ĠP aÅŃ
Ġlo ÄĿis
u el
ong e
ĠV en
wh ich
Ġhand s
A M
Ġn one
ĠA b
y ond
ĠW al
Ġgaz eto
Ġmalmul taj
Ġimp ress
Ġw he
kul turo
Ġuz ataj
Ġyour self
ĠP an
Ġat ribu
h on
Ġno kto
gra fi
Ġexact ly
ti e
Ġg xi
Ġf esto
L e
Ġal one
abl ono
ur s
ĠS m
Ġfo to
la ro
Ġend s
g round
ĠG ad
ĠNeder lando
r al
Ġpl us
Ġs ave
Ġsemajn o
f ono
Ġlin io
Ġs ov
ĠA c
Ġcom ed
Ġtrov os
j un
f ran
n ik
w ing
Ġa do
Ġde l
end oj
Ġak uz
Ġpa ÄĿon
Ġim pli
9 2
Ġvo Äīo
i tive
Ġch ange
i cio
ĠS co
Ġopen ing
Ġmin ac
C H
re z
ol is
Ġhigh ly
Ġdipl om
Ġam ong
ch Ã©
Ġprof und
Ġjud oj
Ġspa co
Ġatten tion
Ġ198 0
Ġparticular ly
Ġde par
Ġsup por
Ġl es
g ent
Ġwh ose
Ġjar on
Ġn aÅŃ
Ġvi vi
w ise
ĠA N
.. .<
ĠÅĿanÄĿ i
w ri
ĠK ul
g ia
Ġme et
Ġus ual
Ġpreci ze
Ġpor do
Ġsing le
Ġrek la
Ġa ren
ĠJ ud
Ġmili t
Ġm atema
Ġwri ter
ing o
Ġkam par
ĠAÅŃ stra
ta to
ĠLi ber
Ġafer ojn
ĠIM G
Ġfor get
w ork
Ġfig ure
Ġj ardek
Ġdo g
Ġfil ino
Ġtak ing
T io
ÄĿ an
Ġsoci aj
pi ra
Ġa fi
Ġd ru
ĠK ing
Ġstar ted
ĠÅĿi p
Ġfo cus
Ġ199 0
Ġjarc entoj
Ġg aran
Ġli ving
Ġman if
Ġpropon is
Ġb ov
Ġevi ti
Ġal te
et nam
ig ni
ĠPre z
Ġne ga
Ġpermes as
Ġm ig
Ġfaci la
Ġsignif on
Ġelek tita
Ġem bar
b us
m et
per o
Ġkre ita
Ġanka ux
Ġon es
n on
Ġin strum
Ġrun ning
Ġpre fere
Ġfar u
Ġal terna
ÅĿ to
Ġen s
Ġg ore
Ġques tion
Ġa ÄĿo
Ġsus pense
j an
li er
Ġforlas is
Ġtek ni
p ped
Ġsur vi
Ġhel pas
Ġstra ight
Ġfin ds
ĠG i
ĠB ab
Ĩ ĳ
Ġtag ojn
Ġdev os
Ġprofes oro
Ġtas ko
Ġa vanta
Ġpro vo
Ġid enti
le ks
ĠD ire
Ġkom ita
Ġviz itan
Ġfem ale
Ġkonsider as
ĠS ank
ber s
Ġespri mo
ĠSvis lando
R A
N U
Ġreali ty
an da
Ġsome what
b ata
Ġproduk tado
ĠV or
ÄĿ aro
Ġhistor i
Ġskrib as
y a
Ġlo cal
ch er
Ġcx iuj
8 4
Ġkonf es
d ajn
Ġkon du
am b
f aj
9 4
Ġt rom
ca tion
Ġfe atur
lig ita
Ġorganiz aÄµo
Ġ _
u oj
ĠD a
Ġrevolu cio
Ġrom ano
Ġdocumenta ry
Ġv ent
ell ing
Ġcle ar
ĠS tan
ĠS ved
Ġmeto do
ĠK ion
Ġvid punkto
Ġsimila r
is i
od es
Ġrele ased
Ġperson a
Ġcon tro
Ġspe cio
ĠJe an
Ġdisappo inted
H e
Å Ļ
ĠSu per
Ġjok es
5 1
Ġ197 0
b en
k es
Ġmon da
Ġm ap
Ġper dis
g ita
ĠD es
Ġsubten as
ĠKong res
ĠÅĿ ar
Ġor nam
ch ed
Ġfilm mak
Äī am
Ġmid dle
Ġt un
or y
ĠF ra
ess ion
Ġhistor ion
Ġdevelo p
Ġoka zo
rig ard
Ġraj ton
8 6
Ġinfor mo
n ed
ĠeÅŃro pa
ĠCent ra
T amen
Ġrila to
ĠWor ld
ĠT ok
Ġek kon
w or
z org
Ġang lan
Ġprop raj
Ġn eder
Ġdu an
UT C
ul ts
ĠT ut
ĠV il
Ġknow s
gru po
Ġb omb
Ġc over
ĠK os
Ġili ajn
Ġsek vas
Ġfeder acia
ĠT ro
ĠV a
ĠL ou
Ġser voj
ĠF akte
Ġel s
ĠÄī as
is mon
Ġin tro
c ra
va ta
Ġsil ly
pre m
ĠSo ci
Ġak iris
Ġpho to
ĠF eder
Ġsk la
r ino
r alo
Ġspe co
I M
ĠEsperant ujo
Ġjun aj
ĠAmeric a
Ġartik olojn
ko do
Ġsi t
ier oj
m ore
7 6
Ġre ag
gan to
Ġproble ms
Ġstruk tur
? )
w ho
Ġk ler
und oj
J es
Ġproble mojn
Ġkva li
Ġsho ts
g os
i ti
Ġp ap
Ġrigar di
ĠD ist
Ġdekla ris
ke toj
Ġevent s
â Ĩĳ
Ġkomenc as
me ti
Ġgrand ajn
Ġpo eto
Ġprom en
ti ri
Ġs ak
Ġins tan
ĠSta r
Ġal taj
Ġcinemato graphy
e le
Ġkol or
ĠS piri
Ġfon dis
ĠS t
ĠÄĿ usta
Ġtra du
Ġafer on
p ra
ic tion
ks a
Ġdes pite
ĠeÅŃro paj
ĠLud ov
Ġtalk ing
Ġhung ara
Ġre ala
ut y
ĠAÅŃ strio
Ġekz er
oj o
Ġmi x
c s
p el
ĠKom preneble
ĠV ia
w ell
on i
Ġf ree
Ġb ank
ĠÅĿ tu
ling ve
kon stan
Ġti ajn
van o
Ġven os
Ġhu ge
Ġad minist
Ġven on
Ġaparten is
br aj
Ġes pl
Ġkomunik ado
Å Ħ
Ġa ero
ĠAn ton
k ado
Ġs ove
ov ern
Ġex cept
Ġser vis
Ġviz aÄĿ
Ġli brojn
Ġrenkon tis
Ġfund amen
ĠGad get
Ġprez enta
k va
ur t
ĠE o
fi ed
Ġo portun
Ġkond am
Ġe ko
Ġdi ffic
um p
Ġar bo
Ġmin or
ĠS om
Ġmon ato
Ġmem sta
em an
Ġpatro lita
c en
Ġret poÅĿ
Ġvet uri
Ġsimi las
pro gra
Ġorig ina
ĠI J
zi as
Ġjap ana
re jo
Ġcli chÃ©
ĠUnu iÄĿintaj
Ġinclu ding
ĠD r
Ġkonstru ita
] ;
az a
Ġab ove
Ġof ice
ka ble
Åľ anÄĿoj
Ġg ig
Ġ200 2
ĠT ero
ĠC am
gan toj
Ġdat umoj
F ran
Äµ e
Ġef fort
Ġattem p
ĠK ro
Ġsequ el
Ä¥ o
Ġdep endas
Ġmateri alo
Ġoc c
Ġli to
be to
di tion
n aci
i ble
iÄĿ anta
Ġ3 5
Ġrakon to
Ġmun ici
9 6
Ġindi kas
Ġkontrol endaj
Ġado p
ĠA g
Ġhap py
an on
Ġling vis
ĠT ar
Ġk lin
Ġpopula ra
ir oj
Ġakcep ti
kos mo
Ġfut ure
ĠO h
ĠB y
Ġanim o
p ost
k ro
Ġpre vious
t ly
Ġhe av
tiv alo
z en
ĠJ os
Ġpos si
Ġev entoj
um ado
Ġtra kta
ĠÅĿanÄĿ oj
Ġkomer c
Ġliter atur
p lu
Ġtu ÅĿ
Ġfaj ro
Ġc ur
Ġeb ligas
Ġpor n
Y ou
ĠD ra
Ġra ting
Ġsold atoj
di ÄĿo
ĠkaÅŃ z
Ġsupo z
is o
Ġs aÄĿ
Ġkor espon
Ġbu ild
Ġkre as
av a
Ġre pe
tur es
Ġter mino
ier re
Ġnen iel
ĠKons ilio
Ġf ide
Es peran
v ely
Ġdu o
ĠEgi p
Ġe ar
ko lo
Ġr ent
Ġsci enca
ĠLe e
Ġinstru is
Ġkal ku
Ġk as
Ġh ell
ut s
h u
ĠT or
tiv ely
Ġtell s
Ġpro ces
ĠG er
Ġkonf uz
7 4
Ġklas o
Ġprob able
ed aÅŃ
Ġdez er
ĠF und
Ġset s
Ġatmos ph
Ġlern o
D E
m m
et te
van te
Ġsp end
logi aj
are d
Ġfor t
Ġjun uloj
ĠVarsov io
k iu
ĠAli aj
he tic
Ġtak s
e con
ĠÅĿajn is
w in
ĠN acioj
um ojn
ĠPar tio
Ġappe ars
Ġk ara
um is
Ġstud entoj
Ġgener al
ĠH on
Ġeks perim
8 3
os to
Ġuz ita
= =
ĠIn f
ĠAleks and
Ġre duk
Ġneni un
Ġple as
Ġpublik igis
Ã ¢
Ġtab lo
v it
re y
Ġposed as
Ġur ba
Ġok ulojn
Ġsequ ence
h ib
m b
ĠÅĿ ul
Ġintel lig
I C
j ec
7 2
il kosmo
Ġsta te
ĠÅĿi po
Ġgi ving
m at
Ġreg u
D on
Ġsufi Äī
M y
ï »
Ġth in
Ġbo x
Ġhel pis
Ġtradi cia
Ġh old
Ġeduk ado
ĠÄľener ala
Ġtutmon da
Ġreg uloj
ĠSov et
ĠÅĿ at
Ġnom i
na bo
O n
Ġblan k
? âĢĿ
v itaj
Ġpo e
po le
res h
Ġk antoj
Ġor d
Ġkor e
Ġbe yond
Ġfo o
Ġin t
ci an
tra ck
Ġman on
Ġfra zo
Ġnask iÄĿ
re w
Ġh ate
Ġbro ught
ï» ¿
Ġre form
ĠGerman a
ĠLi to
Ġkomun umoj
Ġkre do
Ġprez ento
Ġli mo
fer oj
ĠIm perio
Ġreg ado
Ġvizi ti
Ġan s
Ġofici ale
Ġro bo
Ġopin io
lan doj
Ġcle arly
Ġeven to
di a
Ġfar iÄĿas
m uz
Ġkons ek
ĠTh om
Ġtatu aj
Ġdoub t
Ġru b
ģ £
Ġvoj aÄĿo
Ġac c
Ġtri ed
si an
Ġkontro li
Ġlat ina
ÅĿ e
K un
d ado
Ġeas ily
ĠKu bo
Ġre e
ca pe
man ÄĿo
Ġ200 3
em p
ĠNov a
ĠK am
Ġke pt
O L
ĠPat ro
pi re
Ġinstru ado
sh ip
Ġeston teco
Ġindust ri
ka Äµo
Ġpens i
Ġrez er
k ura
Ġper form
O M
Ġver o
Ġra re
Ġt aj
g ni
Ġlabor istoj
m u
Ġsur baze
Ġpar ents
Ġch i
Ġmost ly
Ġme ans
Ġleg as
Ġtran si
Ġspiri to
es ton
Ġf alis
ĠN iko
ĠUn ue
ĠHis pan
om un
Ġan ti
ĠL and
Ġvi ki
ĠO sc
Ġme lo
E K
E F
ur as
ĠJ ose
Ġbus iness
vid is
Ġb and
Ġrem ind
ca ted
ĠPo li
Ġi an
om en
ap or
Ġlern ejoj
an aj
ti ÄĿ
Ġsli ght
Ġmi ra
Ġway s
Ġwith in
Ġher self
ill s
Ġa er
Ġtrov iÄĿis
ï ¼
Ġter ri
Ġvesper o
Ġsc ary
Ġnar ra
Ġre produk
Ġcivitan oj
w ith
Ġf ast
Ġmalaper is
ri d
ak es
Ġeas y
Ġs ved
ĠneÅŃ tra
Ġsek cio
Ġkunlabor o
Ġk ra
Ġres tor
Ġinstru isto
tr aj
Ġfor mon
ber to
ĠB re
Ġed zo
ĠaÅŃtor ita
Ġ5 00
ĠFin n
ĠLi bera
fa co
u on
Ġcir konstan
Ġkam pan
Ġserious ly
Ġsuf fer
b l
is on
Ġp siko
Ġsup ra
Ġcar to
Ġekonom io
Ġ era
k tas
ĠÄīiu tage
kres k
Ġek vi
ĠUnu a
Ġkad re
Ġk ab
ce i
Ġmalf ru
Ġrigard as
tan a
Ġcom ic
tra ÅŃ
ĠB r
Ġespri mi
v ino
Ġcx e
Ġd ull
ĠB lan
ĠD en
ĠF ond
ĠAn y
Ġster eo
Ã º
ov i
al ing
ĠMar k
ĠLudov iko
ĠV ic
on ojn
ul p
Ġcom b
ak ed
Ġex press
Ġdir ante
Ġlig ita
Ġsurpris ed
ĠMosk vo
Ġstory line
g ion
Ġtro ve
Ġlu do
h ol
Ġkelk foje
9 3
Ġkonstru i
c u
x on
Ġf os
Ġpri tra
Ġpredic table
Ġm eri
us ale
Ġar kite
Ġk em
il is
Ġlern ej
Ġz omb
ti van
Ġsil ent
Ġenjoy able
Ġc en
ĠF lor
Ġbri ta
Ġmalnov aj
Ġsan go
ang le
Ġentu zias
s ka
Ġa res
ĠL A
ĠL as
ĀĀĀĀ ĀĀĀĀ
Ġaran ÄĿo
Ġak von
titu to
Ġele ments
Ġbre ak
S P
ĠB il
Ġekz isto
en ojn
ĠA us
enc aj
Ġ ero
7 3
Ġg lor
ĠT rans
Ġmal ÅĿ
st ojn
-- --
y er
ra Äµoj
em is
Ġm ask
ĠkaÅŃ zis
Ġkur s
Ġepis odes
ur an
ĠLa bor
Wh en
Ð º
Ġvi kti
nov a
Ġtele vision
Ġdan ke
Ġlo g
Ġmode lo
Ġh azar
Ġb unch
Ġcer emon
Ġâ ģ£
av o
Ġlo gi
Ġsam aj
Ġpropon o
ĠKar lo
Ġtek no
Ġmess age
Ġroman tic
u kces
Ġanta ux
U R
Ġla si
ling van
ke to
dis kuto
Ġfall s
Ġh y
ĠE ÅŃ
th is
ĠS lovakio
S C
Ġeks k
Ġset ting
Ġgre ka
Ġgh i
vid o
Ġsol di
Ġmemor as
Ġfru a
Ġim per
ĠH an
!! !!
Å ľi
ro p
Ġperio d
Ġtru th
Ġthe me
ĠJ im
is ed
Ġkonstru ado
Ġpren i
Ġn ura
Ġnam ed
Ġp ed
om an
Ġb are
ĠB ad
Ġuti la
Ġc olor
Ġcom pan
Ġele mentoj
ĉ Ċ
Ġprogra mon
Ġsukces o
c ame
Ġak tiva
be lie
Â ´
Ġo be
Ġrimed oj
ĠNen iu
ĠBon volu
B e
lan o
J e
s s
um as
ly ing
Ġpo ints
Ġlud as
ĠRad io
ĠO K
Ġneed s
Ġmus ical
ĠK re
Ġkonstru aÄµo
ĠÅĿta ta
ĠK az
Ġeb l
Ġliter oj
i ere
Ġin ven
aÅŃ g
Ġdecid ed
ĠS ti
Ġceter aj
Ġk ern
Ġunu op
ĠserÄī i
Ġey e
Ġpre mi
ĠH al
Ġkon vers
ĠW ood
w a
Ġsper to
Ġvas ta
Ġsud den
Ġe vange
Ġcx ar
ĠT ion
Ġko ordin
Ġshow ing
Ġpers ek
ĠK al
ig e
Ġmem br
Ġli ajn
Ġwork ing
g erman
P o
ĠM ur
T T
ig xis
Ġlud is
Ġstran g
Ġordon is
Ġau th
i zi
Ġthe at
ajn as
li ÄĿis
Ġbeg ins
Ġsong s
Ġmalsup ren
ak is
Ġthrill er
Ġd ig
bo ok
Ġkura ÄĿ
Ġdom on
Ġs ca
ron o
Ġprojek toj
Ġpor tu
Ġsid is
min istro
Ġsound track
Ġkon ek
ĠAmer iko
I G
Ġla tin
Ġpris on
ĠJer usale
Ġhej mo
Ġfron t
Ġdis s
Ġentertain ment
ali o
Ġb iz
Ġsupo zas
kap ab
en tan
ĠR omo
ier aÅŃ
fice jo
il er
ic es
ic an
Ġintro du
Ġkres kis
Ġcom mun
ĠKom itato
Ġty pical
an ojn
Ġf lash
ĠAd am
Ġaser tas
Ġrele ase
ĠVir g
Ġprogra moj
de jo
Ġdim an
Ġra b
Ġling vaj
uj on
Ġfor toj
us es
Ġele ment
ĠB os
Ġreal istic
Ġs ac
Ġstu di
âĢľ .
Ġsistem on
U S
ð Ł
te le
Ġlead s
Ġdesc rib
g ing
ĠK ra
pa red
Ġdirek toro
Ġdisc over
Ġvar ia
T V
tun o
P L
Ĥ ¬
Ġlern ado
Ġse ason
Â ²
Ġmov ing
Ġplen umi
Ġfeel s
Ġprefer as
R o
Ġmuz eo
Äī u
Ġmov e
Ġte ach
Ġc ity
Ġfor igi
Ġarb aro
Ġkatoli ka
ĠAÅŃstra lio
Ġgajn is
Ã §
ate ver
Ġpris kribo
Ġprezid ento
ikip edia
S h
Ġmon um
Ġsub ject
Ġw ww
vi Äī
Ġval oro
tag me
Ġf iz
. :
a ce
Ġre ak
Ġgen u
Ġser v
Ġgaran ti
Ġne arly
Ġmalal ta
Ġhos pita
? <
S ur
Ġs ang
ĠO s
ĠÅĿi aj
Ġinfor mon
ĠChar les
ĠTem as
ri ght
ĠMar y
Ġsuppor ting
Ä ´
Ġk nabo
Ġpro ced
ĠV ol
Ġspe ak
lan to
da to
Ġfilm ed
Ġg ay
Ġrakon tis
ero us
Ġju ÄĿ
Ġman ojn
Ġgra v
Ġpop ol
Ġsubten i
gi lo
Ã ¸
ĠT aj
Ġkla ra
Ġmalb one
Ġvizi to
Ġi dio
Ġcon c
il ling
Ġest ro
ĠUkra inio
Ġa stron
Ġn ed
Ġremem or
ĠPal est
te to
ĠG NU
Ġcom ments
Ġview ers
Ġkva lito
s et
Ġc ru
B C
ws ki
ĠMon d
per n
Ġlern antoj
ant ino
A mer
Ġwhe ther
est ojn
be lo
a ko
Ġ Î
graf ia
Ġro lo
ation al
ĠEsperantis ta
Ã Ĥ
Ġbe came
Ġa void
Ġfar itaj
Ġpov u
Ġpag i
ĠSek ve
ĠChris t
le m
Ġneces a
Ġvar me
Ġm ad
j ojn
w ar
Ġver da
Ġrakon tas
Ð »
Ġd er
Ġi ta
Ġproble mon
u ble
Ġeventu ale
Ġad mit
ĠPaÅŃ lo
Ġdir u
Ġus ing
Ġk od
Ġbu y
t m
tur b
Ġespri m
Ġper d
teks to
Ġexpec ted
lu e
Ġide ojn
id es
Ġ19 60
Ġcon tain
Ġdat re
Ġkam ar
b ir
Ġgerman aj
Ġpres ent
Ġview ing
Ġbil don
en tita
ĠB ud
Ġdeman don
Ġpra v
Ġfi ve
Ġcri me
Ġla go
Ġres ult
Ġsek so
Ġt eo
Ġs alaj
v at
A C
Ġel spe
Ġobjek to
Ġi ll
Ġatt ra
Â ħ
ent u
Ġnaci oj
9 1
Ġsek re
o kaze
Ġbe laj
ĠN OT
p ping
Ġdi verse
Ġg one
it ro
Ġd eri
ĠP et
ĠSu da
Â ®
Ġkaste lo
im edia
Ġeto so
Ġc ry
Ġbor do
Ġmal feli
os o
Ġinte lek
Ġ utter
ĠPar la
f am
S al
i red
Ġres ti
ub e
un k
ĠE arth
Ġ19 50
Ġkla rigi
Ġg run
ĠOr ganiz
ĠaÄīe ti
Ġdeter min
Ġ4 5
Ġw ood
Ġsub jek
Ġex tra
Ġar te
ti Äī
Ġwh om
Ġre co
Ġfor pas
ĠD ia
ĠR am
rig u
Ġsequ ences
t les
in y
Ġg lo
Ġdif ino
Ġteor io
Ġkon gru
ĠR od
Ġkre di
Ġpen so
de z
Ġmal tran
Ġkun me
ĠR on
Ġsh oo
Ġkur soj
Ġdef end
di ty
Ġkap ti
d omo
Ġpor no
Ġfilm oj
Ġlan gu
Ġrev iews
br u
Ġsub e
Ġex ec
ĠÅĿta t
is tojn
est r
ta go
Ġj uste
ka Äµoj
Ġfam ous
Ġnu kle
in tan
ta taj
Ġun un
Ġcre ep
ĠNor da
Ġnaj bar
Ġt ale
Ġover all
Ġsta tis
v aro
Ġl ist
Ġbelie vable
ĠB an
Ġaldon is
ir ka
Ġver si
to do
zi oj
Ġgrande ga
ig aj
Ġpro kla
8 2
Ġeli ris
p io
Ġco p
Ġche es
ĠLing vo
Ġmet ro
Ġs cio
ter d
Ġre kta
vi to
Ġre tro
Ġsis ter
porno grafio
Ġabs ur
Ġvir tu
Ġfi zi
N u
Ġpri labor
Ġtradi cio
Ġkonsid eri
ĠOsc ar
Ġcon stan
es ome
ti ÄĿi
Ġkons entas
Ġfra toj
Ġfrem d
Ġprof unde
emble o
ig ra
ĠC he
med ia
Ġdiffic ult
ĠSovet unio
Ġt ask
Ġag ri
Ġactu al
Ġpartopren o
Ġpremis e
tig on
ĠAr gent
ĠAn na
Ġex cep
Ġback ground
Ġm ista
Ġi zo
ĠB as
el ojn
ĠI ra
Ġgerman oj
ĠFo lio
Ġbat tle
V AL
ub ile
Ġkomputi lo
enc as
Ġprodu c
Ġi e
ck y
gran da
er ojn
ĠE st
ĠF rom
Ġsemajn oj
Ġstruk turo
, âĢĿ
ĠBel gio
A li
b ack
Ġv ento
man iere
Ġsen ti
Ġtra pas
ĠÅĿi an
Ġfor ced
Ġcom ment
Ġrapor to
a i
kon gres
Ġkonsider ata
Ġedi ting
ĠS em
Ġsta y
ĠĠĠĠĠĠĠĠ ĠĠĠĠĠĠĠĠ
Ġle ÄĿ
Ġlong aj
ĠC as
ĠK ap
fa ce
Ġmean ing
Ġsurpris e
Ġsitu ation
y d
ĠB ah
... )
Ġhar mon
Ġinter reto
ĠaÅŃskul ti
ad ojn
Ġfun kcio
zon oj
Ġgvid is
Ġkons ul
p iece
Ġbo ther
Ġlu di
O ne
Ġ- --
Ġreg ule
Ġto ler
Ġ `
un u
ĠJo e
Ġfi re
Ġkaz oj
Ġc atch
Ġi ÄĿas
Ġelek tron
Ġlern as
Ġlas is
Ġbas ically
ver all
Ġim pro
ind an
Ġpe ti
Ġmet roj
Ġmes aÄĿ
ĠÅĿan ÄĿo
Ġfil oj
ĠKom isiono
edaÅŃ rinde
ch ie
Ġinflu o
" ).
g lute
Ġpe to
Ġindust rio
Ġfin is
s ur
Ġle tero
Ġkill ing
Ġd ens
Ġd olor
Ġli gh
th s
ĠMon da
n un
le o
ĠC ra
Ġunua foje
kon duk
Ġstu dis
es a
ĠS un
Ġre p
ĠW ho
Ġpas is
Ġpubli c
ÃŃ n
s to
Ġinternaci an
} }
aÄĿ e
Ġg li
ĠÅĿ los
Ġc ig
VAL ID
T o
Ġp roj
Ġsen p
Ġsol vo
âĢľ ,
ĠserÄī as
ĠS lo
Ġkomer co
âĪŀâĪŀ âĪŀâĪŀ
ĠB or
Ġmals ano
ke co
Ġri ch
I O
Ġf als
Ġdez iris
Ġaran ÄĿ
K rom
k n
z es
Ġter or
vor te
Ġaspek to
Ġlibere co
I li
ĠB arato
li ght
Ġne at
v ia
Ġeks kur
Ġdeli ver
m ame
tiÄī ismo
Ġkonduk is
per s
im e
Ġatmosph ere
Ġener gio
li ter
ĠM us
Ġn acio
vin eo
tem paj
L Y
Ġde pen
tion ally
rig ita
ĠBla ck
Ġdokum entoj
ĠEuro pe
f y
f ying
Ġp ura
Ġcle ver
Ġan arki
Ġha ir
ough t
Ġsufi Äīas
Ġw ater
Ġlegan toj
k tojn
Ġw it
Ġ/> "
ĠC etere
ni ve
Ġfa il
su es
Ġleav es
Ġfilozof io
Ġpa ce
Ġren ov
Ġkres kas
Ġtem poj
Ġindi vid
Ġorganiz ado
ĠCent ro
I R
Ġspeci alan
Ġal tan
ĠM ed
ĠMay be
Ġsta ge
ĠL is
Ġtraduk i
Ġsp ac
Ġcre w
G ran
ta gon
Äī uro
Ġmal l
Ġko ti
An kaÅŃ
Ġredak toro
Ġiam a
n ia
os a
Ġvo lo
Ġsoci ety
Ġlo ts
Ġsistem oj
Ġthe ater
Ġi ron
Ġri Äīa
Ġgreat est
Ġe bla
man iero
Ġpsy cho
7 1
ĠEkz istas
Äīi Äīo
ta dis
voj o
Ġkom itato
am ikoj
Ġrespon do
ĠBer lino
Ġsekreta rio
ĠFinn lando
ski j
Ġuson aj
O O
Ġproce zo
ĠI N
n io
ĠB ir
Ġat endis
Ġdom oj
f te
pe to
f id
k turo
tas tro
Ġat enton
Ġfirma o
Ġmin ute
tik an
Ġv ul
Ġper cep
Ek z
Ġstru gg
Ġac cent
Ġv aste
ĠB ru
Ġpa po
Ġfra ÅŃ
Ġkres ko
J am
Ġmin istro
Ġsek vaj
ÅĿ oj
Ġquick ly
Ġy es
paro lo
le to
ĠK ato
Ġraj tojn
Ġfantas tic
Ġsoli d
Ġsendu be
! âĢĿ
Ġsu de
Ġpriva ta
Ġul tima
t ch
le v
ĠF eli
ĠUn fortunately
Ġspa ce
T ra
n aÅŃ
Ġkon ati
av ice
Ġkoncern a
Ġpoor ly
Ġign or
n or
ask omun
Ġef ik
Ġappar ently
Ġfamili oj
b il
Ġ19 30
i ajn
ran ta
ente co
Ġkonk re
Ek de
Ġfeatur es
cent ro
j etnam
Ġt on
an don
ĠS z
ek o
Ġkonser vi
Ġestr ar
ĠSm ith
g ajn
Ġam ike
ĠS w
Ġsin sek
Ġbor ed
ĠG ri
Ġef fect
ĠL en
ke jo
Ġekster a
an tajn
Ġg overn
th at
ĠR um
Ġcon ne
Ġla me
Ġti po
Ġne p
ĠM ala
ĠLon don
Ġbon ajn
Ġaver age
da Äµoj
Ġali ÄĿ
ĠLon dono
ĠD os
ĠÄīiuj are
Ġfo toj
prez idanto
Ġinteres ted
Ġhej men
flu ti
ĠS to
Ġpro c
v eloj
om on
ll ing
Ġrespon di
Ġk lubo
pe lo
Ġ ing
Ġm atch
Ġhel pon
Ġd un
ĠL es
12 3
Ġh un
ur ojn
ĠO l
Ġuz ante
Ġplan toj
Äī er
Ġpar ko
Ġperson al
ĠpoÅĿ t
ĠD ar
ven on
f aci
Ġd ang
Ġla w
iÄĿ oj
Ġpas s
Ġth ird
Ġre en
ton e
h ard
as ter
ĠÄĿis da
Ġsus pek
Ġm uro
Ġhom on
Ġk r
Ġcom mon
Ġf ier
ĠS tra
ĠS ame
Ġsu ges
Ġfor iris
ge bla
Ġak adem
and y
Ġho t
Ġsoci alis
Ġpublik igita
Ġbaz a
v uo
ĠK ri
Ġkon ver
x e
ĠâĢ ķ
Ġtiam a
kul tura
ĠB ill
Ġfon toj
pern ity
c ap
Ġpoli co
Ġread ing
H ow
ĠPor tu
ĠVin ilkosmo
Ġtrans lok
Ġrap ida
Ġakcep tas
IN VALID
in ten
Ġanim ation
ĠM aj
Ġz or
Ġf ik
Ġlar ge
k uti
ĠS tre
Ġpo laj
ĠO b
land anoj
ri ÄĿis
Ġd ress
ĠG ood
Ġco py
ĠSved io
ĠK en
Ġfor ward
Ġpli for
Ġko do
Ġbaz ita
Ġkoncep to
ĠB et
Ġwe ek
le c
Ġfin a
Ġeldon ita
Ġmal he
Ġdia lek
Ġkomb in
ĠIr lando
ong o
ĠAl though
wh ile
vil le
Ġprinci po
Ġk atal
Ġki aloj
Ġfoo tage
M ia
la o
Ġstran ga
ĠV ene
p anoj
Ġfin iÄĿis
J oh
Ġvi van
Ġreg as
b ility
Ġneed ed
ol ds
Ġrelig ia
g no
in an
Ġstereo ty
Ġbibliote ko
Ġrif u
Ġmyster y
at ro
qu es
Ġte g
A P
Ġg ras
Ġfor tika
Ġpli aj
an taÅŃ
A ll
n ie
Ġan oj
Ġg am
Ġuz on
n aj
o und
ire jo
ĠT ia
Ġtraduk oj
h ar
Ġv on
ma to
Ġar boj
Ġnom bron
Ġsuper b
Ġparti oj
Ġdu b
ĠCer te
el onge
Ġating as
Ġkonta kto
n omo
Ġst un
gh av
Ġsen to
Ġdire kto
8 1
g ojn
" ),
Ġreg no
Ġtri dek
ÄĪ ar
Ġvar ious
Ġmemor able
i et
Ġad vent
Ġdifer enco
t z
Ġto wards
in stru
Ġsem in
O V
Ġimperi estro
ag ra
lo ck
ĠD ie
ĠÄĪ io
ĠantaÅŃ aj
form oj
Ġkom panio
Ġno te
ĠOri enta
Ġr ing
Ġwork ed
lo ok
ig ata
Ġverk ita
Ġear lier
Ġdum b
ho od
Ġde te
ad ra
Ġhav u
ĠIzra el
ĠK ie
Ġinteres o
Ġinfor ma
Ġserio ze
man te
Ġtro uble
Ġsex ual
N M
Ġm iloj
k ajn
li ka
ÄĪ iu
Ġs ick
Ġpar tojn
Ġdis de
Ġcon cern
p in
s ess
Ġsh ame
Ġbaz iÄĿas
Ġmalof te
Ġpower ful
Ġmalrap ide
Ġla ux
Ġwe ird
Ġmis s
Ġmarbor do
ĠL ern
Ġperfect ly
ĠDis ney
Ġven onta
Ġcredi ts
co un
ke o
ĠIM D
ĠP ierre
zi la
ĠÄĿ us
Ġp on
Ġe min
Ġa tak
f la
v alo
Ã ±
Ġprof unda
Ġi ru
Ġsubten o
ĠM el
Ġar baroj
ĠaÅŃtor oj
Ġceter e
ĠLito vio
me tis
Ġmak sim
Ġwri te
Ġod d
Ġnor de
ci klo
e ct
ÄĪ iuj
B I
Ġen spe
Ġk ategor
Ġkoncern e
Ġemo tional
Ġsh ip
Ġkons tante
ĠTh ese
ph er
Ġka tastro
Ġmul ti
ĠdaÅŃ ris
Ġlaugh s
ta ra
ĠM ost
B on
u tis
Ġh aÅŃ
ĠO li
Ġrom p
Ġjardek oj
Ġg im
ĠH om
Ġap preci
Ġneces s
ĠaÅŃ t
Ġali ÄĿis
Ġsome how
ĠC a
Ġdisk ut
Ġmaltran kvi
i as
Ġtre at
A D
Å ¾
Ġf ro
Ġre ach
ĠY es
Ġkeep s
K o
s al
Ġman ÄĿi
tem ento
Ġsig no
Ġchees y
Ġp ej
Ġiuj n
Ġmon ster
ĠEsperan tisto
Ġven kis
aj xo
Ġre pres
Ġam askomun
Ġru ÄĿa
Li bera
Ġoc cas
Ġkomer ca
Ġdo ctor
Ġag ree
Ġsukces e
nask iÄĿis
Ġ3 00
ch i
tu al
Ġdis turb
ĠTe le
Ġve ge
Ġimag ine
Ġpro vas
... ]
Ġgirl friend
M o
Ġne g
up ra
mon s
Ġreali ze
Ġp ilo
Ġokaz inta
Ġparla mento
Ġpossi bly
p edio
ĠAle x
Ġmals ukces
Ġla u
ĠI ts
Ġfen estro
ĠF es
Ġkol er
Ġdifin ita
D an
Ġrice v
g lo
am et
ĠIJ K
ĠF on
Ġsin c
il le
Ġoka zi
ro te
Ġser vi
Ġko pi
Ġhi po
Ġg ej
Ġtraduk ado
la Äī
Ġpre zo
Ġpil gri
k itaj
Ġli go
Ġlong an
Ġol der
ĠM is
Ġinte lig
Ġsendepen de
Ġâ Ĥ¬
Ġmat ene
ĠR aj
com e
Ġparo lantoj
Ġpop ular
Ġp in
Ġm ild
Ġ199 9
Ġfla t
el le
Ġfor mer
son o
zi aj
far ita
ill er
tio us
Ġe mer
Ġar ri
pren i
Ġsol vi
Ġscreen play
ĠHen ry
Ġsle ep
Ġb es
ĠB ran
Ġkon ferenco
45 6
E E
i anoj
or ganiz
ĠOkcid enta
al ojn
Ġkon is
Ġso ft
Ġekz ist
re de
Ġkuti ma
Ġju da
Ġs vis
ci do
ig anta
ĠaÅŃ ton
ĠJ ar
Ġapar taj
Ġkurac isto
os s
gan o
Ġe mas
tu red
Ġrom ance
t nas
Ġim perio
Ġkonsek ven
ĠH u
Ġdom in
Ġpor de
lus ion
Ġflor oj
ti vis
ĠR ig
Ġ19 20
Ġdek stra
Ġdevelop ment
van to
Ġst ul
Ġkvar talo
p to
Ġpart ner
Ġkultur oj
æ ľ
ri ck
Ġekster e
Ġne ws
da pe
Ġplan edo
Ġaspek tas
Ġblin d
ekz emple
k ras
Ġorganiz oj
ĠC ity
Ġany way
Ġin no
log ical
ag er
Ġkonstru is
Ġkoncern as
k las
ta kto
Ġsek v
Ġekzem p
Ġpied oj
Ġb l
Ġfor mas
Ġuni que
amer iko
ĠThom as
for me
ĠG ener
Ġak v
pec ts
Ġwri ters
ĠAng lio
ðŁ ĺ
ĠS k
ĠG ro
Ġdon ita
Ġfir m
ĠK ir
Ġinstitu cioj
Ġaktu ala
so ci
Ġtraduk is
h al
Ġla stan
ri es
Ġg aj
Ġne go
Ġbad ly
Ġv und
ĠÄīe val
Ġki alo
ĠL or
mar t
Ġp run
tig u
Ġp aÅŃ
Ġre mar
ĠT ag
Ġple ase
Ġvid os
Ġpoli tical
ue lo
ĠG or
Ġpre tas
Ġpropon i
f os
Ġfrem daj
Ġven ko
Ġali flanke
fa ir
Ġs ke
ta tions
Ġpla in
ĠÅĿat us
ĠK atal
ĠM il
h r
Ġdokum ento
ĠbedaÅŃ rinde
d ge
pi ro
Ġag oj
Ġaper o
Ġreason s
la ra
Ġsen pag
Ġme ets
ling vis
Ġreprez entas
ĠK ategorio
Ġpar ty
ta Äµojn
Ġf it
ĠA L
Ġat enti
ten i
ĠÄĪ ina
Ġlig no
id ent
ĠG reat
ali for
Ġstud io
ed s
Ġdank as
Ġspiri t
ĠMuz eo
Ġgra vajn
paro lantoj
ĠRob in
Ġd estro
es ko
Ġj our
ĠB at
aci aj
Ġmat en
Ġrec en
Ġne o
Ġtek stojn
Ġflan ke
Ġlis ton
P ar
ĠT ago
Ġspe c
Ġdire ct
Ġbring s
U L
n ap
Ġp ie
kci oj
Ġ x
Ġpoli c
Ġfamili ar
Ġrila tojn
Ġvolon te
di ka
Ġel pens
Mon tri
v ir
Ġhel pos
mal pli
Ġfair ly
ĠPar is
Ġkan tis
Ġgx in
Ġgeed z
ĠÄīees tis
Ġd ance
ĠC ap
g aÅŃ
ĠD emokra
ĠAf ri
ĠaÄīe tis
ã Ģ
Ġprin co
L o
la tion
INVALID INVALID
sen do
i ted
Ġdis don
Ġpov o
Ġac ted
Ġven i
Ġrice vos
Ġin aÅŃg
Ġsk ulp
Ġklas ika
ed a
Ġme ant
Ġkam poj
Ġkristan a
ĠÅĿan ÄĿis
Ġsci ence
Ġkonstru aÄµoj
T rans
Ġti mo
Ġcontro l
Ġe du
ÅĤ aw
Ġdemokra tio
Ġmed i
P re
id aj
Ġmalj una
Ġde vo
Ġal proksim
ag es
Ġche ck
Ġkonfli kto
Ġa vent
Ġkomp et
Ġbata l
K vankam
Ġb ici
ak i
ori ento
Ġdeci de
Ġpri zorg
Ġdif ek
Ġc ita
Ġme zo
ze ble
Ġlead ing
Ġmal kon
Ġsci pov
be jo
Ġvar m
Ġdisting i
pro ble
Ġ199 5
Ø §
or aj
Ġre qu
ĠO ficejo
Ġko leg
ĠMeks iko
g ala
x u
Ġk ver
pl es
Ġide as
Ġsekure co
ĠJapan ese
f al
ĠLi ke
Ġter ura
Ġad mi
Ġesper o
Ġe tern
ĠB ob
ver o
Ġmaster piece
Ġinter ÅĿanÄĿ
Ġmala k
Ġrenkonti ÄĿoj
kul tur
ig an
id on
Ġinterv ju
Ġh und
Ġprote k
Ġac cid
Ġ199 2
ĠD ok
Ġuz u
Ġcla im
Ġp end
Ġac com
Ġins ul
Ġinfan ojn
ĠLi aj
Ġdeman dojn
Ġmalkov ris
ins ulo
Ġverk ojn
A ÅŃ
li ko
Ġrezul toj
Ġuz anto
Ġdirec ting
ori enta
Ġmanag es
ĠÄīe Ä¥a
ĠHar ry
E M
Ġen tenas
Ġdrama tic
li ty
om io
ek an
ac tion
Ġinteres aj
Ġpers pek
is ton
ar re
ĠS on
Ġag adon
Ġsp ent
Ġen iri
ci p
Ġins ide
Ġsitu acion
Ġd ung
Ġout side
Ġpal est
Ġk ok
ĠAn jo
Ġmem oro
Ġori ente
ran te
Ġprak tiko
ĠÅĿ er
ĠkaÅŃ zo
Ġlaugh ing
âĢ¦ ]
ĠV e
Ġsim b
k olor
Ġevent ually
Ġklarig as
Ġes s
Ġpli a
Ġpro fe
ĠD ou
Ġhej me
d em
Ġalb umo
b aro
Ġfor e
Ġkre dis
ĠLe on
ĠR ay
T M
Ä Ľ
Ġkv ara
ĠH ind
Ġlis ten
Ġincredi bly
W e
Ġa Äī
ĠF ilo
ĠÃ ª
ĠMe z
ra d
Ġmalf rue
Ġradi koj
Ġinde ed
Ġhazar de
ÅĿ on
ce le
Ġmuz ika
O S
br an
Ġse arch
Ġat endi
Ġle ÄĿoj
Ġcre ate
Ġc los
ĠI rano
Ġmal ka
ĠH it
Ġreprezen tantoj
Ġg al
Ġel mon
ĠT an
ĠA ma
Ġbezon is
Ġro ck
Ġkv adra
Ġpermes is
bo ard
fi ka
Ġsy mp
Ġkon tras
lan de
Ġfa ils
ĠF irst
lig itaj
Ġamaskomun ik
Ġ199 8
Ġm ens
Ġru ÄĿ
p ac
Ġti mas
Ġentrepren oj
Ġrespon das
om s
ter ed
Ġside jo
Ġdistan co
Ġcrea ted
ĠSco tt
- )
Ġco unt
Ġpos ta
Ġca ught
ĠLi ter
ri do
Ġtell ing
ĠtaÅŃ ga
W ell
g est
ĠB run
Ġkom and
Ġdon os
Ã¡ r
Ġpor tas
Ġka ted
Ġdes per
Ġs ul
Ġc elon
Ġdes ign
Ġz ono
Ġmag az
ĠP ap
Ġmal ÄĿ
Ġpre ta
ĠRe ÄĿ
Ġorigin alo
e ven
Ġb esto
Ġrespek tive
Ġvesper e
Ġdeser ves
er aj
ter ne
Ġfigh ting
is ing
ĠB ona
Ġdis kon
Ġp lo
Ġse par
Ġwas ted
Ġsta cid
Ġmalgran dan
Ġsound s
Ġcom par
Ġkv ie
id u
Ġexpec ting
Ġvilla in
Ä ĩ
li broj
ĠO F
Ġpubli ke
Ġru in
M an
h ed
Ġkap tis
Ġprop rajn
Ġappro ach
Ġsu gg
ys tem
Ġsugg est
Ġno kt
a iko
ĠM edia
voj e
Ġdispone bla
ĠHo diaÅŃ
Ġc m
tr ino
Ġsor ry
Ġportra yed
ĠIMD b
ura do
Ġalpor tis
it z
Ġso ul
rojek to
ĠÄī ia
ig no
Ġmis sing
Ġknab ino
sis temo
Ġjo ke
Ġsimbo lo
G ra
er en
Ġflan koj
Ġp ull
Ġf ad
Ġgvid anto
lan g
Ġcom p
Ġim media
Ġkomun an
Ġrec ord
f az
Ġstu do
Ġs mo
Ġres tos
ĠkaÅŃ zas
Ġkonduk as
cla p
Ġlangu age
Ġkan ton
Ġmul to
ĠB ulg
Ġsta rigis
Ġser vas
Ġmuz ikon
Ġsec ret
B o
a o
Ġinvi tas
Ġland li
Ġsom ero
Ġdo or
ad ministra
Ġnom ojn
Ġj ena
Ġmem bers
mon da
Ġpriskrib as
ab eto
Ġ199 1
Ġprakti ke
u i
Ġteritor ioj
Ġf ali
Ġsendepen da
p ol
Ġwh atever
ĠW in
Ġad or
Ġmar ried
Ġ199 3
T H
ĠKon takto
Ġmenci ita
Ġcarto on
Ġ3 2
Ġvoj oj
ĠTi un
Ġs ag
ĠG ab
ma ta
in al
Ġscienc istoj
Ġtw ist
Ġfren ez
Ġk anta
Ġun re
ple j
igh ts
ĨįãĨįãĨįãĨįã ĨįãĨįãĨįãĨįã
Ġre lie
ĠB ul
Ġprofes ia
Ġopini is
Ġb run
Ġbe at
Ġend ed
Ġdeman di
S ek
Ġt rash
Ġh ang
Ġinkluzi vas
Ġcreep y
c ar
Ġre pu
ÄĿ ejo
ĠS ing
Ġbe lan
Ġter ror
Ġrez ign
ĠD ay
Ġanon cis
Ġes cape
Ġme za
ĠMi lito
Ġs ate
Ġn av
st yle
Ġpl enty
Ġfra zoj
Ġar ki
Ġfam aj
Ġkapita l
Ġekster landaj
Ġrem ake
ĠBu dape
Ġfur ther
f r
Ġa va
ar ko
Ġmalfer mis
Ġli br
Ġfer m
Ġforges is
end aro
par olis
Ġvar ma
Ġnorma la
Ġpas inta
Ġval ue
Ġe ch
Ġb ag
Ġsam ide
Ġnun tempa
Ġvila ÄĿ
ĠPrin ce
ĠÄĪeÄ¥ io
Ġdezi ro
tu la
Ġdi kta
ven a
Ġs at
ie f
ph y
Ġdirector s
P li
ĠM ul
Ġunu o
Ġesperantis ta
ĠSpiri to
ru p
Ġorganiz is
Ġeldon is
Ġhard ly
Ġokcid ente
Ġdeman das
Ġv am
in ting
Ġkons entis
Ġenhav on
Ġp up
Ġpoten tial
Ġkoncer to
pi red
Ġpas inte
ĠFil m
ĠB j
Ġvet ur
Ġbir do
se qu
pen h
Ġm ach
ĠS or
ĠÂ ©
Ġplan o
Ġsi x
Ġvali das
Ġcirkonstan coj
ĠJ ane
Ġmor gaÅŃ
ĠMa x
ul es
Ġmin is
sk ribo
Ġoff ic
Ġku ir
Äī ita
am ik
ran to
Ġlig itaj
Ġstra toj
Ġkondam n
G laÄī
a per
v y
Ġs atis
ita tion
Ġlong er
Ġentrepren o
Ġsinjor ino
Ġsudden ly
âĢ ŀ
Ġinklu das
ra ted
Ġinstru i
r Ã©
Ġo ce
Ġskrib ita
Ġsukces a
ĠW est
Ġfollow ing
Ġeble con
Ġhistor iaj
Ġneces e
Ġreco gni
ĠMal graÅŃ
Ġde longe
Ġkon son
ck er
Ġph ys
ĠHel po
Ġwait ing
Ġins uloj
ĠMar ta
Ġattemp ts
Ġw rote
Ġkonk er
f u
Ã ¹
Ġh ip
ĠRe volu
Ġentire ly
Ġreligi aj
ç¤¼åĮħç¤¼åĮħç¤¼åĮħç¤¼åĮħç¤¼åĮħç¤¼åĮħç¤¼åĮħç¤¼åĮħç¤¼åĮħç¤¼åĮħç¤¼åĮħç¤¼åĮħç¤¼åĮħç¤¼åĮħç¤¼åĮħç¤¼åĮħ ç¤¼åĮħç¤¼åĮħç¤¼åĮħç¤¼åĮħç¤¼åĮħç¤¼åĮħç¤¼åĮħç¤¼åĮħç¤¼åĮħç¤¼åĮħç¤¼åĮħç¤¼åĮħç¤¼åĮħç¤¼åĮħç¤¼åĮħç¤¼åĮħ
ci ta
Ġel tro
Ġdeta le
Ġproduk ti
Ġkonta kti
Ġversi oj
ĠE str
A d
Ġim age
Ġfilmmak ers
ĠF u
Ġpre lego
Ġreg ard
Ġi lo
ver so
me to
fi eld
Ġab und
Ġn az
Ġki en
ĠH ere
ĠdaÅŃ ras
hib icio
Ġk ate
Ġembar ras
p us
Ġb alan
ur ch
Ġ( =
Ġkolek to
Ġoper aci
K el
ä ¸
is ti
Ġkla rigis
ĠÄĿard eno
Ġfor ce
Ġfor go
ĠInter na
Ġega le
um es
Ġver bo
Ġraj to
Ġpre di
ĠO ther
Ġc ute
ĠS av
mon d
f ino
Ġla dy
ĠM en
Ġgvid antoj
Ġfran c
k ed
z ajn
ĠR em
Ġtr ajn
i ros
N ov
b one
s em
la roj
ĠIta lian
as tio
ĠE li
Ġang le
k l
Ġre ale
Ġtra vel
Ġsub tle
ĠD anio
Ġa chie
pa co
Ġobjek toj
ra di
Ġsen Äī
log ion
Ġplen an
Ġkri zo
Ġbra in
Ġne e
Ġekster aj
ĠAli a
ĠF ak
Ġmer kato
ĠB ak
ĠF la
va ka
ĠN E
Ġsek vi
Ġbri ef
w ers
Ġen t
Ġse g
Ġci vita
Ġkonser v
Ġi ros
ĠParla mento
Ġs ch
Ġv alo
ĠP ala
Ġmem brojn
ĠÄīiu taga
Ġproduk to
Ġtradi ciaj
ĠS and
Ġbea uty
ĠAm b
Ġmar ks
tis ta
Ġmi z
iuj n
Ġlim igita
ĠArgent ino
Ġekzemp loj
ĠÅĿ ir
bo y
Ġpo pola
Ġb ap
Ġpro pri
Ġviz aÄĿon
Ġoccas ion
Ġin v
ĠI uj
ĠD SC
Ġur beto
ista ro
Ġmeto doj
Ġmodi f
Ġpoem oj
c ento
an co
Ġinstru istoj
Ġgen ro
Ġnor mal
Ġli c
Ġsim pa
Ġca use
Ġslight ly
Ġge amikoj
im i
ĠD am
Ġres publiko
Ġpartopren as
esperan ta
Ġme tas
ĠK as
Ġokup is
Ġcra zy
O r
Ġf anta
ĠE ston
ĠW ik
Ġeks plu
iz on
Ġprin c
Ġman ip
Ġtal ented
Ġmalli ber
ub ern
Ġpost ulis
Ġter on
ash ion
Ġans wer
ĠG ru
ca te
Ġnu dity
h y
Ġel labor
Ġsimp laj
Ġp se
Ġw estern
Ġg em
k el
vor to
Ġkomple ta
ĠIns tituto
Ġpro por
ĠD E
Ġinter ne
Ġdep end
Ġmodern aj
z umo
ĠP u
Ġanali zo
x as
Ġres pect
Ġkre ado
Ġvol us
Ġdeci di
j uo
Ġ19 45
Ġvalor on
os ta
Ġus es
ĠD ion
Ġsub ti
Ġ199 7
Ġfeli Äī
it ra
Ġaper os
GlaÄī ero
? !
a tajn
mo d
Ġ199 4
Ġregist rita
K i
per a
Ġpor tis
Ġrete jon
ĠV ar
Ġmention ed
kn own
K K
g us
Ġs ano
Ġrez olu
ĠÄīes is
Ġhav us
Ġeks pli
Ġnen ia
Ġpubli kaj
__ __
c ol
Ã ª
â ĸĳ
ur b
Ġam on
ĠVi eno
a tio
Ġbo ys
dek naÅŃ
ĠÄµurn al
i va
u tas
kor aÅŃ
Ġstor e
c re
ĠR y
Ġdi ed
Ġ3 3
Ġfe ar
Ġperson ojn
vi z
sk y
ĠJon es
Ġpro v
Ġradi ko
Ġrecent ly
Ġfenom eno
ĠW atch
Ġinten se
k um
Sal uton
A t
Ġp las
Ġpas troj
ak on
h em
Ġj are
Ġsta t
Ġal ko
Ġpl or
ling voj
lan taj
ĠKong o
ĠIns tead
b lajn
ard oj
Ġ15 0
Ġfollow s
Ġkristan oj
Ġbild ojn
ta loj
ĠL igo
Ġmon tr
kom p
Ġgaze toj
c z
Ä ģ
li ber
us ly
Ġespri mas
Ġgovern ment
Ġmal ÄĿoj
** *
Ġe jo
Ġfru aj
Ġk rue
ĠÄīe Ä¥
lern ejo
deknaÅŃ i
. âĢľ
Ġgra do
Ġprogra mer
123 456
Ġamo unt
enc y
Ġinteres iÄĿas
Ġkol oro
g ue
Ġkonkur so
Ġara ba
ĠN ight
Ġcer tigi
ĠÅĿ ata
Ġdisp la
Ġplen kresk
Ġkla r
Ġkarak tero
Ġleter on
Ġt ension
ÅĿ as
ĠB ol
ĠaÅŃ di
n um
Ġs xi
ĠDan kon
Ġfar iÄĿi
Ġdan kon
Ġblan kaj
Ġdisk uti
ann el
T A
Ġ ×
Ġp into
ĠJa ko
Ġefi ko
Ġkapab lo
ĠKons titu
Ġmalproksim e
ĠM od
Ġpri or
Ġorgan izi
Ġtas kon
Ġkuns ido
j i
ti loj
Ġpoint less
Ġdatre veno
ĠÂ Ĺ
Ġfru kto
Ġsor to
Ġprak tika
f fer
ĠÅĿ par
ga lio
Ġu kra
Ġk is
tig os
Ġleg end
Ġepis ko
c ula
k loj
Ġin ÄĿen
Ġespri mis
k vil
Ġcom pu
ĠDe ad
ie lo
ĠÄĿoj o
Ġcho ice
Ġt aste
ĠJ ord
sta r
Ġrekon stru
Ġcredi t
ĠChris tian
Ġrete joj
Ġk lu
Ġmili ton
is moj
Ġdecid es
Ġpra c
Ġe po
Ġek kri
Ġ3 6
Ġpl um
s ome
Ġman ÄĿas
Ġ[ ...]
d at
Ġj ubile
Ġpor na
ug os
ĠI van
Ġ19 40
... "
Ġcer taj
T E
Ġe taj
us a
ĠNor ve
Ġofice jo
Ġkons i
Ġcas ting
ri an
Ġle cion
Ġreg ula
ure d
Ġprodu ced
O W
Ġk ost
ĠK ata
Ġinten cas
to logio
Ġfun ni
ĠMos eo
ul ing
Ġun belie
ĠF ilip
Ġab on
Ġmateri aloj
Ġrigar do
ĠAmb aÅŃ
Ġtraf is
Ġokaz oj
Ġmir inda
Ġcompan y
tagme ze
Ġcon cept
con s
Ġgra tu
Ġekster ordin
Ġspek tak
Ġviol ent
Ġcer t
Ġdepar temento
W iki
ĠS pa
il ing
pec ted
Ġpren as
Ġ198 9
Ġprojek ton
b ab
tan ce
Ġswe et
L ing
Ġe pi
ĠLi bro
Ġro ad
k ante
re ct
Ġpro per
ĠÄīef ministro
vor toj
Ġkom for
Ġsper tis
ĠtaÅŃ gas
ĠNa pole
Ġrifuz is
Ġportra yal
Ġe arth
Ġgran deco
ĠantaÅŃ vid
Ġeks pozicio
ĠFran ca
Ġprom o
Ġeffec tive
Ġpro to
Ġgru p
Ġques tions
Ġlegan to
Ġeg al
t urn
w i
ĠP ow
Ġcomple x
Ġother wise
Ġfak e
Ġrakon toj
Ġprinci poj
Ġexci ting
ĠPalest ino
K ore
pro f
ang la
ĠÄīam br
Ġvi va
la ta
g al
Ð ²
Ġsen con
Ġman kis
Ġeble co
Ġvizitan toj
ta ks
Ġen k
Ġare oj
Ġfav ore
ing ton
Ġre ÄĿis
Ġj uro
ĠP akis
Ġnov aÄµoj
ĠZ e
Ġsitu ations
Ġconvin cing
ĠN ik
Ġtre e
Ġsukces as
cei ved
p al
ar du
Ġpro tagon
ĠÅ ł
M e
Ġc at
ĠÅľ ablono
a ÄĿis
Ġla m
Ġprote kti
Ġcivi li
Ġappreci ate
e ca
g ulo
Ġdisappo int
Ġkuti m
Ġa de
Ġde g
ĠH igh
ĠPo pola
kur is
Ġrimed ojn
Ġask ed
Ġt ed
ĠÄī er
ĠG al
Ġman ner
Ġgla d
Ġkultur aj
Ġek ip
Ġse es
Ġ4 8
Ġunders tan
h tm
av i
Ġplur foje
Ġsav i
o ff
ĠS peci
Ġrespon don
Ġflu ghav
ĠSh ow
Ġkondu to
ri age
Ġc old
ol fo
Ġli moj
ĠL ong
ĠW ill
Ġdest in
il t
Ġhe zi
p rin
Ġt um
ĠL ang
Ġpar ale
Ġa gi
se e
Ġorganiz aÄµoj
Ġlud oj
Ġra te
ĠS ol
Ġad reso
Ġliter atura
Ġordin ara
ĠaÅŃtom ate
fran ce
Ġg round
ter oj
Ġmor tigi
ĠZ am
S ome
r ent
Ġal ud
ĠKomun ejo
Ġqu e
ĠÄĪe Ä¥a
Ġchang ed
Ñ ĥ
Ġmov es
Ġkomenc antoj
ĠdaÅŃ rigis
ĠJun ulara
ĠDist ribu
ĠAleksand ro
Ġn ud
Ġek vidis
ĠeÅŃ roj
ĠRum anio
Ġsp ite
Ġmaldek stra
f re
ti ves
Ġsc ream
Ġkam p
Ġsufer is
Ġop portun
Ġsuccess ful
ĠFrancis ko
Ġintellig ent
te ur
ĠT w
ĠSin jor
w ikipedia
Ġfil led
Ġmis sed
li bron
ĠB iblio
Ġat ente
Ġpat ron
Ġinstru as
Ġlu kto
Ġs tel
Ġlo kojn
Af ter
Ġmon toj
Ġag adoj
Ġspeci fa
ĠS y
Ġâ ĸĳ
Ġpozi cio
Ġâĸĳ âĸĳ
b ad
gh ts
Ġ199 6
b ita
em y
Ġmal lar
Ġkor on
Ġshow ed
Ġmalfer mita
Ġaran ÄĿoj
Ġsin teno
ĠkuÅĿ as
g ori
Ġm ali
Ġn ere
ĠU l
Ġkomple te
Ġali ÄĿi
Ġdor m
ĠF red
ĠÂ» .
Ġdefin ition
Ġkomenci ÄĿas
Ġenkon duko
H is
er ing
Ġw all
Ġpov i
Ġb reat
gh ten
Ġam using
par t
par oj
enc ojn
lan oj
gra de
Ġun us
Ġhave bla
Ġturn is
ator io
Ġvok is
Ġpat rin
, [
Ġtem on
Ġtek n
Ġparla men
es te
ind ek
Ġcul ture
A J
ĠK im
Ġek hav
Ġri kol
el li
ĠPar to
nom braj
g ers
ten on
Ġtra in
Ġfra tino
ter e
man n
Ġteat ro
t ina
Ġbe gan
ĠS ove
um ita
ĠKol omb
k taj
Â Ĺ
Ġ 02
Ġto ugh
Ġnom ataj
e ch
Ġvi vanta
Ġkom pan
Ġad ded
Ġsper toj
Ġvis ual
ĠV jetnam
men io
ER S
Ġ ~
Ġver ki
ila ble
Ġcom pla
Ġeks pozi
Ġajn an
ÅĿta toj
Ä Ļ
enta do
sek so
Ġtemper aturo
ĠB edaÅŃrinde
Ġata ko
Ġfinan ca
Ġbiz arre
Ġs qu
Ġek estis
b ud
Ġt el
ĠÄĿoj as
Ġk at
ra ge
Ġc ed
ĠAl b
Ġmes aÄĿo
ĠL ove
ÅĿ uti
omo b
Ġdire kti
Ġhor ojn
ĠRu ÄĿa
Ġimpos sible
Ġkon ci
ad es
Ġfor ton
Ġlar ÄĿa
Ġfeli Äīa
Ġal log
Ġno tice
Äīe co
ĠKan tono
S u
is es
Ġf resh
ĠÄīe esto
Ġang ulo
ĠhodiaÅŃ a
ĠN ob
Ġun less
Ġfoj o
ĠB lo
Ġpreleg oj
Äīam bro
Ġac cep
E U
gan taj
Ġuni ka
co ck
ĠT eks
Ġsta ÄĿo
aÄĿ oj
Ġmen cio
Ġkonstru o
ĠGre kio
is taj
ol s
ma x
Ġ3 4
ibliote ko
terd amo
ĠDos iero
Ġf l
ĠS outh
Ġbon far
Ġad jek
ĠkontraÅŃ sta
Ġstud ent
Ġgen ius
Ġmed ia
A Y
Ġfran caj
Ġreven i
do wn
ĠF ree
Ġokcid ento
Ġneder landa
ĠM ik
Ġri pro
Ġdi ros
Ġapar tan
Ġpres ence
Ġyoung er
to v
Ġvi co
ĠF ern
Ġad van
tiv al
ĠBri ta
Ġem faz
Ġpur pose
Ġeng ag
Ġw ild
rib ly
Ġ: )
ind as
Ġho telo
N ia
ou ri
ap ar
ic z
Ġtradu kon
ĠÅĿ a
tan tan
fer m
Ġimag i
Ġfantas y
Ġmalli bere
Ġcar ry
alis tic
luzi ve
Ġunivers ala
em oj
Ġantik vaj
Ġtrib un
f en
ĠT u
ina ted
Ġorganiz ita
ĠvoÄī oj
G I
Ġof fice
ĠMc C
enc ed
Ġnor m
KOKOKOKOKOKOKOKO KOKOKOKOKOKOKOKO
Ġsov aÄĿ
em i
Ġnen ian
ÃŃ a
Ġsocial ismo
Ñ ı
ĠH itch
Ġaldon as
ĠDan iel
ĠSti ll
Ġbo oks
ĠI T
ĠG il
Ġprogram aro
ÅĿan ÄĿo
v ic
ĠP ek
ni ko
Ġpos itive
ĠJo an
Ġviz it
ĠVor taro
Ġar tistoj
ĠY e
Ġepis kopo
ĠMond milito
Ġa te
Ġt ap
Ġfin ish
Ġokaz on
ÅĿi po
Ġvide blas
tor ia
ĠIn c
ov ers
ĠF ri
tra duk
o la
ĠT TT
Ġtem plo
Ġesperan taj
Ġpen et
Ġne ither
Ġreali gi
Ġsoli da
b age
ĠS P
ĠM als
Ġkons tanta
gra m
log oj
Ġbone ga
Ġk ategorio
don a
Ġkor pon
Ġnask iÄĿo
Ġtelevid o
R I
iÄĿ ante
Ġvila ÄĿoj
Ġnatur aj
la m
ti aj
ĠC e
stan ding
Ġverk istoj
Ġbig gest
ĠVer da
Ġinvol ving
Ġkri ter
ĠdaÅŃ r
Ġdisvolv iÄĿo
ĠPrez idanto
Ġproduc ers
g eno
Ġp onto
Ġpens oj
Ġstand ard
Ġmunici po
Äī ip
Ġi den
Ġpar amet
Ġcolle ge
Ġb urn
ven i
ura te
ĠRus s
ÅĿ t
ĠP ers
di m
ĠB ig
ĠFond umo
Ġmor tigis
f ia
Ġen ga
th es
ĠM ir
Ġins ek
Ġliter o
Ġfu rio
b alo
is temo
ka te
va li
Ġtran Äī
Ġfa ko
emis try
Ġplan as
Äľ is
Ġmalam ikoj
Ġkilomet rojn
Ġdis e
Ġar ÄĿ
Ġpala co
ment on
ĠPa po
ĠKro atio
en i
Ġg od
Ġlo ud
me tas
Ġfo ot
Ġnordo kcid
Ġs pon
Ġhum our
Ġa ut
Ġ5 5
Ġret pa
Ġdep th
Ġdep ic
ĠTur kio
Ġcontin u
Ġesti ÄĿis
form aj
is ted
Ġfor tan
Ġcri min
Ġfas cin
Ġb low
ĠL et
tor s
ĠÅĿanÄĿ ojn
ĠAf gan
Ġanta u
ĠSe p
ĠFa ce
K ong
Ġun fortunately
Ġfran can
Ġperfek ta
ĠMedia Wiki
Ġimmedia tely
Ġma po
Ġappear ance
Ġis land
Ġdi oj
Ġmanif esta
re al
ri e
Ġofici alaj
ĠChar lie
Ġsoldi ers
Ġexec u
en aj
as ko
ul inoj
Ġle vis
ĠMi ch
Ġkompren o
mov ie
ar di
ĠG PL
Ġpoe zio
Ġt es
Ġkur son
Ġelsta ra
V er
Ġver an
ĠNe p
Ġro und
Ġmo od
ĠGran d
ĠSank t
ik so
Ġpat hetic
Ġtutmon de
ĠMov ie
ir es
ho use
Ġcel is
in di
ĠI II
ĠKon stan
ĠÄĿu i
Ġkav ali
te o
Ġ19 10
Ġlik es
ĠHispan a
. '
Ġplu e
Ġten is
Ġpriskrib i
ĠRom an
Ġdru g
g in
ĠK ru
pe ti
Ġman ÄĿo
Ġvid ebla
Ġpas igis
Ġfa iled
Ġson or
Ġgener alo
Ġconsider ed
al low
ĠPra go
Ġleav ing
Ġth reat
Ġjuste co
Ġn aÄĿ
man oj
Ġefi ka
ĠK at
ĠV ers
se y
lin io
Ġkul p
Ġsved a
Ġde veno
ĠL am
ag ren
Ġdis tra
fer on
Ġcom pared
Ġbab y
Ġincredi ble
Ð ´
Ġb uti
Ġki r
Ġkom entoj
iz a
grafi aj
g ov
w art
Ġs mart
Ġform ula
Ġampleks a
dra ma
Ġnom broj
A G
Ġmi zer
end ita
Ġg ren
Ġmo b
ĠLe w
Ġproduk tas
ĠSa int
ĠIndi an
Ġrekom endas
T re
per e
Ġro l
Ġval ues
Ġpi ra
Ġsimi lan
ĠUz anto
O h
ĠHo use
Ġpoten con
Ġregista roj
Ġrun s
ĠreÄĿ imo
g vid
Ġe cx
et ti
ens tein
Ġser Äīo
Ġgh ost
Ġsenp age
Ġis sues
Ġun ex
Ġtra kti
Ġres publi
ĠPri vata
Ġkilomet roj
Ġw eren
ere co
iz ed
Ġjun ulo
Ġkolek ti
C ent
Ġf leks
us s
ĠE lek
Ġmili toj
Ġk ata
Ġmyster ious
Ġno kte
kos ta
Ġthin ks
Ġbra k
Ġindividu oj
Ġgrama tiko
Ġvalor oj
P le
b ojn
Ġg ene
Ġver on
Ġperfor to
Ġimpres sive
ĠFund amento
man o
Ġkongres oj
ĠWik imedia
Ġmor al
Ġt able
Ġb lon
ĠD un
ma il
Ġl un
Ġimag es
ĠF ili
Th at
ĠAr meo
Ġshoo ting
b ul
g el
Ġbe hav
ys ter
Ġprof ession
ĠÄµe tis
S in
ĠÄĿu is
Ġpromes is
Ġs n
ĠG vineo
permes ilo
n atur
Ġi loj
Ġf ian
ĠHit ler
g ie
â Ĺ
th ink
ĠP lan
Ġekz ek
av io
tem oj
Ġkri m
Ġfunkci is
Ġt ar
ĠW ay
ĠO ce
Ġem p
V ER
Ġran dom
Ġsi tting
O J
Ġinter re
Ġar bar
ubern io
c ast
Ġs ono
Ġre de
ĠMar i
Ġprez entita
Ġstre et
Ġarm iloj
Ġaf fair
vaj o
kri min
Ġor o
Ġad mir
ĠUson a
ĠKo penh
Ġmalak cep
E C
Ġni vel
Ġunu foje
Ġsuper a
Ġpe za
Ġbas ic
O IL
Ġagra bla
k ins
Ġreg ulo
Ġgener acioj
Ġexpla in
Ġstacid omo
or ig
ik isto
Ġperson aj
Ġfir me
kol ora
ci ty
Ġre por
ĠS ara
Ġar my
Ġmet rojn
fici al
Ġregist ri
ental ly
Ġchang es
K ial
er ia
th ur
Ġfak toj
Ġpart n
Ġli f
ton oj
ik ajn
pec aj
Ġnig raj
F ine
n an
Ġ3 7
Ġa diaÅŃ
00 6
Ġinteres oj
Ġch emistry
Ġsta tus
Ġpac on
Ġheav y
Ġb ought
Ġtraj toj
Ġk uba
li p
ĠH ard
Ġri t
Ġpa ÅĿo
Ġklopo dis
Ġblu a
ĠEgip tio
uj a
Ġconc lusion
s ters
Ġelek tas
Ġrezul tojn
Ġaviad ilo
Ġc ross
Ġof ta
Ġpas intaj
Ġkontribu is
ĠÄ Į
Ġmuz e
y ou
el la
Ġpo emo
Ġsub ven
Ġstu doj
Ġste p
ĠBar bara
ĠH um
Ġ4 2
Ġmenci as
vad oro
ĠP aci
Ġel d
ĠlaÅŃ le
Ġbare ly
B N
Ġal teco
ĠLi b
Ġenhav administra
Ġm am
Ġtri o
Ġp ush
di ÄĿ
ĠF i
las her
Ġad ult
N ot
In s
Ġmas trum
Äī ar
ĠÃ ¦
Ġrimed o
h oj
Ġli t
Ġkom is
Ġspeci alaj
ĠAndre w
fun kci
is ten
ĠÅĿ atis
ath y
Ġunun ura
n es
en berg
ĠKom ence
rea tive
Ġmili onojn
Ġab ility
Ġgru pon
Ġsubten on
Ġal ti
ĠT ek
Ġdu ob
Ġrila ton
s or
Ġmon tra
ĠdaÅŃ rigi
Ġhal tis
g ard
Ġcom mit
Ġtraduk ita
on t
Ġm ok
tt om
Ġpre mo
men ko
Ġfla w
Ġprepar i
Ġinform i
ĠAs embleo
Ġsuc ce
Ġkonsis tigas
LE I
Ġkoordin atoj
b ono
i vo
Ġj ur
Ġgrun do
me z
sta ta
ĠSte ph
Ġfab rik
Ġi ÄĿi
Ġdok tor
Ġmalam iko
ad y
ko t
Ġdis Äīip
Ġch a
Ġsub pre
Ġmo tor
Ġdep ress
Ġtito lon
ĠAnton io
c ting
m als
Ġt one
he im
Ġste loj
g ro
Ġg ita
ĠB est
ĠV oj
00 4
Ġfar m
Ġtom bo
Ġj um
ĠDistribu ata
Ġes ence
ĠS pe
ĠA ug
Ġpla ces
Ġden as
ĠInter reto
ister io
Ġsta rigi
Ġreg ulojn
Ġtr ajno
Ġpolitik an
ĠPortu galio
Ġdisturb ing
ĠJo ze
Ġinform is
ĠBru ce
. ).
O K
por to
ser vo
Ġnatur al
ĠBj alisto
Ġsur round
tik ajn
Ġad ver
Ġnorma le
S en
Ã ł
è ¡
Ġre don
Ġdo laroj
Ġer aro
Ġgener acio
T ER
Ġaw esome
ĠMuz aiko
d ante
Ġk ub
Ġg lu
ĠN atur
Ġam aso
Ġh ieraÅŃ
ra ta
Ġter ms
Ġori ento
Ġunuop aj
Ġpropon on
ĠRus sian
Ġv el
res t
Ġtri um
Ġmilita ry
ĠLou is
te blaj
ĠEsperan taj
Ġdeli ght
Ġkov ri
Ġsal ono
Ġpor d
Ġvid pun
ĠK vin
van t
Ġcam p
ĠAll en
Ġinno cent
K io
or on
ĠB oris
Ġsta cio
ĠNun tempe
ĠOf te
ĠAt lan
e th
Ġen mig
Äī an
ĠLe gu
ĠÅĿanÄĿ iÄĿis
Ġbele ga
Ġfla go
Ġkill s
Ġposed anto
Ġlik ely
al t
Ġg old
Ġlan da
Ġpas sion
Ġfra g
f ak
âĢ ²
Ġmon taro
Ġfo tojn
ĠCh risto
Ġten i
ĠIMG P
Ġava ilable
Ġb ak
a a
ĠI LEI
gra mo
Ġsufer as
Ġveter o
Ġmov adon
ĠRe vuo
iel d
Ġflan k
Ġeston ta
Ġkonsta tis
Ġmalvar ma
O f
om bo
Ġpla t
ĠÅĿan con
Ġgar bage
ĠDire ctor
G erman
Ġh an
Ġni veloj
ĠRen kon
Ġc ult
ĠSam tempe
ĠKore io
t to
Ġne igh
ve co
ĠKatal unio
f ig
le con
Ġkun ord
Ġali ve
all en
red ak
Ġbe zono
Ġelek tro
Ġconsider ing
Ġcompu ter
p ajn
Ġf ashion
Ġpro cess
Ġmon ta
ĠMi ke
Ġtem is
uti me
Ġeks ped
ĠCom mons
Ġtri p
Ġproj ect
ĠL isto
Ġsh ar
Ġlabor oj
Ġspo t
ĠKato lika
ĠKolomb io
Ġp oloj
Ã¡ s
Ġredak ti
Ã¼ r
N A
z u
Ã £
ig itan
G e
Ġin das
Ġg xis
Ġpri vi
Ġparo lado
Ġpor don
ĠN iÄĿ
Ġeb lis
Ġkontro lo
Ġmer k
Ġrapor ton
Ġkontin ento
ĠÄĪeÄ¥ os
z ion
Ġki an
Ġas pect
ch en
do w
tu te
st in
Ġtiu tempe
ĠÂ» ,
Ġpasinte co
st ri
Ġ3 8
Ġo s
ÅĿ ajn
Ġmul ton
Ġdef endi
Ġsing ing
Ġeten diÄĿas
al uz
Ġelek ton
Ġorig ine
gru poj
5 00
N ow
Ġen or
Ġfor taj
kor e
Ġviki ped
Ġc ro
Ġeb lon
ĠMon do
Ġgas toj
Ġsupo zeble
Ġserio za
Ġp ak
il do
Ġho tel
Ġ6 00
Ġsam seks
Ġst y
Ġ4 00
Ġal veno
ĠL ar
Ġak cid
Ġrapor tis
Ġmes aÄĿon
ed on
01 2
Ġcom mer
Ġbu ÅĿo
Ġsign oj
ri laj
ĠE DE
Ġkom isiono
ĠD er
ck et
h ero
Ġmal ven
ard in
ĠlaÅŃ longe
enti al
Ġsho ot
ĠSi rio
Ġbreat h
Ġc ik
po ka
Ġthro wn
Ġbezon oj
Ġsex y
Ġrelig ion
f ir
Ġeks ta
ĠCi vito
Ġs ystem
Ġinter rila
ĠAn t
ern e
Ġekonom iaj
AN TO
Ġ| |
Ġped ago
v ag
iÄĿ antaj
vo k
Ġevid enti
Ġkate gori
ĠNob el
S ub
Ġes ta
ĠR im
it ing
anc y
Ġ198 7
Ġplenum as
Ġer aroj
Ġrede em
o ko
Ġnega tive
Ġkontra ux
?? ??
s tu
Ġm outh
Ġdis cus
ure co
Ġflu go
K ar
s ign
Ġh am
.. ...
ĠFran ce
ĠNov jor
Ġmanag ed
Ġa z
ĠG lo
Ġrifu ÄĿ
ĠF am
Ġsk in
1 00
w are
Ġkor te
F in
p ion
Ġsu k
fe ction
Ġcx iu
Ġfrem da
s am
lan don
ub oj
Ġstre Äī
L A
Ġes tante
Ġdum e
Ġag as
Ġriver oj
Ġspiri ta
Ġtas koj
Ġi gis
ch an
Ġultima tely
ĠInterna tional
te joj
Ġdok toro
Ġm ekan
ĠE liz
ĠÄĿ enti
Ġr um
Ġspe coj
mar k
i pon
Ġf ido
us kri
it es
Ġeb en
igx as
Ġbuild ing
ĠChrist mas
ĠK la
Ġsu g
iÄĿ inte
Ġfoli oj
ĠS us
ly n
ca tions
ĠloÄĿ ejo
Ġaser tis
ti von
Ġfor igo
Ġapli ki
Ġsid as
per is
Ġpli mul
ĠBro wn
A m
mak ing
Ġocc ur
ir s
ĠW i
ten is
Ġh ab
ĠC O
ĠMo dulo
Ġpolitik istoj
Ġimpress ion
il ers
Ġbon o
Ġinterkons ento
ĠK er
Ġkos tas
ĠIra ko
l isto
st ran
Ġg ag
th eless
ĠDou g
iÄĿ us
led ge
Ġcx u
Ġscienc aj
p il
w iki
ĠUn esko
Ġkontribu i
Ġ{ \
Ġfor vet
la Äµoj
Ġp ion
Ġhistor ical
ĠserÄī is
ĠelÅĿ uti
n omb
te loj
ĠE K
va Äµoj
ĠPer haps
ĠSta tes
menta ry
ĠÅĿ n
Ġar ti
Ġgra ph
Ġreven ge
Ġdef endo
Ġaudi ences
ĠSoci eto
ĠJose ph
Ġn elonge
Ġver aj
Ġpra vas
Ã¼ n
Ġescep te
Ġkampan jo
ĠG old
ĠG aza
plen aj
Ġkalku li
h om
Ġmur oj
Ġin vent
Ġun like
Ġinter rom
Ġste lo
Ġkandid atoj
p ru
Ġgener ally
ĠAus tra
Ġk up
Ġaktiv uloj
Ġpas tr
P S
Ġjun ulara
ĠBudape ÅĿto
æľ Ī
f ina
ale d
Ġproksim aj
Ġakcep tita
Ġjen aj
Ġtw ists
ĠVla di
ĠA la
ÅĿ ip
ĠN az
Ġat es
Ġtu ro
Ġsk ribo
Ġopin ioj
Ġmalfer ma
ĠÄī a
Ġtie le
N en
i toj
m us
Ġs umo
ĠL os
Ġsur faco
Ġman k
Ġser p
Ġindi ki
Ġkov ras
ad aj
ĠÄīi el
h um
ĠB i
Ġsu ver
est ing
Ġfab ri
Ġl eng
Ã³ w
Ġeksci is
Ġtrove blas
M ultaj
eb lan
Ġaso ci
Ã¶ r
. -
or n
Ġre tiri
âĢ ī
Ġun d
ĠTut monda
in f
Ġkon i
ĠF ord
ac y
Ġatta ck
da taj
Ġdeta ils
ĠT ony
ĠU sti
Ġint rigu
Ġamaskomunik iloj
z z
Ã© s
Ġefi ke
ĠKopenh ago
id is
Ġnun aj
Ġkomun iki
Ġpere is
Ġwit ness
T i
Ġde fi
ĠÄĿi ajn
Ġsup pose
Ġklas oj
Ġkv indek
Ġceremon io
Ġn ulo
Ġrema ins
Ġutter ly
b ek
an kaÅŃ
per son
aci an
ell s
Ġsubskrib is
Ġphoto graphy
Ġan tici
ĠÄµ et
ĠNor th
enn is
c ular
Ġe terna
Ġappe al
Ġvic tim
Ġnekon ata
la Äµo
ad io
Ġ3 9
Ġi doj
Ġlin ioj
ĠEgi pt
Ġmap oj
ĠUni ted
ĠSte ve
Ġc row
Ġpa ti
Ġuti las
Ġb ol
âĢ İ
Ġke y
ĠV ere
ĠT ob
ĠH ay
Ġdis ko
ks em
Ġes cap
ĠM edi
Ġlo ves
Ġsam kiel
Ġkultur on
g ust
ĠD ol
ve y
Ġaspek ton
Ġbaz aj
Ġforlas i
ci pe
lin a
tur oj
Ġklopo das
Ġs lasher
Ġoka y
Ġslow ly
Ġcomed ies
ĠA bra
ĠD id
Ġno where
ton a
Ġsup port
Ġnig r
Ġnut ra
ĠÅĿ uld
Ġdon u
Ġkel ke
Ġorgan o
li oj
ig us
Ġgh in
Ġhttp s
Ġpain ful
Joh n
Ġr ond
Ġpla co
Ġcent ury
ĠO rig
Ġterri fic
n ight
Ġpres ented
03 8
Ġleg ado
Ġrigar don
ĠMad rido
ĠdaÅŃ ri
Î ±
ĠS T
n oma
ĠS ad
ĠL eo
ĠSte ven
Ġdri ve
Ġconstan tly
ĠM es
Ġesperan tan
Ġinform as
Ġboy friend
Ġta Äī
ĠFeder acio
Ġkapital ismo
a zo
b ach
j ust
Ġsc ener
Ġalf ron
ĠE du
Ġforges u
Ġdanc ing
Ġa br
ro om
Ġi gas
ĠFace book
ĠY oung
Ġimpres on
Ġadvent ure
Ġda to
Ç Ķ
ĠE kon
Ġele mento
Ġmontri ÄĿis
ĠTra kta
Ġpun ktoj
Ġprovi zi
Ġcli max
Ġkad ro
s ue
Ġh undo
al es
Ġg or
ĠC ez
Ġstar ring
Ġkomp at
" ;
ent ist
Ġminim ume
ovi Äī
00 5
Ġesperan te
ĠFran c
Ģ è
Ġd run
Ġliber aj
li ma
Ġc u
ĠH ans
up re
ast y
Ġdek li
ĠG reen
Ġra ce
Ġemo tion
Ġdisk utoj
ĠI u
ĠR et
rom o
Ġrakon t
le jo
Ġar ta
Ġdezer to
ĠA mi
Ġpro le
Ġpli ajn
ther n
Ġcinema tic
Ġstun ning
ĠPakis tano
E ble
li fe
un s
ut ojn
Ġte Ä¥
Ġaper i
c ts
Ġpro kras
Ġsubten is
Ġfoj ojn
f iki
or us
ĠK D
th o
Ġsome where
Ġhum oro
ĠM id
Ġpo po
I s
Ġkom pa
Ġcon vers
Ġorganiz as
Ġkomple ks
d uloj
e per
Ġfor umo
iz e
titu de
ĠGe org
Ġreligi oj
C on
F irst
Ġfil on
Ġle d
Ġcom man
Ġ4 4
ĠmaÅĿ ino
Ho diaÅŃ
j am
l la
ĠÄī agren
Ġpar a
Ġ1 000
Ġmon tran
Ġves toj
Ġful ly
Ġspec ta
Ġde cis
Ġb le
ita l
Ġeks a
Ġsor Äī
" .<
b ado
ĠÅĿ te
gan izo
Ġfra t
Ġamik ojn
Ġdiverse co
Ġbezon ata
Ġvari as
ine to
tig oj
Ġfa ith
Ġtekno logio
ĠVene z
Kore io
Ġliter ally
Ġlabor ista
Ġnam es
y es
Ġch iuj
Ġro z
Ġkonvin k
Ġmon atojn
Ġinten ded
Ġama teur
fici ala
Ġpolitik isto
Ġp om
Ġm os
Ġan o
Ġpop olon
Ġradi ka
ĠOn ly
Ġcon tem
ula do
Ġlasta tempe
Ġtru poj
Ġportu gala
Ġven k
Ġter ur
Ġknow ing
ĠÄīam bron
Ġsho ck
Ġemo tions
ĠSim on
ti z
Ġb ile
ven is
Ġlan daj
Ġter eno
Ġsitu anta
ĠUr bo
ir ante
Ġcom pli
Ġsudo kcid
K iu
tik oj
Ġpoten ca
Ġfes tivalo
B ra
n ab
Ġkun teksto
Ġmar riage
Ġdisappo inting
acks on
Ð ¼
ĠNe ces
ĠCh in
Ġanim ated
Ġinde pend
Ġkonstitu cio
Ġespl oro
- ,
ĠM ah
Ġokup iÄĿas
Ġkos mo
Ġfel low
Ġtouch ing
Ġse ven
Ġbr usto
ĠBulg ario
Ġrelie f
g itaj
k al
Ġne ÄĿo
ĠB and
Ġmenci is
Ġesplor oj
Ġesplor ado
ĠNorve gio
m ag
ĠM ale
tran s
f is
Ġw ound
ĠA IS
ĠB ron
Ġsi la
va Äµo
fek tive
Ġsinc ere
C E
Ġ 01
Ġf eri
Ġ19 39
Ġhel pe
ĠKon ferenco
08 7
Ġkonsider is
Ġvikti moj
en z
ĠC in
ĠC al
Ġsc ar
Ġinf ana
Ġokup as
Ġha un
! ).
ĠB one
Ġkvan ton
ĠEstr aro
Ġmemsta re
Ġh az
ĠM ore
ĠB us
res pon
Ġchar ming
Ġfeel ings
Ġvet uris
Ġb ene
Ġtra ck
Ġchar m
Ġhel d
ĠPo z
u da
Ġinter ese
Ġac ts
ali ties
ist ent
Ġkunlabor i
Ġplenum is
Ġen ketoj
ĠJ ES
Ġsub stre
paro li
e ta
f are
ĠaÅŃ das
ĠKon traÅŃ
Ġbeauti fully
Ġpli grand
Ġku ÅĿis
ĠanstataÅŃ e
Ġprovi zas
Ġplez uro
Ġscener y
Ġv est
Ġch u
Ġp ik
Ġre mo
ĠG a
Ġgerman an
Ġkol oroj
Ġpen is
ĠpaÅĿ oj
Ġopportun ity
ĠHitch cock
ĠS ab
Ġkun por
f as
f ron
ĠE ast
Ġali en
Ġsti ck
Ġgla ci
Ġfac es
ĺ ĩ
Ġli ved
ĠM u
ĠÄīi es
Ġsim pl
Ġput s
Ġmateri alon
H O
ej a
ĠBe at
ĠAli flanke
Ġevolu on
Ġhappen ing
Ġargum entoj
Ġbran Äīo
Ġcost umes
ĠT uj
Ġ4 7
anÄĿ er
cia ted
Ġgro w
ĠV as
Ġdi es
less ly
Ġjour ney
an ti
te toj
Ġf run
ĠS tran
Ġmal kres
Ġpar ad
J un
end ojn
ĀĀĀĀĀĀĀĀ ĀĀĀĀĀĀĀĀ
h and
Ñ Į
ĠK ia
Ġun s
ag re
man ta
it ojn
Ġme tal
Ġop pos
Ġsurpris ingly
Ġinterv juo
Ġzomb ie
A k
m il
Ġv ino
Ġmak ers
ĠloÄĿ anta
ĠJu lio
ĠDav is
Ġkatoli kaj
Ġstan ds
ĠT y
ĠC ur
Ġda te
ĠÄīef o
Ġdecid as
201 5
Ġespl ori
Ġre ÄĿa
Ġj ene
Ġevolu is
A B
Ġb ord
Ġis ra
m ado
Ġre vol
ĠO kaz
Ġfilozo fo
rigard is
la t
Ġpoten c
Ġfollow ed
Ġdisap pe
ĠIS BN
tici po
ĠA ir
ĠD el
ell er
ĠÄľ uste
b log
Ġ ]
Ġf leg
ĠB ag
Ġ19 68
tem aj
ĠDe c
ĠB is
Ġreg ular
Ġbru tal
Ġzorg as
Ġ{ {
è¡ Ģè
Ġe terne
ĠF ab
ĠV is
Ġesperantis tojn
Ġorganiz antoj
ĺĩ æľĪ
è¡Ģè ĺĩæľĪ
Ġat ento
Ġkan tas
Ġbaz on
pec tive
Ġdisvas tigi
Ġmalri Äī
ðŁĺ ¨
b az
ch t
Ġak tor
Ġplej parto
ous and
u di
Ġlo vely
ĠDok um
Ġf low
Ġkons il
Ġfin na
Ġho ping
Ġinte gri
Ġnarra tive
h n
ĠPar k
ĠÄīap itro
h ou
et tes
ber io
Ġinc re
ĠWilliam s
Ġenga ÄĿ
ĠLew is
b ian
n ok
Ġauth or
Ġsim il
Ġprofes iaj
Ġmenci itaj
Ġen coun
Ġsen das
Ġden un
ĠAndre o
ĠUsti menko
P oste
Ġd read
aÅŃ ri
pis kopo
Ġkli mato
ðŁĺ¨ ðŁĺ¨
Ġc rash
ĠE le
ent le
Ġmal gaj
U ni
vi v
tem on
Ġdeci doj
Ġbata li
Ġrecommend ed
Ġg lute
ern o
ĠSe e
Ġinflu on
Ġinici ato
ĠSlo ven
pren as
Ġinteres on
ĠTur k
D F
j aro
pe talo
Ġunu ajn
Ġeb ligis
Ġekkri is
Ġt ren
er vo
Ġdis krimin
Ġprogres o
Ġmalsam ajn
ÅĿta to
Ġkri tiko
Ġgri m
Ġpie ces
h ab
Ġl on
Ġneces o
Ġlaugh able
Ġkatal una
mon o
Ġtech n
kongres o
Ġorigina lan
Ġunbelie vable
n az
er t
Ġti mis
ĠP eople
Ġdu foje
Ġpos taj
uri ta
ĠKar l
tu ÅĿ
Ġprin tempo
Ġdam aÄĿ
ĠsenÄī ese
Ġf ono
ĠP rus
Ġmor ti
Ġinten cis
ĠÄµurn alisto
Ġalf abeto
ĠaÅŃ tuno
Ġpropon oj
Ñ ĭ
Ġf iction
ka taj
lu do
Ġmer ely
f ing
Ġd ad
Ġas pects
igh is
Å Ľ
Ġp el
us ion
Ġem plo
m iloj
Ġh ur
ro ugh
Ġelek titaj
Ġmals anoj
Ġdeci don
ti ms
Ġkor p
ĠMo ore
ĠKi om
Ġequ ally
Ġmeri tas
W ith
o per
al th
Ġan ÄĿ
Ġpli an
fe jo
Ġfond into
Ġvege ta
S S
ĠN igra
las o
Ġmal mo
et t
Ġrakon ti
Ġindust ry
Ġuniversita toj
Ġwalk ing
I ON
di ono
lan taro
ĠC reative
Ġinter tra
Ġ4 9
Ġqu iet
Ġordon o
Ġkoncent ri
k ie
ka u
ĠW W
ĠĠ Ġ
Ġsol en
Ġci fere
Ġ ï»¿
Ġti red
Ġmal d
Ġval ora
ĠaÅŃtom ata
er do
Ġs entoj
ka y
Ġare a
ĠCh ap
Ġdor mo
Ġlev iÄĿis
ĠCla ude
Ġmista ke
Ã Ł
Ġf um
ti po
Ġv un
ĠS pi
Ġinform ado
ĠW at
ĠAn other
Ġnu da
Ġdat um
ĠIzra eli
li es
ĠT un
Ġfor igita
ren g
Ġter ap
Ġexcep tion
ĠS ar
ĠS ure
Ġmi kro
tu ally
Ġsub en
Ġkri is
Ġfund am
k ru
Ġi ÄĿos
est s
Ġout standing
Ġsoci eto
Ġcle an
Ġproc entoj
T iuj
Ġgra f
I P
P a
ÄĿ us
ad os
it ter
Ġread y
Ġmalbon aj
S c
te en
ĠI om
ard eno
ĠÂ °
Ġaf ri
Ġproduk tis
Ġmale b
Ġ7 5
Ġexpec tations
Ġd ana
Ġri par
Ġekzamen o
Ġkon fer
Ġkons cio
Ġappe ared
Ġmag ic
Ġkal endaro
ĠHung ara
Ġron do
y o
ĠJ ackson
Ġreven o
ar ojn
ĠAn koraÅŃ
Ġden se
Ġinclu de
ĠPh il
w atch
as es
Ġ19 19
Ġ4 3
Ġhor se
ĠWh ere
Ġkan tojn
Ġbra zila
. ),
ĠG am
Ġinteres ajn
Ġlaugh ed
Ġexc use
Ġcivi liz
Ġnecess ary
Ġb ong
Ġman uskri
Ġre pla
et u
Ġfak uloj
Ġinf ek
Ġ ÅŃ
ĠÄī inaj
Ġpic tures
ĠAng el
c ture
Ġb iero
lan ko
Ġven u
ĠÄīar to
Ġthro w
Ġmallong e
Ġdin astio
Ġri belo
ris on
Ġ198 8
Ġjus ti
S M
Ġpost eno
Ġreprezen tanto
ĠretpoÅĿ ton
Ġdisappoint ment
ti t
Ġmortin ta
ĠBil ly
Ġpla Äīas
Ġ[ âĢ¦]
Ġdra wn
bb ed
K ion
Ġfilm ing
Ġman ÄĿis
ici de
Ġmis kompren
Ġkuti mo
Ġkongres on
Ġsm ile
Ġmall umo
I E
ĠMo z
p se
Ġb all
Ġspeci fe
Ġpriva te
Ġdam n
Ġvorta roj
re gis
Ġthe mes
Ġmov ed
Ġman ieroj
pi Äīo
Ġtrankvi le
ĠM ic
Ġor todo
ern a
Ġpaper o
ĠHen riko
è¡ĢèĺĩæľĪ è¡ĢèĺĩæľĪ
Ġv ak
Ġon to
Ġsh are
ĠAn ticipo
Ġpa id
Ġlig iloj
Ġamb as
Ġdete ctive
Ġ ****
em uloj
ĠR ud
uro s
Ġfli cks
P eter
Ġrestor acio
Ġs pi
bon a
Ġleg u
Ġdor so
Ġdepen de
Ġabr up
à ¤
Ġe gi
Ġj usta
ĠM iss
dis play
Ġinteres as
Ġw illing
van toj
Ġdevelo ped
lu lo
Ġaspek toj
Ġperfek te
Ġallow ed
ti mo
00 3
Ġhum ili
ĠdanÄĿ ero
te xt
ĠD em
Ġsen si
ĠIn stru
be la
Ġrom ia
Ġpren u
Ġkos to
Ġen skrib
Ġno tic
Ġkons um
Ġad minis
Ġ4 6
Ġprepar is
Ġpent risto
fra toj
ĠBal daÅŃ
ra y
ĠS id
Ġfin ding
Ġdeta il
Ġten as
gg ed
Ġkli entoj
T iel
v aloj
Ġde vi
Ġhav eno
for o
Ġ19 48
ĠP ac
ĠOn do
Ġtekni ko
om ia
ĠE vent
ÅĿ ov
ĠP ubli
Ġmal o
Ġfra z
Ġform ojn
Ġbab ila
Ġadap tation
rila te
Ġ >
Ġal lo
Ġat om
Ġ19 05
log ie
Ġfo ton
ĠHol mes
Ġkarakter on
Ġcel ojn
D u
Ġth ank
Ġre alo
vid ente
Ġro b
Ġfar iÄĿos
Ġvin tro
ĠHow ard
Ġindividu aj
ĠdediÄī ita
c tions
en se
tiv ajn
Ġgaze taro
z ita
Ġf ell
Ġpa ÄĿojn
Ġfren e
d f
ĠÅĿ tono
tan tojn
Ġkongres anoj
f ur
ay a
Ġkv ardek
Ġkonser vas
Ġadap ti
Ġtrejn ado
Ġm ame
ĠT wo
eder acio
Wh ile
200 5
ĠneÅŃtra la
ĠaÅŃt omob
Ġla cks
as ure
us oj
ĠLa w
pi Äīoj
Ġpat rio
S im
Ġp uri
po ten
ĠW estern
nu daÄµo
Ġcontain s
Ġsvis a
Ġfascin ating
Ġeldon ejo
Ġsever e
Ġconf used
Ġkad av
Ġkapita lo
Ġevange lio
V idu
Ġvic tims
Ġfol ks
Ġfeli Äīo
v ig
Ġe tik
te lon
ĠA h
Ġse lek
vid ebla
Ġstu ck
Ġorig ino
la te
Ġper fid
Ġad ds
ĠAmeric ans
ĠQ ue
Ġestab lish
Kong reso
display style
Ġli kable
Ġsil ento
Ġmov adoj
ĠO N
ber ni
Ġpozi cion
th ere
ĠAn stataÅŃ
ĠBe cause
Ġofic istoj
Ġinforma tion
i ed
s he
Ġ ug
Ġfig uro
Ġir rita
Å ĳ
Ġa van
in tojn
Ġab andon
ĠGerman ujo
im oj
igh as
ho o
his tor
ÅĦ ski
k ven
ĠP ic
Ġsen kul
ĠLi fe
lig on
Ġdou ble
el don
ran toj
Ġfor tojn
tra do
ted ly
ata do
Ġtri an
Ġpoli tikon
Ġdep uti
Ġofici alan
p iris
ĠÅĿ ablono
Ġkomun aj
Ġturn ing
Ġ198 6
Ġ Ø
Ġa im
ĠP L
Ġsper ton
ĠVla Äījo
c os
ĠJ ac
Ġregion a
ĠBro ther
Ġregu laj
am i
ĠA pri
Ġso ur
A K
Ġlig ilon
B O
li lo
Ġn aked
Ġdon aco
Ġkresk anta
Y es
Ġfilm on
Ġ19 32
Ġsta tion
Ġob sc
Ġdifin as
Ġoper a
Ġinstitu cio
Ġk l
Ġcon tent
Ġed ge
Ġstud ents
ĠBri an
Ġgej un
Ġli bre
Ġ19 17
Ġcer tas
Ġsukces os
Ġfamili a
Ġkongres a
Ġbecom ing
ĠEng land
ĠAN D
ĠVjetnam io
f alo
g un
Ġk no
Ġla ci
ĠL yn
Ġmon tro
Ġling van
Ġaldon e
Ġkapab la
Ġknab inoj
Ġhospita l
" -
p p
Ġf le
ĠB iblioteko
the y
Ġran do
Ġjo y
Ġmodi fita
at ra
Ġ4 1
ĠNi co
Ġrespek to
Ġbrother s
Ġro ll
Ġtiam aniere
Ġnajbar aj
ĠAma zon
Ġoffic er
ĠAl bert
Ġc entoj
Ġlo ver
Ġmalfer mi
Ġpru d
c ado
v ara
ĠK le
Ġpri zor
he j
for to
Ġap osto
Ġcon stru
Ġevery body
Kom un
Ġega las
Ġrelationship s
Ġ( ...)
Ġmor ton
Ġcer bo
ĠkaÅŃ zoj
Ġprodu cer
s in
x ojn
ĠHer z
ĠJos Ã©
bud get
b ulo
j no
Â Ķ
Ġb un
Ġe at
ra id
um aj
ĠJ ason
ÅŃro pa
Ġdiffer ence
Ġworth y
Ġener gi
Ġdol lar
S a
ta Äµon
kon o
Ġen ig
zer baj
Ġerotika Äµo
Ġporn aÄµo
Ġe pic
Ġpor tre
ĠB ata
Ä¥ an
flu o
Ġmalnov an
Ġimpress ed
ko lek
Ġconf using
XX X
m iks
ti ÄĿon
Ġe ka
Ġan stata
Ġfunkci oj
Ġfilozo fi
Ġata koj
ĠdanÄĿ era
ĠEston io
Ġneigh bor
A lia
ta toj
li gante
ĠP av
tern acia
ĠWal ter
k tis
est ron
Ġst reng
Ġelek tra
ĠTo go
Ġbud h
m ajn
ra dis
ni velo
Ġfal ling
Ġagri kulturo
g re
em as
ĠâĢ İ
ĠTh ough
Ġdifer enci
ĠKris tnas
ad s
pro vi
Ġfo od
in cid
Ġse zono
ĠÄĪ irkaÅŃ
Ġkid nap
Ġp ago
Ġ19 18
Ġinten s
Ġphoto graph
ĠVenez uelo
f ru
ad ing
di vid
Ġgi ant
Ġsukces on
Ġkontribu oj
Ġtrak tas
" ?
as pek
Ġkon form
Ġel sendo
Ġab stra
Ġkomer caj
Ġrecipro ke
akes pe
Amer ican
d el
ĠT op
Ġpo ez
ĠEs pero
ious ly
Ġpreci z
Ġedz in
Ġil ust
Ġkv ina
Ġrevi zi
wri ter
n ud
in tajn
Ġg es
ĠFran co
Ġdemon stra
de pen
Ġbo at
Ġkristan aj
ĠDom in
la ci
ĠI l
Ġpas as
Ġprovin coj
Ġobser v
Ġgrave co
Ġles son
K e
Ġdi am
Ġap arato
ĠMar ie
Ġcent ral
nu da
i j
i isto
p endaj
Ġt an
Ġk ud
ĠT on
ĠD ark
ĠN ich
Ġang ry
Ġson as
orge ous
) )
Ġs par
ĠV esper
ĠaÅŃ stra
Ġkre into
Ġlas as
T iam
Ġag on
Ġelek t
Ġrepe ated
M a
Î ¿
Ġp es
end ing
ilo so
ĠLat in
ĠHind io
ĠAfgan io
ik io
ne cess
tig ado
Ġpermes i
Ġdirek te
ĠBr use
Kel kaj
ĠAn ne
ĠÅĿi poj
Ġmala mi
ĠAr thur
ĠPro f
Ġsup r
rus tra
Ġata kis
p ly
f ab
Ġen irejo
id i
Ġsta ri
Ġcon tr
ili ties
Ġokaz aÄµoj
Ġ198 5
Ġkomputi loj
Ġmalfor ta
Ġpleas ant
htm l
Ġdeta lojn
Ġseem ingly
Ġori ent
k toro
Ġb ase
go od
Ġ8 00
ĠFo x
ĠaÅŃskul tis
Ekz istas
ĠC ro
man toj
ala jn
Ġser vojn
Ġtag e
Ġfav ouri
Ġforgo tten
Ġflughav eno
o th
or an
br is
Ġ2 50
Ġmin i
Ġpor ti
Ġbo ard
ĠWh ite
Ġmain ly
te ble
Ġo ks
ĠM ongo
Ġfor ever
ĠG en
und er
sion s
Ġpropag ando
Ä ħ
Ġmo tion
Ġgajn i
Ġhered aÄµo
ĠChristo pher
Ġfra p
ĠLu ksem
Ġinvi tis
Ã ¦
ion oj
Ġmag ni
Ġpriskrib is
Ġmalal taj
Ġmeze poko
ĠDist ri
Ġmal laÅŃ
Ġver kas
Ġkor to
Ġkonsta ti
li ÄĿas
res on
Ġmem ber
gan oj
Ġad dition
Ġdeli vers
ar ia
ĠT r
Ġkom isi
Ġter tre
Ġag ent
je v
ĠPrin co
Ġf ok
Ġex plor
ĠAng la
Ġoffer s
u bo
ĠO verall
fac on
u do
Ġth ousand
am ori
ap py
ĠBe a
Ġret um
bel ulino
ĠTrakta to
ĠB av
Ġmenci i
Ġdonac oj
Ġkurs ojn
H S
Ġo h
Ġv apor
Ġmal pe
ĠG irl
Ġex plan
pu go
Ġfem in
ti ck
Ġch ase
Ġsin cer
ĠRaj toj
J o
Ġar ts
ron on
Ġprop r
Ġpublik igas
Ġlat ter
ĠNep alo
Ġk ant
ĠP A
im an
Ġ19 33
ĠdaÅŃ ro
d itaj
f ona
las ta
Ġcon tra
ĠY et
Ġefi kon
ĠriÄī aj
Ġfervoj o
E I
ĠvoÄī on
Ġa head
is man
Ġde legi
Ġas ide
Ġaspek tis
Ġrigar du
Ġvenon taj
Ġs kato
ci co
ĠT rin
ma la
kur soj
tal ino
Ġform or
ĠJe ff
ĠVirg ulino
m amo
w il
ĠT oo
em or
Ġkor id
Ġjun ularo
04 7
Ġkan ti
ĠJu an
ĠBro ad
Ġofer tas
Z e
ĠK ur
up s
Ġhid ro
Ã£ o
ed z
ov Ã¡
ĠF ut
ord s
Ġku k
Ġkapab loj
Ġ197 9
ĠNo thing
Ġmalsam a
pir aj
c les
f ilo
ĠW as
Ġhom am
Ġmat eno
ĠÄľ ene
ator y
Ġdifer encoj
Ġare on
Ġplej multo
Ġhas n
ĠNovjor ko
O verall
ĠT am
Ġper do
tin oj
Ġnaj bara
Ġleter oj
ĠPh ilip
ĠM ak
ĠR io
ay lor
Ġnov aÄµo
Ġany more
ind ajn
Ġdek stre
Ġrev uon
ĠSci enca
done zio
Ã ´
ĠD ennis
Ġac tions
ĠVer y
j aran
m ur
u c
Ġfin on
mar y
ĠreÄĿ ino
Ġkompon isto
Ġkated ralo
ĠD or
Ġplu vo
Ġinflu is
ĠSing ap
m amoj
Ġli gilo
ĠK art
Ġfe tiÄīismo
titu te
Ġprovid e
Ñ ĩ
Ġa ÄĿa
ita ta
The y
Ġwe ap
ĠÅľ ia
Ġwonder ing
.... ....
Ġwar m
zerbaj ÄĿ
Ġb oss
Ġe go
Ġfla ws
Ġscienc oj
Ġparola ta
Ġh oles
ka co
Ġfor pe
ĠÅĿ ov
kla ku
Ġmalfru a
sess ed
Äī ies
ci coj
ÅĿ te
av er
Ġlo cation
kom er
ĠBo th
Ġmil lion
ĠTok io
] )
p ie
Ġm astro
Ġf rustra
ĠC at
Ġkolon i
Ġdens a
Ġs lovak
ĠM ol
Ġjar a
Ġaf raid
Ġdefin itive
glute oj
e blas
f red
h en
Ġat ent
eks hibicio
con ds
pu goj
Ġtw enty
glute o
mame go
mame goj
b at
ko ti
je viÄī
Ġinternaci ajn
ĠChin ese
p toj
Ġ å
Ġf ek
Ġg orgeous
Ġri p
ha us
er an
Ġex ten
Ġex perim
Ġkomun e
ĠVin cent
ĠÄµurn alo
f ather
Ġt av
ita do
ero tismo
Ġcri tic
Ġcri tics
Ġrecipro ka
ĠW ind
sen se
Ġth or
Ġek rano
Ġmur dis
ĠRevolu cio
m ilo
Ġc ow
tan tajn
ho p
Ġjun ulino
Ġvoj aÄĿis
Ġtraduk isto
Ġput ting
Ġcomp elling
ĠBjalisto ko
an y
ĠB our
Ġcor rect
Ġhonest ly
Ġw ind
id s
Ġfunkci on
Ġcontin ue
b ile
p ano
Ġf at
Ġins pired
Ġshould n
Ġgvid as
Ġnaci an
in ia
ko kri
ĠG eo
fe tiÄīismo
Ġsam ajn
Ġhel ps
Ġpas aÄĿ
Ġpopula raj
Ġproces o
ĠPek ino
Ġes e
ad re
ĠP lu
Ġkre o
Ġprez ent
Ġpek o
cel ist
mid zi
ĠInf anoj
Ġsubjek to
A ny
Ġs enton
un tain
po t
Ġintern aj
Ġespri moj
ĠIzraeli doj
Ġe p
ĠS pan
th ony
Ġdis aster
âĢĻ ,
Ġactress es
or io
Ġbri ght
tab uo
Äīies ulino
Ġes ting
Ġun con
ru g
04 5
Ġeb laj
uri ty
ses deknaÅŃi
mid zo
mid zumo
seks umi
Ġprovid es
Ġremind ed
Ġligh ting
lang umi
S te
ter aj
Ġlern u
ĠMon t
Ġbata loj
Ġ197 7
Ġd entoj
Ġperson ality
Ġnee vi
P ol
n al
rom p
Ġtem ojn
Ġno body
Ġuz adon
dek so
Ġtradi cie
Ġdifin i
Ġpropag and
ti u
ra ÅŃ
Ġof taj
ĠE vange
Ġon line
Ġok ulo
iks oj
Ġkristan ismo
akespe are
Ġin cid
ĠS ir
th a
Ġun known
Ġim pon
ack ed
Ġan alo
ĠN AS
ĠG ene
ĠEd ward
Ġgun s
S ta
ĠE SP
ĠN am
Ġsh i
logi an
Ġstruktur oj
m ad
Ġt run
ĠÄī em
per t
Ġor k
E G
f io
g li
Äī ojn
ĠIn d
Ġ5 4
tur on
ĠRo ck
ĠJoh ann
Ġrezul ton
Ġbran Äīoj
Ġkatastro fo
V ikip
ma ÅĿ
Ġkontra u
tin ta
Ġkongres ejo
ĠaÅŃtor raj
Ġkonsis tis
Ġsin on
Ġad ults
Ġwe aring
Ġmed ik
Ġteach er
i i
Ġth us
av ing
de ble
Ġpo d
ĠIli a
Ġkolek tis
Ġtatuaj es
en ing
Ġ19 44
ĠThe ir
Ġlan Äīis
Ġsk alo
atas ha
abe th
D R
un e
ter io
Ġmal uti
Ġres an
Ġsta ton
Ġsol von
AT O
Ġimag ination
! ),
h ing
u ÅĿ
Ġ zo
as ing
re l
Ġri bel
Ġali ron
Ġaldon o
Ġeb lo
Ġenhav is
Ġrigard ante
reta rio
Ġsac erdo
Ġattra ctive
E P
Ġun uso
man e
Ġar tisto
Ġspe aking
Ġindi ÄĿ
stre am
Ġtermin ojn
Ġnivel on
N ur
ig ataj
ĠAn n
Es tis
Ġref lek
Ġstrate gi
Ġerar ojn
ĠTok ipon
' '
Ġte ori
ej ojn
Ġren vers
Ġ198 4
Ġbro ad
Ġapart ment
v iew
ĠC ons
Ġ19 67
ente jo
ah a
Ġmonum ento
ĠC GI
Ġfak ton
ĠmanÄĿ aÄµo
Ġamike co
li ct
ro v
ĠT ute
Ġelek toj
Ġmag ne
ĠKe vin
ĠEurope an
ĠBar cel
Ġbel ong
ĠStre et
f to
lo koj
Ġpor t
aro lo
Ġfon diÄĿis
eri ka
Ġren ted
Ġindi ko
ati vo
Ġprem ion
te me
Ġg l
Ġpri celist
ĠIn donezio
Ġinstan coj
Ġzomb ies
Ġpa ÄĿaro
Ġsuper ior
Ġkla rigo
ĠÄĿu as
Ġvivan taj
Ġplenkresk uloj
h ave
Ġh in
Ġesperan ton
Ġte ars
Ġfam e
Ġener gion
Ġpse ÅŃ
B ri
I F
Ġ 00
Ġd ras
ĠÄĿ ust
Ġunu eco
Ġ5 2
ĠRe z
Ġmili tis
Ġg a
ir ty
Ġpas int
Ġkri mo
Ġokcid entaj
ĠGe or
Af riko
Ġs ving
Ġe c
em ents
vi lo
Ġsc rip
Ġho ok
Ġaf fec
xi co
b ero
end er
Ġmodi fi
Ġekzempl on
ĠN ek
Ġkap titaj
Ġliber an
Ġpreci za
R eg
ar ily
ĠÄīirkaÅŃ aÄµo
Ġfru ktoj
Ġlerno libro
ĠSteph en
ĠF R
Ġsen dita
labor o
Ġstra t
ĠSer bio
TM L
li aj
om ente
Ġtre z
Ġfa ÅĿ
Ġ197 8
fun ny
Ġenkonduk is
Ġtrag ic
Ġjus tice
z il
Ġp si
Ġfor mi
pre mi
Ġve h
Ġripo z
n ic
s ol
in c
Ġb rus
ĠM s
ĠC ors
ĠW iki
ĠLi ttle
mi ted
kov o
Ġtaks as
ciklo pedio
Ġfunni est
N or
Ġaf rik
02 7
ris t
ri ty
Ġen loÄĿ
Ġper di
Ġmals im
ista do
ĠP lus
ĠN av
ĠR ek
pa per
par ol
Ġprez oj
Ġrila taj
ĠRo terdamo
Ġfer v
Ġdialo go
Ġmark et
U M
Ġel ti
ĠJ r
Ġlig oj
Ġaran ÄĿis
ci ajn
Ġse ek
Ġvid inda
sk ult
Ġtw ice
Ġcolle ction
ĠVa tik
v ement
Ġmala gra
Ġkva za
Ġrev uoj
Ġfaj r
Ġtransform i
Ġfri ghten
! ...
Ġa vo
ĠT en
ut es
ol ing
ĠaÅŃ g
Ġnov e
Ġser ial
ki uj
Ġmar ÅĿ
vin co
Ġalt nive
ye ar
Ġdream s
c ajn
Ġp s
Ġs ala
ĠEsperan tan
Ġ: -)
ze co
Ġplu a
Ġintrodu ced
Ġk ali
Ġankor au
Ġkapab lis
igitaj n
201 4
ash ington
Ġsocialis ma
M uz
ĠA R
em ber
âĢ ¢
Ġali loke
tig ojn
Ġ5 1
Ġvas tan
progra mo
de joj
Ġakcep t
ĠGran t
Ġbab ile
ĠHerz berg
Ġthor ough
Ġt am
an ca
us tra
Ġre gi
ĠC X
ĠR ap
Ġplan e
Ġgam es
b loj
Ġto ward
Ġhel ped
ĠÅĿta taj
Ġbla me
Ġmatema tiko
is tis
ov en
ĠB ach
ĠD omo
Ġun f
ĠF lu
Ġdi lig
Ġmalkov ri
ĠKel ly
Ġadministra do
Ġmalproksim a
Ġtransdon is
ĠmonaÄ¥ ejo
al y
Ġv esto
ce zo
ado w
Ġali re
cent ra
Ġ197 6
Ġmedio cre
ĠJerusale m
Ġne ÄĿ
ĠB ond
Ġinteres an
Ġ198 2
Ġtend aro
Ġkli ento
Ġextre me
Un ue
Ġal to
di lo
pe co
ord ing
ian s
Ġhipo te
Ġp ano
Ġp ian
Ġf est
ri fic
lo yd
ran taj
ĠNe ver
Ġpartopren os
C er
ĠS anta
Ġlo se
ga taj
Ġstud ento
b rea
ac oj
pri ate
ĠHis torio
Ġmallong aj
Ġkolon ioj
Ġblu e
ĠRig ardu
f lor
ĠÄĿener alan
ĠBo li
Ġekzis ti
Ġclo thes
Ġgrave con
Ġunex pected
Ġn asty
ti vas
ĠIs lando
Ġklarig ojn
Ġner vo
ter an
ĠR ub
Ġpli e
ga le
Ġcrea tive
ĠFrancis co
I K
Ġn os
ĠD ick
Ġver daj
Ġmili ardoj
Ġmo tiv
Ġkar aj
Ġmemor y
Ġpag as
Ġindust ria
Ġstand ards
A E
ĠM unk
ĠH ell
ma re
Ġar on
Ġcir cum
Ġtermin oj
m io
Ġd ying
Ġn ic
Ġneces aj
Ġlar ÄĿ
Ġcele bra
Ġaccid ent
la cio
ti to
ĠE tio
Ġ198 3
Ġpru vi
Ġkapita lis
ĠB es
ne ÅŃ
Ġnor mo
alis m
Ġpent ris
Ġsta rig
Ġdescrib e
h l
il van
Ġmur ders
Ġgepat ra
Ġtra iler
Ġtrov ita
ĠGra m
Ġklopo doj
Ġpick ed
ĠNiko lao
C O
s te
Ġpar k
Ġokaz aÄµo
Ġsk u
Ġindi fer
Ġhung aroj
Ð¾Ð ²
Ple j
t te
Î ¹
Ġh at
ĠC le
ĠG r
ik ojn
Ġnom iÄĿis
Ġelsta raj
Ġkompli ka
C om
u laj
Ġ ly
Ġd ron
Ġkons ento
ĠIs la
ĠTra duk
pov a
Ġtrankvi la
Ġforma to
w as
Ġor to
Ġf ish
le ep
Ġal vet
ĠC H
Ġdi ka
Ġres ults
Ġfin iÄĿas
Ġro k
tic le
tiv ity
Ġrenkon tas
Ġkan alo
Ġdiri te
ĠPrez id
Ġfizi ka
B S
ĠS aks
Ġpro ve
Ġun necess
Ġinter kompren
Ġab omen
Ġliter ojn
Ġestrar anoj
Ġgejun uloj
s p
an gh
Ġpro t
ĠH all
Ġdu bas
ili oj
Ġvizi tas
Ġregista ron
ĠRom ia
Ġvig la
Ġduo bla
ri Äī
ch ar
Ġse conds
Ġsh all
ĠKomun umo
ĠPo p
Ġin com
st ren
Ġevid enta
t ter
ab a
Ġtak si
Ġkapab lon
perio do
Ġtech ni
Ġprezenta do
mat eri
Ġmelo drama
Ġam is
Ġpens ojn
Ġci vil
pu ÅĿ
Ġhead s
Ġflo or
ar don
Ġfra zon
Ġorigin ale
kons ci
Ġkomple tigi
Ġdru gs
n ome
Ġs oj
an an
so ever
Ġgra fo
Ġst om
Ġkomun ismo
ĠvojaÄĿ i
Ġdrin k
b ed
Ġn as
Ġyou th
Ġcom mentary
Ġsoci an
Ġmod el
Ġtur istoj
Ġinflu as
Ġsurpris ing
Ġis sue
Ġgrand parte
-- -
Ġsende pend
Ġph one
Ġkonsci as
pic xo
Ġabsur d
Ġfor tun
Ġkom ento
ag a
ho t
Ġreali zed
Ġcreat ure
Ġent omb
Ġtree ge
ana o
Ġfre qu
Ġdistri ktoj
Ġsank t
ed om
Ġg ust
ig ojn
ĠÅĿ o
Ġsh or
par toj
Ġparo lo
Ġurb estro
ĠLing va
ĠT esta
ĠC lo
Ġlan dojn
Ġthan ks
Ã© e
AN D
Ġega leco
Ġmaldek stre
pic xoj
Ġestrar ano
Ġdun gi
nud ajxo
at hetic
uz z
Ġhom an
Ġ197 4
ĠGru po
Ġv ane
ĠL ast
ĠA ten
Ġtu to
Ġbu ÄĿ
Wh y
Ġmalb ono
Ġsimb oloj
C etere
Ġnov aÄµ
Ġbor n
ĠAf rika
Ġfen estroj
Ġekzamen on
Ġfirma oj
komun umo
Ġmor ning
Ġak tivaj
pren o
ener ale
Ġkontak toj
Ġdang erous
Ġs ight
Ġz orge
uj oj
Ġpri mi
ĠG on
ĠÄĪ ilio
Ġtran kvil
Ġgvid o
Ġgas ti
Ġal in
ĠÅĿ to
end ed
Ġres tado
Ġpleas ure
Ġf loro
Ġg usto
ĠM alaj
ut in
Ġali ro
ĠlaÅŃ te
Ġpres s
Ġdra w
Ġdispon as
Ġes taÄµo
ĠL ord
Ġpat h
Ġpi ano
ĠmesaÄĿ ojn
Ġfavouri te
Ġmon ths
04 8
Ġokup iÄĿis
ĠMan y
Ġchild hood
Ġsupposed ly
Ġwood en
Ġmontra ta
Ġfak oj
EA L
Ġlig ilojn
Ġmemor igas
Ġpublik igo
R adio
Ġde mis
Ġpro ves
Ġlas u
Ġimp act
alis ma
Ġtekni ka
S er
Ġh aroj
ite co
Ġsci entist
ER ANTO
Ġconf ron
le ge
ci r
ĠP om
co unt
Ġokaz igis
Ġlas tajn
c over
Ġb ron
Ġti pa
ig iloj
ag on
ga ze
Ġeks por
ind ust
Ġwhat soever
Ġinte g
Ġmalsan ule
ĠAn tar
ĠRo ger
Ġmaj stro
Ġdifin itaj
ĠSloven io
k ward
ĠS talino
for ts
Ġpas sed
ej mo
Ġsendepen deco
Ġunderstan ding
V en
Ġst ro
ĠCh uck
k var
p son
Ġf ero
Ġf ant
em ajn
Ġman ieron
Ġme j
Ġdezir on
Ġtrag edy
Ġalko ho
Ġefek tiva
Ġunus ual
ĠDoug las
ĠC y
Ġorgan oj
ath an
Ġbata lis
Ġstrugg le
ĠCors etti
ĠB BC
lan ds
Ġ19 69
Ġplan oj
Ġnek rede
ĠSh akespeare
ĠPer uo
EN T
Ġdonac is
Ġphys ical
ed ding
Ġas tero
men ted
Ġer oj
Ġfer mita
Ġesplor is
Ġsho cking
Ġkru c
amp ion
Ġrevi v
P rin
R AT
ĠA zerbajÄĿ
ĠH un
ĠF ried
ĠW alk
tive co
Ġsti m
ĠWil son
lern is
Ġcomed ic
---- ----
Ġsamide anoj
Ġi gi
bo ur
Ġbon kor
Ġsek cioj
ĠDemokra tia
Ġlan ds
Ġpost uloj
Ġrus aj
ĠKonstitu cio
R im
b ia
om y
ĠA z
ĠD ep
Ġkom enca
ĠW ars
Ġedz inon
om ojn
Ġin o
Ġknow ledge
ĠLe gi
Ġscene jo
Ġreta d
aj ko
ĠC lar
Ġac cept
Ġbo ttom
Ġ198 1
Ġuti ligi
es is
ed ion
Ġ5 7
Ġka to
ĠVi zi
Ġtend enco
ĠEr n
Ġtatuaj e
Ġintrigu ing
ri cal
Ġkur is
i v
Ġw al
Ġli es
Ġle ge
Ġpa ir
Ġ5 6
Ġ6 5
Ġwan ting
Ġvorta ron
ĠhaÅŃ to
Ġindepend ent
Ġf alo
ĠH aw
Ġlig as
Ġreven as
Ġ197 5
ĠÄīam broj
Ġekzis tantaj
ĠDon ald
Ġpriva taj
bb ing
h es
ti er
Ġe joj
Ġv ast
st raj
Ġespri mon
Ġreven os
Ġbir d
cor de
Ġmortin toj
s peci
Ġon doj
Ġel Äīer
Ġpost enon
Ġsignif ic
e arch
ĠP aro
Ġsk ribu
ĠAl done
mis sion
ĠSta lin
ĠHen ri
Ġfore ign
ĠH ong
Ġ19 14
Ġmis sion
Ġrenkonti ÄĿis
Ġrimar kas
Ġlingva Äµo
Ġrema in
Ġkomita tanoj
b eloj
n en
Ġm el
Ġre ceived
ĠD O
ĠÅĿ af
Ġfla va
Ġcommun ic
Ġvam pire
Ġde leg
Ġfon do
za tion
Ġvalor as
Ġeksci i
Ġgeo grafia
S ci
k rom
Ġs ie
Ġb ib
tor on
Ġlo ose
Ġlo ss
ĠIn form
Ġsk lav
ĠRe ÄĿo
Ġori enti
Ġlead er
ĠFin fine
Ġnotic ed
ĠW ashington
ĠO ld
ier ojn
Ġbro ÅĿ
Ġban ko
Ġmalhel pas
Ġekvi val
ĠSpa ce
n av
Ġre cep
Ġl umon
ĠG as
Ġdis er
Ġcon tri
ĠUn ion
Ġkandid ato
al ismo
ita toj
im on
Ġali anc
od or
ĠHav ano
ĠclichÃ© s
Ġdialek toj
H er
Î ½
ri l
Ġg loro
us on
ul tato
ad er
ĠG h
Ġpov on
Ġrenkon t
Ġdim ens
Ġteen age
ti ro
ĠT urn
ĠM ate
Ġfor gi
Ġsek vanta
pi ed
Ġpartopren on
Ġkuti maj
ĠE blas
Ġany where
Ġfa zo
i co
Ġ Ï
in er
is tan
Ġch annel
Ġkor t
Ġkla ku
Ġplan to
ĠAr menio
Ġnum eron
logi oj
Krom e
Ġf ros
Ġal men
Ġsk and
Ġuni verso
Ġflu as
Ġdat umojn
Ġinves tiga
m ara
ti mis
ĠP ed
Ġak ce
Ġak toro
amen ta
int us
pla yed
amenho f
ĠJerusale mo
Ø§ Ù
Cent ro
ĠA lan
Ġres em
Ġkonf id
Ġkonser va
Ġkandid ati
Ġstrate gio
Ġtravi vis
g ener
Ġla kto
ĠS el
ĠT iaj
Ġsu icide
lu a
end s
ark io
Ġbir th
Ġekzis tanta
alifor nia
Ġstreng th
L S
ĠH im
ist inoj
Ġje to
Ġ5 3
Ġbit s
ĠSer vo
Ġpru vas
Ġwin dow
Ġd uling
Ġb ulg
di ro
Ġkomun um
ĠkondiÄī ojn
ĠAr n
ĠEd die
ĠFre der
ĠVic tor
ĠAn der
ĠAl berto
Ġbone ge
Ġleter ojn
U sono
br as
Ġsh op
Ġeb ligi
Ġ197 3
Ġride to
Ġtelefon vo
Ġrare ly
Ġtask ojn
Ġug ly
Ġj c
Ġl up
ĠF ort
ĠAl ÄĿ
uo us
Ġpublik igi
Ġaw kward
ĠHel en
Ġpreter pas
ol do
Ġaf ab
Ġindi k
Ġtraduk as
ĠX ian
Ġindivid uo
L u
M ich
k oloj
re con
Ġg on
Ġfor ces
Ġek iris
Ġfin i
Ġakcep to
Ġkonsta tas
e lek
Ġmult foje
Ġsus pect
ĠJer ry
Ġporde go
ter on
ĠK r
ĠN O
Ġsp ir
ib io
Ġfund amento
jec ts
Ġsoldi er
Ġtreat ment
ĠLib ano
us ton
Ġak or
Ġ9 9
pozi cioj
ĠBer lin
Ġener gy
Ġgrande gan
Ġnumber s
b acks
n ur
ĠkondiÄī o
ĠÄľener ale
d eno
Ġof t
Ġpre ÄĿo
ma o
01 7
Ġpe zo
Ġdeep ly
Ġli mited
Ġas ks
Ġ19 36
Ġex isten
Ġco ps
Ġindi ÄĿen
Ġkol ero
Ġintellig ence
c ue
j um
Ġt avo
is a
Ġen igi
Äī en
ci ono
ch ing
Ġprote kto
ĠreÄĿ lando
ĠSom alio
ta ron
os en
ran a
ĠlaÅŃ eble
Ġfaci l
Ġokcid ent
Ġsimi lajn
Ġref le
Ġcig are
ĠKart ve
om er
ĠT eri
em ia
Ġle ks
ĠantaÅŃ an
Ġnov aÄµojn
Ġurb aj
Ġeto son
P l
ĠA ri
Ġmal ver
Ġ19 38
Ġven ki
Ġge fratoj
Ġom bro
ĠTa is
ĠKul turo
d t
es pri
ĠE ta
Ġfin ished
enta tion
Ġfa ka
ĠÅľ an
Ġteritor ion
Ġsure ly
ĠSal om
ÄĿ anta
Ġre ago
Ġper das
ĠN ag
Ġanim als
ES P
Ġban do
Ġenkonduk i
âĪŀâĪŀâĪŀâĪŀ âĪŀâĪŀâĪŀâĪŀ
Ġsenpag a
ul u
st roj
vi la
ĠMaro ko
ĠA M
Ġ19 34
no logy
Ġsitu acioj
ser va
ĠAÅŃ gusto
ĠÄīees tas
Ġprogramer oj
ĠFilip inoj
b lis
f ano
li tajn
vi va
Ġmin er
Ġad oles
Ġordin araj
Ġlearn ed
ĠVa ÅĿ
ĠRy an
p eno
Ġh ated
Ġmalgran dajn
ĠUnivers ity
Ġdivid ita
e e
Ġ @
ĠJ aro
Ġmar tial
Ġrelig ious
ĠIns uloj
Ġesperant lingva
Ġexplan ation
ĠÄľene vo
f ted
k anto
Ġh ier
ren ce
ven oj
ĠVi vo
ĠRo y
Ġinten co
Ġopini ojn
Ġler te
Ġkonsid era
E V
de vena
Ġ19 31
Ġthere fore
rig ado
Ġkrom aj
ĠÅľ tato
Ġtur ni
Ġleng th
di on
Ġl uno
Ġunu flanke
Ġfran k
Ġinclu des
kar to
Ġpros per
Dan kon
un i
ĠT al
ic oj
Ġat estas
Ġmin e
Ġgu berni
Ġgerman e
Ġabs or
bb ish
Ġredeem ing
al thy
Ġmor ala
ĠZ uri
Ġplan et
ĠJu li
Ġsto ck
ĠÄĪeÄ¥os lovakio
Ġm m
ti la
ci l
az z
Ġhor lo
cent on
Ġfre ÅĿ
ĠSte wart
Ġsende pendaj
Ġtrin k
Äį ek
ĠBlan ka
Ġneg lek
C ar
T e
a Äī
b uti
Ġj ura
ĠF an
vi vo
c ke
Ġa vid
Ġen iras
Ġres earch
ĠAn thony
ĠKom er
Ġad m
Ġko piraj
ĠGre gor
Ġparti ci
Sh are
in K
ĠA re
ĠM itch
Ġwatch able
Ġ12 0
ĠRus ia
Ġkunven oj
" :
at oro
Ġre zon
Ġno ir
Ġ19 56
Ġtrans prenis
Ġtrom p
ĠAny way
b in
es pecially
us y
Ġmal kla
Ġor a
01 5
por ta
ĠZ im
Ġanim on
Ġportra y
Ġstruktur on
Ġpej z
O U
ĠH omoj
ag ue
Ġat ro
Ġres tu
ĠÅľ ajnas
Ġnum eroj
ĠPa co
Ġsal ut
Ġhero es
ĠN ick
ĠH as
ras s
Ġkonk reta
Ġreturn s
il lo
Ġbe low
pe ca
Ġ19 47
Ġmanip ula
A V
in anoj
ĠT aylor
Ġar keo
dis ku
lig os
Ġtraduk ojn
ĠOri ento
Ġfide la
muz iko
ĠSaks io
ta cio
ris h
cep te
Ġ5 8
Ġperson ally
Ġskrib a
Ġna ive
ĠmaÅĿ in
Ġuniversita ta
c ist
ĠA uld
ĠP rojekto
ĠO ut
Ġeks kurso
Ġkomp rom
Ġanim aloj
ĠEvery thing
Ġconstan t
c ut
v Ã¡
la don
ĠA aron
ĠP ov
Ġvid eb
Ġdev iga
ĠPar ko
adem y
Ġsad ly
ĠpoÅĿt kodo
Ġre vo
ĠS tel
Ġel mig
Ġ19 59
ĠÄĪ in
Ġhap p
Ġsimp lan
Ġvic prezidanto
Ġscipov as
ti vi
Ġb ath
Ġrespon sible
Ġpropon ita
Ġgang ster
d ro
k tado
pe z
Ġdis gust
dis tri
Ġvar oj
Ġinstru o
Ġkonduk i
Ġsab lo
ti tan
Ġsam noma
Ġpla Äīis
Ġlibere con
ĠVil hel
Ġprofession al
M ov
u an
ĠC x
ĠW olf
ente con
ĠÅĿanÄĿ as
Ġdia blo
Ġekzamen oj
Ġdeser ve
Ġpripens i
de ÅĿo
Ġlo s
Ġfriend ship
Ġrapide co
Ġalven as
Ġdonac on
ĠDom ino
Ġe coj
Ġes ka
Ġin e
ĠK ub
pre h
ĠÃ ł
F i
L igo
u fi
en ne
Ġin oj
Ġri be
Ġle ts
Ġef forts
ĠReg no
ul te
Ġad vo
ĠZ agre
Ġkunlabor antoj
Ġposed is
ĠMov ado
Ġartis t
komp uti
ti gante
Ġne kompren
Ġ/> -
Ġle vi
ĠAnd y
i tu
Ġra ted
Ġpe ace
Ġknab oj
Ġ# ?
Ch ar
Ġexpla ined
Ġh olds
ĠS tory
ĠS ier
Ġinter tempe
Ġ19 49
Ġvis ion
Ġappar ent
Ġlandli mo
Ġcrow d
Ġk ing
Ġar Ä¥
Ġfar a
enc an
tik isto
Ġtrans iris
Ġfamili on
ĠMe ze
Ġanon ci
menta l
Ġisla ma
ĠTaj vano
Ġperspek tivo
Ð ¹
Ġh urt
em io
ĠSo cia
Ġhon oro
ĠMal nova
Ġran go
Al though
Ġkov rita
ci i
ĠÄĿ em
ĠV era
Ġsi avice
va te
vin te
Ġmas o
Ġminut ojn
Ġekonom ian
So ci
Ġfigh ts
Ġmach ine
L ia
Ġsin dik
Ġplan on
ĠdediÄī is
Ġfilmmak er
Ġkategor ioj
Ġthorough ly
la ri
Ġp ig
Ġre go
Ġre ÄĿoj
Ġpro voj
ĠN ational
Ġbri l
Ġapro bis
Ġcommun ity
Ġgenu ine
Ġveh ic
ti te
Ġen me
Ġneces ajn
Ġfunkci ado
ĠvojaÄĿ oj
Ġuson anoj
Ġmix ed
lingvan oj
Ġkompan ioj
S he
Ġc ard
Ġal tern
ĠF oje
ĠaÅŃ tun
Ġindividu a
Ze lando
A like
ĠT el
Ġfor mis
Ġch ick
ni fer
Ġven di
Ġbi en
in ario
ren kon
ila te
Ġpac ing
Ġsurpri z
Share Alike
Ġk uri
Ġal taro
ĠF aj
Ġfam an
ĠGu y
UN K
Ġsemin ario
# #
D i
f s
p lot
Ġsur face
Ġsuper flu
ĠMal fer
logi ajn
Ġkomputi la
Ġmalhel pi
ĠOrganiz aÄµoj
Ġmallibere jo
ĠDokum entoj
c l
Ġfra me
ĠÄīap it
ĠStan is
Ġskla voj
a el
t ujo
Ġti poj
vo la
Ġser vice
Ġsin te
Ġtor ture
Ġacc urate
Ġconcern ed
Ġp ub
Ġd ent
Ġm eks
Ġin j
ĠM ON
ol ingo
Ġsen labor
Ġdir us
Ġvo te
Ġbr ul
Ġkonfli ktoj
ĠaÅŃtorita toj
Ġlic enci
Ġp r
ar Ä¥
Ġrezul tas
Ġsper tojn
Ġtranslok iÄĿis
, ,
v iron
er k
ad or
Ġdeven is
Kom preneble
ĠFili po
ĠAzerbajÄĿ ano
te ment
ĠE ug
ĠLa go
Ġmar ry
03 9
ĠJu lie
Ġbru o
Ġkonvers acio
Ġforpas is
Ġmalhe la
d am
g alo
Ġsuper as
lern ejoj
ro id
Ġmo tiva
Ġaper inta
Ġekster land
Ġtr ust
Ġdekla ras
esperan tistoj
k esto
Ġs pre
li tan
Ġlo ving
pon o
Ġkar to
Ġdokum enta
Ġtom bejo
g emon
ĠC oo
enc is
Ġregion aj
ĠFor umo
ĠfiÅĿ kap
? ...
k lu
ä º
um u
Ġter m
ori ente
Ġkonser vis
Ġhistori isto
L as
ĠS um
Ġpra ve
Ġaran ÄĿi
ĠAnt ver
Ġcircum stan
b es
â Ķ
en an
ter ane
ĠE N
Ġkompren ebla
Ġco ok
Ġconf lict
Ġdivid o
Ġvolon tuloj
ĠBos nio
Ġa bor
ĠM aks
don u
Ġins pir
zon on
Ġmalfer mo
Ġa ward
po ÅĿta
pe o
Ġrakon ton
Ġmult nombraj
ĠPl uraj
to od
Ġw id
Ġen re
Ġen th
Ġmal gra
Ġ19 08
03 7
ĠOr ganizo
ĠJohn ny
Ġvilla ins
Ġcall s
ĠGener al
en ed
ĠDe ath
Ġbri la
Ġoppos ite
k ino
Ġde von
ga re
Ġser von
Ġpos ition
voj aÄĿ
Ġcer b
ĠdaÅŃ ra
ĠBo y
Ġesper on
Ġtranspor to
Ġstatu to
kapab lo
Ġnic ely
Ġne t
ĠA S
Ġsu cks
ĠF land
Ġtre ated
ĠBruse lo
ĠS la
ĠS tone
ĠJ ew
03 6
far ado
ĠVer ÅĿajne
Ġkatoli koj
E x
j k
Å ¼
Ġek vid
Ġse at
gra fo
Ġgro wing
Ġmer it
ĠBer g
Ġdol oro
Ġdeser ved
fil m
ĠK lubo
ĠF ettes
Ġplan edoj
Ġstud y
ĠSte fan
Ġph iloso
ĠM ass
Ġres to
gan t
Ġad mon
Ġkor up
Ġurb an
Ġeksplo dis
Ġexpress ion
ĠSingap uro
U r
Ä «
le ton
ing er
ĠF ul
ĠJ as
for table
ge to
Ġlu ck
Ġrenkonti ÄĿon
Ġcap tured
Ġmedic ino
Ġcompar ison
b les
Ġh its
id ojn
Ġbe leco
ĠB ush
Ġstud ado
Ġkura ci
Ġ197 2
ĠWay ne
ĠAnder son
c c
ĠI F
Ġpli al
Ġsen pro
ĠDis kuto
Ġvilla ge
Ġaktive co
Ġkern o
Ġunnecess ary
L U
Ġsub a
Ġ5 9
Ġfi f
Ġku rio
Ġreali go
Ġabsol uta
Ġpozi tiva
Ġpilo t
Ġde Äµ
Ġse a
tem p
ili a
rap id
Ġdisvas tiÄĿis
ĠDes pite
Ġk in
pro du
Ġkomun istoj
Ã© n
Ġplay ers
Ġagnos kas
ĠPres kaÅŃ
ĠTogo lando
s ojn
Ġam er
Ġcom pare
Ġpl is
Ġpa ÄĿ
ene ver
Ġtradi cioj
ĠOn ce
Ġfeli Äīe
Ġalpor tas
Ġmalsup re
ĠÅĿata ta
ÄĿ inta
ĠE fektive
âĢ ĳ
ĠH ero
Ġson oj
Ġvian do
Ġinternaci e
Ġremar kable
ci as
Ġg r
ĠW a
jar iÄĿo
K araj
ta ct
ar m
Ġse ka
ou thern
ĠEs per
ĠMi aj
Ġhor iz
Ġpens ado
Ġkam paro
Ġdia lekto
Ġid enteco
Ġmurder ed
u f
sta to
Ġqu o
Ġfa las
ĠPro ksim
Ġalvo ko
Ġtrak tado
Ġcru el
r h
ta le
Ġf ield
Ġfe et
Ġag or
ĠRo ber
german a
P as
Ġc lub
Ġli gi
ĠaÅŃ skult
Ġap uda
ĠÄīe valoj
Ġblo ody
Ġanim al
Ġrus oj
Ġpopula cio
ĠSam uel
Ġaccom pl
s an
x a
Ġn esto
Ġli poj
Ġno cio
Ġag is
Ġaw are
Ġpriskrib ita
ĠaÅŃtor itato
dire ctor
ĠEks ter
H ung
T er
Ġs co
Ġpro ver
ko ta
Ġdri ving
unda tion
Ġinstan ce
ugos la
ĠSpan ish
ÄĿ ante
um bo
ĠO z
Ġuz itaj
Ġspe ech
mar ko
Ġvar mo
Ġkru co
Ġdetru is
Ġs yn
il st
ĠP ok
ĠÅĿ ve
ens ive
Ġaser to
x ed
Ã ¥
Ġs ake
Ġre kor
po int
end io
org io
ĠIs land
Ġdokum enton
Ġdokum entojn
her ent
ekz amen
ĠMr s
Ġmalri Äīaj
Ñģ ÑĤ
Ġsurvi ve
J ust
Ġfor Äµe
Ġas sis
ag ers
gh o
Ġ19 22
Ġtra fiko
eri ff
Ġnask ita
Ġverk ado
Ġpoten ci
endi te
ĠÅĿton oj
Ġlo wer
Ġar men
ho lic
Ġrom anoj
ĠPat rick
Ġhuman ity
plan o
, '
A F
ÅĿ u
ĠG un
Ġlo cations
Ġcon ven
ĠÄľ in
ĠJap ana
Ġpsy ch
Ġelement ojn
Ġ ulo
Ġla cking
ĠL ic
Ġ19 41
Ġman age
Ġnom itaj
Ġpent raÄµoj
ĠSvis io
ĠreÄĿis oro
natur al
ay s
ĠÄĪe f
Ġrapor toj
Ġordin are
Ġblog on
Ġplo ts
Ġfra zojn
Ġjun ula
Ġrifuz as
Ġatribu i
Ġlogi ko
Ġkategor ion
Ġblo ck
ĠBar ry
II I
ension al
Ġkonati ÄĿis
Ġc ars
de bla
aÅŃ a
rin a
Ġcrimin al
S F
Ġt ras
Ġen landa
em en
Ġspeci faj
Ġeb los
prez id
Ġge f
ĠJu lia
Ġsca red
ĠÄµurnal istoj
M at
f rom
Ġkon forme
ĠD oro
Ġthat s
enti ally
Ġregion on
Ġpag is
Ġcreat ing
Ġartis tic
ĠKongres oj
ĠtuÅĿ as
j ud
Ġg ast
00 2
Ġfin ita
eble co
ĠbedaÅŃ ras
Ġstan ding
look ing
Ġsucce ed
P h
or m
ma te
Ġmala mo
Ġgh is
Ġris k
Ġemp ty
ÄĿ antoj
Ġal ter
Ġre formo
Ġgrand io
Ġk us
Ġvi voj
ĠHa i
ĠKul tura
c enta
j aroj
y m
Ġgra ved
aÄĿ aj
Ġarte farita
K ara
L O
av en
ĠC amp
ĠV HS
ag oj
Ġdev igis
ĠTim e
Ġkvali ton
Ġa Äµoj
Ġb v
ĠM ajo
Ġno kton
Ġgo of
ĠMar x
ĠÄīef an
Ġmas s
Ġown er
Ġe tan
ĠD ip
Ġag re
Ġelek tu
Ġpriskrib a
ĠLiter atura
f it
i ano
k vankam
Ġf ate
ka toli
ĠN ata
ĠAn im
Ġko lo
Ġob sta
Ġnumero us
Ġtelefonvo koj
to wn
Ġe arn
ĠL ub
ve jo
ĠÄīiu ta
Ġwi tty
Ġcur rent
ĠRuss ell
h at
k lon
p ent
om i
Ġin ci
ĠS ri
ac ting
Ġunu avice
ok cid
Ġmemor ies
f esto
Ġf lying
Ġb land
Ġch ief
Ġpermes iloj
Ġ18 87
Ġtraduk itaj
Ġkeep ing
ĠMalaj zio
j araj
Â ·
Ġg ala
ĠP rojek
Ġpas i
Ġplen igis
Ġprogra mojn
ĠMon tri
tant ly
Ġta pe
G M
en tajn
Ġe o
th al
ĠG ol
Ġinter kon
Ġra pe
ĠVi an
ĠHo p
Ġtek nik
ĠPle ase
ĠNAS A
F akte
an im
Ġm ental
Ġv ac
ion a
Ġsub me
ĠSe an
ep t
Ġfak aj
Ġinteres iÄĿis
ĠÅĿanÄĿ iÄĿas
his torio
Ġprovid ed
Ġli mojn
ke bla
ac on
Ġfre kven
Ġbro ken
Ġsid es
Ġstre bas
Ġrevolu cia
Ġhid den
ĠP r
ĠÅĿ tel
Ġ19 42
tr ojn
Ġho pes
Ġinten c
ES T
ĠJohn son
ĠCar l
Ġalvo kon
Ġde ko
Ġ1 01
Ġorigin alaj
Ġreve aled
Ġviki pedio
iÄĿ adis
Ġekzis ton
Ġdesper ate
087 65
B ar
Ġ ..
ro l
Ġal tran
ĠS tri
ĠS ian
ut u
Ġun com
Ġpo et
pa f
Ġpermes o
Ġfunkci i
Ġrek tan
Ġestr oj
Ġtrin ki
Ġregist ritaj
ç¤¼åĮħç¤¼åĮħç¤¼åĮħç¤¼åĮħç¤¼åĮħç¤¼åĮħç¤¼åĮħç¤¼åĮħç¤¼åĮħç¤¼åĮħç¤¼åĮħç¤¼åĮħç¤¼åĮħç¤¼åĮħç¤¼åĮħç¤¼åĮħç¤¼åĮħç¤¼åĮħç¤¼åĮħç¤¼åĮħç¤¼åĮħç¤¼åĮħç¤¼åĮħç¤¼åĮħç¤¼åĮħç¤¼åĮħç¤¼åĮħç¤¼åĮħç¤¼åĮħç¤¼åĮħç¤¼åĮħç¤¼åĮħ ç¤¼åĮħç¤¼åĮħç¤¼åĮħç¤¼åĮħç¤¼åĮħç¤¼åĮħç¤¼åĮħç¤¼åĮħç¤¼åĮħç¤¼åĮħç¤¼åĮħç¤¼åĮħç¤¼åĮħç¤¼åĮħç¤¼åĮħç¤¼åĮħç¤¼åĮħç¤¼åĮħç¤¼åĮħç¤¼åĮħç¤¼åĮħç¤¼åĮħç¤¼åĮħç¤¼åĮħç¤¼åĮħç¤¼åĮħç¤¼åĮħç¤¼åĮħç¤¼åĮħç¤¼åĮħç¤¼åĮħç¤¼åĮħ
E ven
Ġf ana
ĠI V
ten oj
Ġparo Ä¥
Ġeta ÄĿo
Ġkonten ta
Ġfinanc aj
Ġkore a
ĠJoze fo
L I
k lubo
Ġe uro
ĠE ri
ĠH TML
ag u
Ġpre fi
Ġcoun ter
ĠLat vio
Ġpej zaÄĿo
ti lon
le toj
Ġb ier
ĠE ric
do us
Ġ19 12
Ġins piri
ĠSim ple
ĠRen ato
ĠfiÅĿ oj
Ġkonker is
ĠNapole ono
v iÄĿis
la ce
Ġlo vers
Ġak ra
Ġkuti mas
Ġoper acio
ĠFranc ujo
Ġmagni fic
ĠkontraÅŃ as
ĠRe ÄĿa
Ġfa ult
leg is
Ġkem ia
c ore
Ġes enco
Ġc ab
Ġre toj
ĠS ah
ĠO ra
vers aj
par ently
Ġtag manÄĿo
Ġcx iam
ĠpoÅĿ tele
ĠJako b
Ġbehav ior
Ġdrun k
c ul
Ï Ĥ
ĠF un
Ġdi vor
Ġch iu
Ġro ugh
Ġmembro ÅĿtatoj
Ġinclu ded
Ġmalp ura
Ġfor a
Ġas pir
Ġ19 28
ni ka
ĠkontraÅŃ d
Ġrespon doj
Ġesperantis taj
E O
Ġa lar
Ġde but
ĠM un
ĠLi bere
Ġaf able
Ġapar atoj
Ġbig ger
ĠK aÅŃ
ĠMi li
ĠAn ge
ĠDe an
Ġmis er
tab lo
Ġnaj baroj
Ġkonvin ki
ĠBrother s
ilvan io
z anio
Å ¬
ta t
Ġpost las
Ġreal ism
Ġanim e
Ġekstre ma
Ġkoordin atojn
Ġkamar ado
Ġzor gi
ĠBarcel ono
an ks
âĢ ķ
ĠP DF
Ġpoli tike
ÅŃro paj
Ġprofes i
Ġpan on
ĠFeder acia
ĠDistri kto
Ġb aro
Ġre pli
Ġto l
ĠG ary
Ġinter paro
Ġeble coj
ĠCh an
ba zo
In ternacia
ĠCar ol
Ġvis u
Ġsum mer
ĠKore a
on es
ĠP os
Ġvi ra
Ġmov ement
Ġsub s
Ġankor aux
Ġegi p
Ġs ar
ig ebla
Ġgra du
Ġsk ills
Ġany body
Ġco lo
Ġkonstru itaj
ĠSo ft
Ġpropon ojn
Ġwonder fully
Ġmaljun ulo
ĠHor ror
Ġt esta
om ence
Ġc olon
us z
ĠM aÅŃri
ĠP en
et ru
Ġkons iloj
Ġgra t
Ġins tigis
Ġhistor ie
Ġhistor ian
ĠRus a
ĠReÄĿ lando
D ire
o las
ti ca
ĠÅĿ ak
Ġ19 00
01 9
Ġs aÄĿa
te jon
Ġv ang
em plo
ment ojn
Ġru bbish
ĠMon to
Ġdez ajno
Ġmontri ÄĿas
Ġvis it
Ġcivi la
Ġindivid ual
Ġ( âĢľ
eo us
ĠMar io
Ġjap anaj
Ġpropag anda
Ġkanta do
b lon
g ely
Ġk ino
Ġun able
ic ks
Ġsi te
Ġ19 29
ĠMar kso
Ġhad n
Ġeb ri
Ġru ÄĿaj
Ġapo g
Ġdetru i
Ġordin ary
Ġstatu o
Ġengag ing
Ġs pli
ra m
Ġc ash
ĠI am
ĠH els
ĠEn d
cis e
Ġangla lingva
Ġhigh er
Ġradi kojn
Ġstre ets
Ġgre w
Ġdeb ato
ul li
Ġlern ejon
Ġnek uti
Ġret poÅĿta
ĠOn line
Ġdifer encas
ĠÅĿar ÄĿ
Ġtrakta to
er to
Ġes enca
Ġpo wers
ĠkontraÅŃ le
Ġnor moj
Ġtur ismo
Ġbas ton
Ġreprez enti
Ġkontribu o
Ġkontribu as
Ġprofund an
: <
Ġt est
ĠN atasha
ĠC os
Ġpa le
ĠAl t
Ġka pelo
Ġmals ato
Ġsukces aj
Ġobser vis
Ġtransdon i
ĠNeces as
Ġbe lajn
Ġsu it
ĠV ER
Ġinter reta
Ġrela te
Ġsil ente
87 65
ĠVo la
Ã¨ re
P R
Ġad vice
var m
02 9
Ġkoncern aj
Ġtito loj
ĠKra kovo
la w
ĠR ose
ĠW es
Ġac qu
Ġter ure
ĠPro fes
dek o
Ġpied o
Ġris ko
Ġmeet ing
k r
th od
ĠLi broj
ĠÃ ģ
Ġfav ora
ĠCo un
Ġduon on
Ġeg ala
Ġremind s
Ġrezolu cio
Ġspecta cular
p rojek
ĠL im
st one
Ġsta tes
201 8
Ġduon insulo
Ġmontran te
Uni vers
Ġt ono
Ġating ebla
Ġrem ov
Ġkunlabor on
Ġteat ra
Ġpul led
Ġekstre me
kura c
P IV
Ġen emy
ra tion
ĠS krib
ĠK ab
lu c
). [
Ġmin us
Ġpat roj
Ġrus an
Ġceter a
Ġinterv iew
Ġresponde c
Ġkonsidera taj
w an
tu ala
Ġinter lingvis
Ġhe brea
Ġnor ve
Ġmed ioj
Ġ197 1
ĠDu olingo
Ġremember ed
Ġnon sense
Ġescep to
ĠW ord
est y
Ġlan g
Ġkre itaj
ĠAl poj
Ġfi ask
ps tick
Ġtur ka
Ġkron o
Ġtemper atur
ĠFes tivalo
Ġti ll
Ġre ganto
ĠH azar
de to
Ġpar tik
Ġhum ans
Ġplay er
Ġdescrib ed
Ġspac on
kuti m
ĠEgipt ujo
Ġafri kaj
Ġunuso la
s uba
Ġf one
ri on
Ġin vado
Ġki ck
ĠM old
ĠP UNK
Ġgo tten
ĠÅĿta ton
Ġnask is
Ġfol k
Ġmuzik istoj
f li
ĠC ass
ay be
Ġak tivis
Ġlern anto
Ġsignif is
Ã¶ n
Ġrekom end
Ġkurac istoj
Ġprakti ki
Ġmedic ina
N ova
Ã «
te blas
Ġhe li
Ġsur voje
flu as
Ġevid ence
c ro
Ġen ke
ul to
ĠT ies
de lo
Ġap laÅŃ
Ġap ude
Ġsci vole
Ġmo toro
Ġfra kas
Ġspon tan
Ġprefi jo
Ġf les
ĠP on
ĠN ok
Ġhav ante
Ġcon text
Ġlan Äīita
ĠmanÄĿ aÄµoj
Ġpaf mor
Ġfundamen ta
ĠGeor go
Ġk and
ro po
Ġw ide
ĠaÅŃ ten
Ġ19 37
gi aj
Ġex ist
Ġsci igis
Ġnu an
ĠMe x
Ġdekla ro
cle ar
Ġarkite kturo
ĠGab ri
OIL ERS
Ġh ak
ĠB ay
Ġ19 21
Ġsta l
Ġeven ing
Ġbonven aj
Ġles bian
Ġkampar anoj
Ġnukle a
How ever
Ġbag ate
Ġgag s
ĠAntver peno
Ġa pe
Ġat titude
bor n
01 18
vid eo
Ġspeci ali
Ġkar bon
Ġsol ena
Ġfiks ita
Ġrezign is
x y
Ä ±
Ġa id
Ġd ry
Ġti ght
Ġun uj
Ġso ap
Ġobser vi
Ġrefer ences
ĠCan ada
ĠAug ust
U C
V ir
al though
Ġc ategor
Ġmor tas
Ġak re
Ġgra de
Ġins pira
Ġmo tivoj
Ġmalfacila Äµoj
komun ik
Ġtavo lo
K ons
i istoj
ka ux
Ġ19 58
all s
Ġsav o
Ġref resh
Ġmalferm itaj
Ġprotagon ist
Ġtechn ical
RAT IA
Ġt ond
li me
Ġbe lo
Ġhav anta
ane co
Ġran ge
Ġmez uri
Ġmalri Äīa
ĠPres ident
i x
ĠB ou
ĠB angla
et ra
ĠF alk
ĠG and
ĠG ali
Ġinter ÅĿanÄĿo
ten d
und s
Ġro ut
cer to
Ġgrama tika
Ġev it
Ġmajor ity
Ġske p
Ġa cido
ci ent
Ġdi k
Ġpo etoj
ĠIn formoj
Ġnun an
Ġkongru a
Ġkr uroj
z el
ri t
ĠA ust
ir ojn
Ġmal plena
kondiÄī oj
Ġvir inojn
tab ly
Ġideo logio
Ġdisvas tigo
Ġfing roj
IR RATIA
Ġkoleg oj
ĨįãĨįãĨįãĨįãĨįãĨįãĨįãĨįã ĨįãĨįãĨįãĨįãĨįãĨįãĨįãĨįã
ĠPUNK IRRATIA
Ġp ing
Ġre action
ĠMar ko
ĠPo ÅĿt
ĠÄĿus tan
ĠMongo lio
à ´
Ġo leo
tr ajn
Ġfo ol
ku ÅĿ
Ġ6 4
ĠSer ge
ĠTaj lando
Ġop ens
Ġflu o
ĠBe la
Ġuti li
Ġlud antoj
jara ÄĿa
Ġdan co
Ġil uz
ĠMur phy
ĠKartve lio
/ ,
v ie
Ġb iblio
Ġle ÄĿon
Ġfin ale
Ġbo dies
Ġend anÄĿer
Ġtr ar
Ġpent raÄµo
in ala
Ġs now
Ġv s
Ġc lu
el is
Ġmi to
Ġlong o
Ġrespon deco
Ġgener ation
Ġpru vis
Ġrefer end
Ġsca re
T C
× Ļ
ek ta
do ws
Ġ19 46
ess or
Ġins ult
Ġdes ire
Ġating os
bur ga
A A
k isto
Ġh ack
Ġal tru
Ġg ap
Ġsu pro
ĠÄĪ iam
Ġtre zor
Ġins ight
Ġmili ono
Ġ9 5
iew icz
Ġdeal ing
Ġarkite kto
L ic
Ġla y
Ġc l
por ary
Ġbu ÅĿ
Ġverk aro
Ġalvo koj
cs ay
ĠDie go
Ġt ens
ĠI do
Ġkor tu
Ġspeci fic
Ġret paÄĿo
Ġhej ma
kun veno
Ð ³
Ġs ana
Ġv endis
ĠS kot
per or
Ġkom enton
dis h
Ġstu das
Ġamb ici
Ġtele fono
Ġsemajn ojn
ĠBel orus
Ġteen agers
Ġkongru as
ardin alo
d ar
al le
ĠS V
ĠO kto
duk ado
Ġrez igni
ĠPar ag
Ġku iri
Ġforma le
ÄĪe fa
ĠMez oriento
ĠK olor
lu ding
ener ala
Ġarme on
Ġdivid as
Ġdol Äī
ĠAbra ham
g uloj
Ġg entle
Ġhe gemon
Ġtem pl
ĠKon si
kam po
Ġele ct
Ġkomple tan
mili ta
Ġsubstan tivo
Ġstop ped
F o
g ado
w en
li da
ar bo
ce gov
for mon
lig u
Ġfran coj
Ġbra zi
Ġkamar adoj
Ġdecis ion
al f
Ġin ex
ĠD in
ĠV ojo
Ġsk ol
ĠkontraÅŃ e
Ġjun an
Ġstar ting
fo lio
Ġdivid i
reg iono
Ġkarakteriz a
Ġadminist ranto
co p
ble co
Ġsh allow
so ft
Ġmem ori
Ġkap t
ather ine
Ġekle zioj
D es
f el
ĠG ron
Ġ19 07
pa ÄĿon
Ġvid o
Ġplan is
Ġkov ris
ĠNen iam
Ġconne ction
ĠL loyd
ĠK ated
ag ado
01 6
Ġsk an
Ġover ly
Ġinten ce
Ġcas es
ĠFes tival
Ġnos tal
ri med
Ġse pa
alo csay
Ġshe er
Ã© r
Ġleg adon
Ġjud ge
Ġpronon co
Ġekskur soj
L and
la vo
la ted
Ġc able
ĠH ad
Ġmul tan
no x
Ġkontra kto
ling vajn
Ġekster lande
Ġuni form
Ġfunkci ojn
ĠMo on
Ġdeser t
Ġklu boj
Ġd ome
Ġb er
Ġe con
Ġkon o
ĠP rom
Ġpre taj
aci ojn
Ġchar isma
Ġtrov itaj
Ġbre aks
V oj
c ero
Ġen meti
ĠK y
ĠC ru
ĠG ren
gh is
Ġci feroj
ĠAÅŃ tuno
Ġama ta
Ġmeze poka
ï¼ ģ
w olf
z ar
Ġeb loj
Ġfre ÅĿa
hel p
Ġdirek tis
Ġhispan aj
ÑĢ Ð°
Ġdistribu i
Ġteg mento
ĠOce ano
ĠEtio pio
Ġo le
Ġne mal
Ġple jo
iz ing
Ġsufi Äīa
Ġjen ajn
graf ion
Ġhero o
Ġprezenti taj
ĠEsperantis tojn
feli Äī
Ġ 05
Ġg reen
Ġg lass
ĠaÅŃ da
Ġ19 06
Ġsci on
ĠSe ulo
Ġsubstan co
Ġfizi ko
ĠAlb anio
Ġa bo
Ġs and
Ġs una
al u
ĠO k
iu lo
Ġparo los
Ġpreleg is
Ġprofi to
Ġporno grafio
Ġtribun alo
ĠT ru
ÅĿ ar
Ġfor iri
Ġlo kan
Ġr aso
Ġokaz igi
Ġkan tisto
Ġkunlabor is
Ġtal ents
Ġkoti zo
Ġj ump
Ġas king
ĠTh ose
Ã³ r
sc reen
Ġforges i
Ġeksk luzive
Ġsuges tas
Ġcontri ved
a ka
Ġli e
Ġsen ÅĿanÄĿ
Ġliber igi
Ġgas to
ĠRes pon
nik ov
Ġgim naz
Ġdread ful
ĠBoli vio
li ga
Ġin vit
am on
ul f
ĠN ask
ĠH ab
pi ka
Ġlu ks
Ġcam eo
Ġfig uroj
ito us
Ġkonfir mis
Ġeksk lu
Ġhumoro us
ĠRober ts
ĠS ene
ĠI st
ĠC ho
par a
Ġplu aj
Ġet no
Ġeston te
Ġfal se
ĠAfri can
Ġcu rious
) <
E ks
b ling
t w
pro te
tin te
ins ki
?? ?
Ġargum ento
teks toj
INVALIDINVALID INVALIDINVALID
Ġevidenti ÄĿis
Ġambas ad
Ġpro vos
ĠC lin
ren e
Ġ19 66
Ġreg ret
Ġgra ce
Ġraj t
ĠPer son
Ġfortika Äµo
ĠGor don
ĠVilhel mo
v d
âĢ ³
ĠÄīi us
Ġar ms
Ġsci u
Th en
Ġkla ri
Ġfre edom
Ġuti laj
nom on
Ġprivi legi
G o
Ġv osto
ĠB ib
Ġpla Äī
kor p
Ġgvid i
ĠdanÄĿ er
Ġsove tia
kolor aj
ĠTan zanio
W il
m ove
Ġp av
Ġek stra
Ġur be
ĠKon diÄī
Ġcap ture
ĠUS A
ĠeÅŃ rojn
Ġcommer cial
Ġde als
Ġf ly
ĠK var
Ġam ika
ĠAr m
Ġkuti moj
Ġpan or
Ġarte far
ĠChap lin
Ġo vo
am bro
Ġre gantoj
ĠMi an
01 8
Ġmar on
ĠAli ce
Ġinfan on
Ġplibon igo
Ġamik ino
Ġlevel s
Ġtraj tojn
Ġadres on
Ġdiscover ed
Ġs pri
ĠS O
ĠK utime
Ġvi tro
Ġfor igis
po p
Ġsome body
ĠÄīar ma
Ġter ribly
Ġpermes on
Ġju ÄĿis
sis temoj
Ġinsta li
Ġstereoty pes
F rom
Ġb uro
ĠP ir
Ã¡ l
hav a
Ġspo of
Ġcap able
Ġzorg is
Ġfail ure
L et
b it
v iÄĿas
ĠI pernity
ĠL ind
Ġdis tin
Ġthough ts
Ġpers pective
Ġtito lita
Ġkos toj
Ġmeto don
Ġflug iloj
Ġpritra ktas
p ikaj
ar anÄĿ
um ena
di oj
ĠD ian
201 6
200 4
Ġdisku tis
rip tion
ĠBand ar
ĠAlÄĿ erio
Ġgon na
b ala
Ġen viron
Ġc y
ka elo
Ġsol dato
Ġele f
Ġmain tain
Ġstri oj
ĠMem or
Ġekkon i
ĠFond uso
Ġepi zo
ĠTokipon on
R us
p ur
ar ag
Ġti pe
ÅĿ ir
Ġso laj
Ġsek ura
Ġwe eks
ĠRi ver
Ġapro b
german e
Komun ejo
Ġlicenci taj
Ġcircumstan ces
Ġp etro
or es
ing tono
ov an
ĠS au
ĠD ub
Ġor el
man ieron
ĠÄīe valo
Ġda ted
Ġmat eria
Ġsa tire
Ġfak toroj
Ġ# ##
Ġfac ts
Ġsove ta
n ers
la va
Ġh undoj
Ġb os
to o
ad ed
ĠT ak
ĠK ate
ĠM eto
Ġpro ved
Ġpli bone
Ġmon teto
ĠU rug
Ġfar us
Ġfin est
Ġtu ÅĿis
Ġkar no
Ġsper tas
Ġdosier uja
Ġresponde cas
Ġwin ning
Ġcontin ues
Ġpsycho logical
f fe
am an
he ar
Ġ19 09
Ġneces is
ĠPa ÄĿo
Ġmalvar me
ĠMas ter
Ġmaksim ume
Ġpar ody
Ġ19 62
mon do
Ġeli ri
Ġhero ine
Ġurb ojn
Ġpreten tious
ĠOkcid ento
Ġoccasion ally
z ado
ĠÅĿ al
Ġex pos
sel y
Ġvol umo
Ġjen an
Ġsank taj
ĠBern o
Ġparamet ron
o is
w y
Ġsta rigas
Ġser ion
ĠÅľ tata
Ġmas tr
Ġimp ul
ĠZamenho fa
Ġpu go
Ġmir inde
Ġkonsis tanta
Ġwood s
cegov ino
3 00
e a
t rib
Ġfor th
ĠÄīi aj
ĠG et
Ġ19 57
Ġtre m
Ġson on
ĠIns ulo
Ġinvol ves
Ġkompar i
in form
Ġo li
ĠD al
Äµ a
ĠF BI
ton io
fer ojn
Ġch urch
Ġamuz a
Ġsemin ar
un uo
and ro
ars h
Ġkri tika
Ġgro wn
ĠTe xas
ĠÄīees ti
ĠBern ard
ĠPet r
ĠdisÄīip loj
d ol
Ġg ubernio
Ġli mas
Ġj uraj
av or
Ġtran ok
Ġrila t
Ġnum er
Ġsav ed
Ġty pes
Ġbel ulino
ugosla vio
Ġkonven a
Ġcrap py
Z amenhof
er ie
in ely
an ts
ĠS atur
pan y
pen na
Ġsigni fa
Ġdec ade
Ġklas if
ĠDan ny
Ġarme a
Ġalpor ti
Ġprem io
kate gor
s ch
w ig
Ġin fer
Ġcon dition
Ġab om
Ġprojek tojn
Ġakompan is
ĠĠĠĠĠĠĠĠĠĠĠĠĠĠĠĠ ĠĠĠĠĠĠĠĠĠĠĠĠĠĠĠĠ
f em
n el
Ġg ory
ĠC are
ĠC lub
ĠJ una
Ġfilm ojn
ĠEsperan tilo
Ġ19 54
ard en
ĠkaÅŃ zi
Ġmalbon an
Ġpostu li
Ġofic isto
Ġtar get
Ġsuver ene
ĠÅľan h
E very
a pe
Ġ19 64
01 19
Ġro ko
ale co
ĠCh u
Ġkoncep toj
Ġmalpermes is
ĠNord ameriko
Ġtheat re
is er
Ġw ise
res pek
tor a
aÅŃ l
Ġali uloj
Ġins ane
Ġapli k
Ġcar es
Ġass ume
ĠSvis a
Ġsuffer ing
alifor nio
Ġs ell
Ġi ra
os eo
Ġkon to
Ġper dita
Ġel vo
ĠC our
ĠJ ung
Ġdu de
Ġedz iÄĿis
ĠSek va
Ġgri za
E st
Ġh alo
ĠÄī eloj
Ġkons ili
Ġho p
ĠAl fred
Ġmals ek
." <
Ġprodu ce
Ġpac a
igu el
Ġsuf ikso
Ġliver as
Ġe timo
ĠF ron
Ġle ÄĿojn
ab ility
Ġch allen
Ġhel pu
Ġmals ame
flan ka
Ġsom era
Ġsy m
b id
b ably
Ġde koj
ti f
ĠS up
ĠT O
Ġpro ud
Ġmal di
ia c
Ġar ch
Ġvid eblaj
Ġplen aj
Ġbu ilt
Ġdecid ojn
ĠDra cula
w ald
al ta
Ġli mon
Ġpar agra
ĠLi bio
Ġnun tempaj
Ġskrib itaj
02 5
Ġbezon on
Ġsem i
Ġhal t
Ġredak cio
Ġanali zi
dor f
Ġdisc overs
ĠTim es
ĠBul ler
ÅĿuti ta
ĠNiÄĿ erio
v ard
Î µ
Ñ ľ
Ġn ad
Ġin vad
os is
du a
Ġdon aci
ĠAr k
02 8
Ġpublik igitaj
Ġpied ojn
bri ÄĿi
ĠKaz aÄ¥
M or
r d
Ï ģ
as oj
tri es
04 4
Ġprodu ct
ĠSci ence
Ġedi ted
Ġvek is
ĠIndi a
Ġpoem ojn
Ġreview ers
Ġcomb ination
Ġmov o
Ġvir inon
Ġmals ana
Ġeston taj
Ġexisten ce
H ol
S tar
k vin
Ð Ķ
la taj
ĠLa penna
Ġka fo
Ġgru pojn
Ġparol u
Ġkultur an
Ġekzempl eroj
Ġkatal un
Ġeksterordin ara
ĠRenkon tiÄĿo
Ġakcid ento
Ġes taÄµoj
ir t
Ġpri est
Ġven do
ĠWh ich
Ġpublik an
Ġass ass
pet ent
ĠTeks toj
ĠSus an
ĠJac ques
Ġa ud
er ed
ĠA gain
Ġ19 65
Ġko don
Ġplan ita
Ġfan far
Ġsever a
Ġobjek tojn
Kom ence
Ġbibliote koj
Ġteror ismo
Ġkopi i
Ġunre alistic
x ual
Â Ŀ
Ġuz ebla
01 16
pa ÅĿ
jek to
Ġmalkov ro
Ġregist ris
Ġhands ome
Ġafi ÅĿo
g r
o lo
w el
ad u
ĠL an
ĠL ov
ĠÅĿ anc
Ġating o
Ġbaz an
Ġbaz ajn
gg ing
Ġses a
ĠvojaÄĿ on
ĠPrus io
ĠZuri ko
J u
ur boj
ir k
ĠP lie
ĠF ind
ĠF ire
Ġsk ill
Ġob st
Ġrila tajn
02 4
Ġdor mi
Ġsign ojn
Ġeten dis
Ġcho ose
ĠvoÄīdon ado
ĠÄĿard en
ĠDek lara
Ġeksplo d
ĠLuksem burgo
n s
Ġd ign
ĠT ol
ĠE vidente
Ġ19 23
Ġmin aco
Ġcer tan
ĠBo g
Ġsper ta
Ġprinci pojn
ĠEvery one
ĠCra w
Ġdress ed
P rez
or eo
Ġw el
ĠS ia
ĠH il
ine jo
Ġintern an
Ġ8 5
inter es
Ġinstitu to
Ġine vita
T ial
b are
un ua
ĠS tr
ĠS uno
ag ed
Ġlo ses
Ġperson on
ĠNi aj
Ġesperantis taro
04 6
Ġtur isma
Ġrus ia
Ġokup ita
Ġdef endas
ĠNor man
Ġinstrum entoj
Ġfeatur ing
Ġirrita ting
Ġtertre mo
ĠS chool
ĠA las
Ġun funny
one lo
ong a
Ġfamili anoj
Ġmalfaci laj
Ġste al
Ġfru ktojn
Ġsequ els
Ġkunven is
Ġbalo toj
s up
Ġs kolo
ri x
Ġkon so
ĠEs tu
Ġsol ve
Ġrig id
Ġmallong an
Ġapo gis
ĠpoÅĿ to
ĠkaÅĿ as
ĠBur undo
Ġtrib oj
Ġbabile jo
G u
Ġk inda
ra dik
ka Äµojn
ĠH in
ĠVi etnam
ĠVikip edia
ĠSin ce
ĠAntaÅŃ a
ĠÄīees tantoj
Ġdemokra tia
Ġidenti ty
Ġdise ase
Ġconvers ation
Ð ·
ĠN et
ĠC re
Ġver tika
Ġ19 11
Ġme tita
ish ing
ĠPre paroj
nom oj
Ġdin ner
ĠLas ta
Ġmiz ero
k ron
in fo
lan ce
tan taro
Ġunu iÄĿo
Ġbri taj
kap ablon
Ġgenu inely
Ġ Ù
li ero
ce la
ĠH y
Ġver boj
Ġme tio
Ġres cue
Ġmat ters
Ġlig n
aste lo
Ġprinci pe
Ġdetru ita
Ġelektron ika
Ġsug ges
' )
ç ļ
di ri
Ġmal kons
Ġmom enton
ĠTe ch
Ġpostu lo
Ġris e
Ġsw itch
Ġflash backs
ĠVladi mir
S ud
Ġ 03
ci te
st ria
Ġ19 63
ser v
Ġsav is
Ġpolitik ajn
Ġresponde con
ĠTon kin
f ido
Ġi es
Ġeldon aÄµoj
Ġvila ÄĿon
Ġesper is
ĠBra d
Ġbi eno
Ġkoncep ton
A no
K ie
P al
k olon
Ġc ris
ĠH os
Ġle ciono
Ġfar ante
ĠAl ta
ĠJen nifer
Esperan ta
Ġcen ter
Ġsour ce
as a
Ġo vojn
ĠB az
ĠR ing
Ġmon sters
Ã¡ h
ler ni
ĠÄĿener alaj
Ġfer vor
col n
Ġ19 25
Ġak iras
Ġgra doj
ĠloÄĿ ata
ĠEk vadoro
Ġlig on
ĠSil fer
S I
c ri
ak oj
Ġag ojn
Ġexecu ted
D O
o ps
Ø ±
Ġd y
Ġen vi
Ġsoci oj
Ġlaugh ter
Ġdefin i
Ġdirek ton
g irl
ta ri
ur u
ĠC el
iz oj
Ġsia tempe
âĢĻ .
ĠSh er
Ġmalnov ajn
Ġlingvis tiko
ĠOs mo
s ko
te br
Ġen ir
ĠK is
Ġap re
Ġtri bo
Ġkre don
land an
ĠIta la
Ġlernej a
ĠZim bab
h oma
on der
Ġb uso
ka Äµon
Ġun inten
Ġfil l
Ġra cia
Ġspe ed
Ġad ek
Ġrapor tas
Ġgla vo
pov o
Ġcut s
IG H
Ġneat endite
ĠUrug vajo
li mo
Ġon id
Ġno ti
Ġ19 27
Ġsek toro
Ġflan kon
ĠPer mes
ĠserÄī ado
Ġspeciala jn
Ġoportun a
ĠBat man
m el
Ġ ).
ti oj
Ġc rus
Ġi do
Ġg las
Ġj ung
Ġhav igi
ĠâĢ Ļ
Ġ19 53
Ġsta rigo
Ġekz akte
Ġdra g
ĠSer Äīi
ĠLyn ch
ta m
ĠS ho
ĠM iller
Ġtro a
Ġfun e
Ġko la
tin da
Ġop tim
Ġsigni fe
Ġhon ora
Ġremem oris
ĠKi pro
Ġkonklu do
j ono
ad ian
ĠA sian
Ġhe bre
Ġtransform as
Ġsab ato
Ġhold ing
Ġdiman Äīo
Ġpartn ero
Ġdepress ing
ä »
Ġg el
ĠL em
ĠK alocsay
ce o
ĠH ej
ph p
Ġpe co
Ġeb lus
Ġorigin ally
ĠDo cumenta
Ġprom ise
Ġklarig oj
Ġvend re
ĠBan ko
Ġdeliver ed
Ġultima te
ĠBlo od
ĠEliz abeth
? ).
v Ã¡n
li zo
Ġw itch
ĠR apor
sta l
Ġag res
ĠVid eo
Ġplan s
Ġprof it
Ġsoci ala
Ġbezon os
Ġmod eloj
ĠAp ud
Ġtekn ikaj
Ġgraph ic
Ġt omb
ver e
co w
bo x
Ġri val
Ġsoci on
Ġbaz itan
ĠLo ok
Ġdisting as
Ġsalaj ro
Ġkriter ioj
ĠEvent u
ĠEvange lio
C C
b et
Ġkom pu
ĠG anao
Ġali ens
voj oj
Ġprof ilon
Ġspiri ton
Ġpru vo
Ġjud aj
Ġrekon is
ĠMunk eno
il es
Ġlong ajn
Ġka ÅĿi
Ġvir ina
ach el
Ġkomunik adon
ĠMat t
ĠelÅĿ ute
Ġint rig
irka u
KOKOKOKOKOKOKOKOKOKOKOKOKOKOKOKO KOKOKOKOKOKOKOKOKOKOKOKOKOKOKOKO
Ġkuk etojn
k foje
en don
ĠT aÄĿ
il ly
me a
Ġmili tistoj
Ġink lin
ĠSud ano
an while
Ġper man
ak ta
ak tiva
kon tro
Ġhe la
mi ro
Ġe mis
ig ite
Ġmal plen
Ġar ticle
ĠSe cond
Ġprofes ie
tab ulo
ĠSa tan
Ġsank tan
Ġsank tuloj
Ġnes ufi
ĠJim my
U B
as ts
re ck
Ġh yster
Ġfor tik
Ġling vajn
Ġcon sequ
Ġkre iÄĿis
ĠRe in
Ġfra pis
Ġvizi toj
Ġtal ks
ĠpreÄĿ ejoj
Ġneni om
âĹ ĭ
Ġv estojn
Ġin tima
Ġcom pos
Ġekle zia
Bon volu
Ġla dies
Ġo dor
Ġal mo
ve j
Ġas embleo
Ġling vos
Ġim ago
Ġbest ojn
Jun ularo
Ġvisu als
C o
W or
n is
ti toj
ci t
Ġmal ob
Ġmal hon
Ġdis par
man ÄĿ
Ġ19 61
Ġdu ko
Ġpe te
ĠPl ena
Mal graÅŃ
Ġcivita no
ĠPala co
D av
g lu
ĠS S
ĠR EAL
Ġno be
ĠJ i
ber go
our s
Ġfran ce
Ġsup raj
Ġadd ress
k anoj
Ġn ation
ti lio
Ġe ating
ĠA mo
Ġfamili es
Ġaviad iloj
Ġkoncent rejo
Ġhezi tu
Ġb oj
Ġv endas
ĠG la
ff y
Ġkar es
Ġmom entoj
Ġproduk tita
Ġdok trino
Ġmontri ta
Ġfac tor
E d
do kum
ĠÄīi an
ĠLa ur
ag an
Ġpar ado
Ġso ph
me jo
ĠEn tute
Ġkomun ista
ĠHar ris
ĠÅĿtu paro
e u
n d
Ġk aze
ran ko
Ġvo ices
Ġlud anto
ĠEdu ardo
an ier
Ġde voj
ĠA T
ĠC alifornia
aÅŃ de
Ġri ghts
don i
Ġsur fac
gra moj
Ġbo tan
Ġins tigi
era tion
alk ov
Ġmom ente
ĠPre cipe
Ġesper eble
Ġtab elo
Ġpur ch
Ġsymp athetic
Pol lando
Ġp anta
as ant
ur al
Ġre ganta
ĠR ick
Ġpar encoj
Ġsen dos
ĠEn ter
zi liko
Ġapli ko
tiv ojn
Ġstran gaj
Ġsupo zis
Ġstri kte
ĠMin isterio
Ġkoncer toj
Ġpersek u
Ġim m
Ġkolek ton
ĠKos ovo
ĠHazar da
ĠKondiÄī oj
iz io
Ġad di
Ġsti l
ĠÅĿanÄĿ on
Ġban koj
Ġca used
ET V
Ġcele bri
ĠJud oj
ĠKen jo
m oro
Ġc yn
ak u
da ble
Ġlo gx
du be
Ġbon dez
ĠCh ina
Ġrez isto
gn ant
Ġkapita no
Ġstat uso
Soci eto
Ġal tajn
ĠL ink
ĠH ill
Ġkom entojn
Ġpre t
Ġch iam
go lo
Ġra ised
ĠIn vers
Ġmod er
ĠFo undation
ĠUN ES
Nun tempe
ĠAc ademy
ĠrifuÄĿ intoj
g mail
h im
Ġs alo
ĠJ ugoslavio
ma po
Ġsek vo
Ġpat ri
Ġkonf lik
Ġfer mis
AN T
EL I
Ġmalaper as
Ġmemsta ra
Ġortodo ks
c lass
d k
m ind
Â ĵ
ĠO pen
Ġra cio
Ġvid eble
ĠSe bas
15 3
Ġfaci lan
Ġsing er
IL L
cra ft
Ġted ious
Ġstatus on
Ġadver tis
Ġin vers
ur go
Ġto ur
tu do
ac re
Ġres taÄµoj
Ġsub it
Ġâ ĸ
Ġbra ko
Ġaran ÄĿon
ĠÐ ¿
ĠeÅŃro panoj
ĠKam bo
Ġtheat ers
in en
il ty
ĠA Ä¥
ajn is
pro tek
Ġkel ka
ĠCh i
tur al
Ġrimar ki
Ġportra ys
Ġfid as
Ġkred antoj
Ġatmos fero
rage ous
d um
k alo
en ant
ĠJ ess
Ġpar oj
Ġins tigas
Ġaf rika
Ġplen umo
Ġfak tojn
Ġproduk tojn
ĠDum e
alan taÅŃ
Ġwar ning
Ġul tra
Ġmontro s
ĠSkot lando
ĠBelorus io
ĠP R
Ġ19 55
ĠSe c
Ġpres ti
Ġpe coj
Ġkar iero
Ġamb i
Ġsemajn on
Ġaser toj
Ġexci ted
Ġdestro y
Ġspektak lo
ĠZimbab vo
Ġbe ar
Ġmin ds
Ġren tal
ĠdaÅŃ rigas
ĠSen ato
Ġprefer is
200 6
Ġrevolu tion
Ġpreter las
Ġkontin entoj
Ġteen ager
Ġinstrum ento
ĠAlex ander
Ġpropri eto
Ġekhav is
Ġallo ga
ing en
ĠT ria
ig er
tem pan
Ġmar i
Ġcar ried
Ġtrag edio
ĠFern ando
Ġmedik am
c ement
h old
Ð ¿
Ġin a
ĠT at
ĠP Ã©
Ġmal dika
ĠJ em
for man
Ġsur real
ab lo
ĠLi ve
Ġsin tenon
mon t
tik oloj
Ġjud ojn
Ġfu ÅĿ
Ġmalkov rita
Ðµ Ð½
ĠTie le
Ġzor go
Ġm amoj
Ġv ulg
ĠK arolo
taj pu
Ġpre ÄĿi
up r
Ġreg im
iel ds
Ġaper igis
Ġurbo centro
Ġinteres ojn
mul te
Ġkomp ens
ĠX i
Ġscienc isto
ĠÅĿan co
Ġrekon as
Ġkuns idoj
ĠLern ejo
ĠQue en
ar ning
ĠK han
ĠM eso
ĠG y
Ġpo lan
Ġali maniere
lig ado
Ġpe z
Ġlar moj
Ġunder rated
Ġvesper manÄĿo
Ġexperi enced
his pan
Ġestab lita
Ġlog ic
Ġkod oj
H ejmo
Ġa ci
Ġk g
Ġe la
am iko
Ġsu cked
ĠEsperan te
ph rey
Ġplan ko
Ġindi kis
Ġordon ojn
ĠBen ino
pir es
Ġmalvar m
ĠAra bio
Ġwalk ed
ĠE ver
ka ÅĿ
Ġel uz
ag ask
Ġ19 43
Ġmo untain
Ġson ÄĿo
Äł Äł
lus tra
cal led
Ġsy mb
Ġlogi ka
f l
f eld
el berg
ck i
Ġka fejo
Ġrezul tis
Ġmalfer mas
Ġamas oj
Ġexplo itation
Ġkomand anto
Ġhomam aso
ĠBangla deÅĿo
li ÄĿo
Ġak ir
hav as
Ġkar t
Ġleg endo
Ġâ Ī
Ġinflu ence
pris e
Ġallow s
Ġcontr ast
Ġmagnific ent
b urn
m und
al ph
Ġi al
ch y
ĠC li
Ġtrans loÄĿ
ĠVi aj
Ġkonstru as
ĠLu is
ĠKun e
Ġfervoj a
Ġreduk ti
Ġkonson antoj
ĠMex ican
ar ies
om ed
Äī ado
ig ajn
ĠÄĿ oje
iÄĿ a
de v
ĠF en
Ġres ur
Ġimag ina
Ġfoj foje
Ġmaljun uloj
Ġfas c
Ġgeedz iÄĿo
Ġkontras te
D L
p iras
Ġli tur
ĠE VER
Ġkun igi
co ura
ĠG ala
Ġam ba
Ġkor poj
men taj
int re
Ġproduk ta
Ġgeo grafiaj
Ġdispla y
Ano ther
A p
Ġ 07
ĠA risto
Ġac count
Ġem ble
Ġlar ÄĿe
Ġkov ritaj
Ġpaper a
Ġestab lis
Ġefektiv igi
ĠJord an
Ti un
P ra
Ġk s
ar l
Ġh ost
te lling
ov al
ĠT rum
do zo
ĠR ol
ĠW ikipedia
Ġ19 24
be at
ĠLe g
ĠBo hem
ug s
Ġfaj ron
ĠLis bono
Ġshar p
e en
i Äī
u rigis
ak to
Ġpre vent
Ġpost tagmeze
Ġekster landanoj
Ġmalbon on
Ġfut balo
ĠReg iono
ĠNa zi
Ġkorek ti
Ġaten tigis
Ġdiplom ati
Ġextra ordin
Ġdollar s
âĹĭ âĹĭ
Ġm ara
ra te
Ġor eloj
Ġhe aring
Ġme thod
Ġsk emo
mul taj
Ġkol um
vor taro
ĠVal ent
Ġbrilliant ly
pat ro
ĠTar zan
Ġliteratur on
Ġfl ust
ci is
ci es
ĠH art
Ġam ase
Ġbo und
Ġfon di
out ube
ign oj
Ġkontak ton
Ġpalest inanoj
B la
H ar
m eno
Ġm iras
Ġb ow
ra kon
ik aro
Ġkomun isma
Ġhor izon
ĠFran Ã§
kam pan
Ġmalferm iÄĿis
____ ____
. (
F ederacio
K a
Ġw edding
Ġen am
ĠM all
ĠÄĿ er
ie wer
pe toj
tan io
man d
Ġok ci
Ġeldon i
Ġspor to
Ġlito va
Ġita laj
f ro
Ġc ind
ĠM iguel
Ġ2 40
ĠV el
En iru
ĠAr t
Ġorganiz a
stra to
Ġmur do
A b
S E
Ġm iris
Ġre ti
Ġmat uri
Ġdisk uton
Ġfu ÄĿis
**** ****
ĠCraw ford
n ojn
ig anto
Ġak tivas
ali a
uste co
ĠÃ ī
Ġdispon igas
ĠIS O
Ġtrapas i
Ġcifere ca
! Â»
Ġf r
Ġi lojn
ad an
ĠK amer
Ġso lan
ĠAn ta
Ġmur d
ĠVer duloj
ĠSek retario
ator s
Ġdifer encon
ĠtaÅŃ gan
Ġbring ing
Ġara boj
ĠBav ario
ĠGram Trans
Ġar isto
Ġra ÅŃ
dis to
Ġte ens
ile co
Äīe fe
Ġsp in
Ġverk itaj
Ġkontro lon
201 0
Ġing redi
L igiloj
Ġa ÄĿ
ti le
ti el
Ġg aja
Ġbe ach
ĠD ank
Ġmor tos
ĠUnu iÄĿo
Ġeben aÄµo
k lino
Ġs entojn
us ible
ĠC ry
Ġap pli
rig os
Ġide aloj
Ġye ah
Ġrap ido
Ġsignif oj
Ġmaj us
ĠAs h
Ġna fto
Ġprogram ado
Ġampleks an
ĠVarsov ia
oms paco
ĠNik arag
or gano
ĠK alifornio
ita ble
Ġreg xo
ali go
lin ioj
Ġpres krib
Ġkomp aro
Ġkolek tas
Ġclassic s
ĠRos s
jec ted
u ojn
or ed
ĠE va
Ġmi ri
ek do
ĠF esto
ĠCh urch
ins uloj
Ġliber igis
Ġemo tionally
Ġrigar data
200 9
Ġanon co
fortun ate
ĠSi berio
Ġlingv ou
Ġkro ko
wor th
Ġsolida reco
T ie
f alis
ĠK enn
Ġpli vas
Ġpre ven
Ġsti lon
Ġprof un
Ġbelie ves
Ġmez uro
201 2
Ġmulti ple
Ġdestro yed
s per
is te
ur bon
ĠA ms
ĠB ack
ĠH omo
Ġri Äīe
ĠW ang
Ġgreat er
Ġdom ojn
Ġamas a
Ġsank tulo
Ġcarto ons
Ġgaranti as
faci l
Ġvehic le
E Äī
ek de
Ġle gebla
Ġ19 52
Ġsc rew
Ġgvid ado
h ara
ĠÄī oko
Ġto tala
ĠS upra
ol low
Ġuz os
Ġmor tigas
Ġpla ced
Ġden ask
cis m
ĠanstataÅŃ igi
ĠMor gan
Fran cio
H a
ĠA V
Ġpri ce
ak vo
Ġpre d
rom a
ten eg
Ġsc ra
Ġblan kan
Ġsubstan ce
Ġembarras sing
Ġpati ent
k ismo
ĠT ran
Ġwh enever
mo us
Ġkomun umon
cer t
ĠNov aj
ĠSu do
ĠX XX
ĠHer cegovino
Al so
Ġsatis fying
Ġlecion oj
ĠKonstan tino
U G
ĠI rish
Ġmon daj
Ġbo o
ĠÅ ģ
Ġbelie ved
Ġtr um
Ġrespek ti
ĠPat rino
Ġpu ÅĿ
kompren eble
Ġpain fully
ĠUz bek
Ġstatis tiko
Ġdestin ita
Ġi di
ĠP y
ĠH and
ĠR ab
Ġser ve
Ġbo ato
pl ene
Ġmis io
Ġneces an
Ġflu gas
ĠÐ ²
Ġunders tood
ĠTH IS
Ġde ar
ĠT ed
ĠaÅŃ toj
Ġri pozi
fi re
stra te
ĠÐ Ķ
Ġgri z
Ġenkon du
Ġfron to
Ġsla pstick
ĠKongres on
ĠCap tain
ĠJord anio
Ġ \
aj lo
Ġg ross
Ġmal esper
Ġek is
Ġmor ta
Ġmulte kos
ĠHo pe
Ġpoten coj
Ġvet uras
Ġess entially
Ġepisko poj
en as
Ġm ol
Ġal co
Ġas leep
Ġst um
Ġcreat es
ĠKul tur
Ġjardek o
Ġsang on
ce jo
Ġek parolis
Ġkor oj
Ġview ed
Ġhispan an
Ġalvo kis
Ġcreat ures
wor ld
Ġexecu tion
ĠVaÅĿ ingtono
Ġal um
ov rilaj
ĠT jum
ĠL ady
ita ton
tu b
kon duko
de c
Ġat esto
Ġ19 13
Ġdu one
ĠPar t
Ġmemor u
ĠJes u
Ġkomple ksa
Ġeli min
Ġvesper on
Ġmalsup ra
Ġtraj to
Ġk ana
ĠK ort
ut ra
Ġlo sing
Ġr ules
Ġkiam aniere
Ġperson an
ĠAnd aluz
Ġ6 2
Ġz ero
Ġge omet
Ġevent on
Ġlar gely
Ġnatur on
Ġfli r
ĠLin coln
Ġdepar t
bata lo
Ġdenas ka
Ġh ide
lan a
aÅŃ skul
Ġform iÄĿis
Ġste als
Ġfab riko
ĠJa co
Ġspek ti
Ġmaljun aj
Ġappro priate
Ġsubti tles
h h
m all
ak lo
ac c
Ġqu alities
vita vy
Ġbor der
ĠJu di
Ġsto od
Ġdosier ojn
ĠCo unt
Ġpur su
Ġprofe to
k ana
ar ajn
Ġwh ilst
de o
ven as
ma taj
Ġ19 26
Ġreg adon
ĠIn de
Ġag es
Ġhor ribly
ĠAr Ä¥
Ġmas ak
Ġtransi ro
Ġt ub
Ġs fero
Ġg ento
ĠI tal
Ġ3 000
Ġaldon ita
ĠkontraÅŃ a
Ġrespon dojn
Ġkomenc os
201 1
Ġteor ion
Ġagnos kis
Ġtech nology
ĠÄĿen as
ĠBata lo
Ġplejo fte
M S
la y
in n
Ġde fe
us toj
Ġmal g
ĠO p
ĠRos tov
ĠFe bruaro
Ġnorm ally
T ago
Ġne for
ĠA j
ut ch
Ġsed u
ĠO d
Ġmin uto
pa ÅĿis
Ġprez en
ĠRe al
ph as
Ġkie lo
per fek
Ġsen uti
Ġkres kon
Ġnu de
ĠSim ile
Ġgar di
kapab la
ĠKvin petalo
e y
Ġh arsh
ĠG R
ik istoj
Ġfar ata
01 4
pren antoj
Ġwe ar
Ġcer teco
Ġka co
Ġdelight ful
ĠPoÅĿt kodo
K A
S peci
h ang
m ade
Ġb om
Ġvid ante
tik edoj
Ġfinan ci
ĠZam TV
Ġoks ig
ĠbuÄĿ eto
U D
b ie
p rom
Ġg rin
ĠN one
ĠC u
ĠG vid
ĠW H
Ġcon tribu
Ġsci ante
Ġend less
Ġviv os
Ġlet ter
Ġencoun ter
ĠHai tio
Ġa stro
ig ilo
ĠP enn
ak sa
od en
Ġtri ang
Ġvir on
cent ojn
Ġmod esta
Ġsav ing
Ġapo go
Ġexci tement
Ġdang er
ĠinÄĿen iero
c zy
ĠMi kaelo
Ġnom umita
dis toj
pi es
Ġmo lek
Ġflan ken
Ġsho cked
n ar
Ġp age
Ġs ino
Ġn ub
ĠÅĿ tor
ĠG uj
ĠRe jn
Ġang laj
Ġraj tis
Ġmil da
af ter
ĠPrin cess
b ell
e go
r one
Ë Ĩ
å ı
on do
al to
ĠM ach
Ġeks pon
Ġperson ajn
Ġkla ran
plan e
ĠkaÅĿ ita
Ġpoez ia
Ġsignific ant
Ġk atoj
ĠP ere
Ġel las
ĠC xu
son a
kaj a
rin k
Ġtak sis
Ġsoci ajn
Ġ7 00
ĠMon teneg
Ġbu ff
Ġrakon tojn
Ġrezul te
Ġmet u
Ġfes tiv
Ġdro p
Ġara baj
Ġimperi ismo
ĠBal ta
Ġcover ed
ĠWood y
? ),
li t
Ġper i
de f
ĠJ orge
Ġnen ie
vin ta
Ġsa ti
ĠMon ato
Ġpun o
Ġmil li
ĠKe aton
ĠMad agask
ĠAustra lian
Ġk ran
Ġs ume
li brojn
ĠL igoj
ĠC D
ino us
Ġfo tilo
ĠY our
Ġkla var
Ġekster en
ĠSh a
Ġalvo kas
Ġalf abe
Ġintel lec
Ġhistori istoj
Ġkonsi las
Ġhaz ard
Ġn uboj
Ġen de
ĠT rib
st ink
ĠG Ã¶
Ġpre fik
ĠMi lano
ĠantaÅŃ ju
lin s
ĠMar c
org aÅŃ
Ġlu cky
Ġstrong ly
ĠEm ir
Ġidio t
Ġstul ta
ĠMich el
Ġpod kas
c am
Ġin i
mo ther
bo t
Ġsen mov
Ġlern adon
gran daj
Ġliber igita
op in
Ġfes toj
ĠpaÅĿ ojn
Ġvirtu ally
çļ Ħ
c ence
m ia
Ġ 08
ed e
ĠLa ura
ĠR ik
Ġpermes into
pl ess
Ġrec all
Ġsw ord
Ġagra ble
Ġprakti kaj
mem broj
Ġvenon t
m uloj
Ġp ad
ĠS po
Ġmal le
ak y
da te
ĠF l
Ġ19 01
Ġro las
ec aj
Ġer aron
Ġfundamen taj
Ġalud as
Ġwal ks
S A
U P
p ura
u ter
ar meo
ĠS va
Ġpost ul
Ġposed aÄµo
ĠJose f
V ia
j es
Ġb las
Ġan cient
ĠD y
Ġsur loke
fer a
Ġdir ty
Ġdev igas
Ġru ined
Ġ; )
Ġvesper man
Ġprinci pon
Ġkonati ÄĿi
t l
ÄĿ ado
ĠE ll
ĠK ura
ĠG az
Ġfil inon
up ta
Ġgra co
Ġmar ko
Ġab oni
ben aÄµo
Ġgig anta
ĠindiÄĿen aj
Ġ æ
Ġk lub
en ter
Ġli ge
04 9
Ġform ita
Ġkov rilo
vet uri
ĠNikarag vo
) [
k lojn
ĠN omspaco
Ġtra fi
Ġch oreo
Ġpen son
Ġtab uo
Ġnatur an
Ġeston tecon
200 8
Ġeten d
Ġsurpri zo
Ġrimark inda
Ġvenon tan
Ġprokla mis
Ġsimpa ti
r s
s ession
or f
ĠT od
Ġun fortunate
de la
Ġher be
Ġst ink
Ġsa fe
Ġau to
ĠCar los
Ġpent r
Ġrekom pen
Ġdest ru
Ġfenom enoj
Ġcommit ted
ĠDocumenta tion
th en
Ġver di
Ġspe gu
ĠÅ ½
kom ple
Ġkunlabor as
Ġpsiko logio
Ġeksta ris
Ġamateur ish
Ġm amo
Ġmal re
Ġy a
Ġ19 35
ĠGerman y
ĠIs a
Ġofici roj
ĠUS D
or ko
Ġc ant
im age
und ers
sta cio
tin on
Ġgaz eton
Ġslo vaka
Ġocc up
Ġemin enta
k now
el j
Ġmal vas
ost ojn
lu d
Ġfaci ligi
AN G
Ġtw isted
inter esting
Ġklopo do
Ġcor ny
Ġmalpermes ita
Ġtrapas is
Ġdirect ly
Ġkvie ta
ĠKated ralo
h uman
Å į
Ġt in
Ġf az
Ġin ner
Ġi ce
os ity
Ġvi e
im ili
Ġsub prem
ĠKomun ista
In stru
ĠÄīefe piskopo
Ġlim igoj
Ġkunven on
ĠAra baj
traduk oj
b able
k ad
Ð ±
ĠL y
ĠK op
ĠM embro
et z
ru pt
Ġra mp
Ġter p
Ġeldon on
Ġnaci ismo
vious ly
Ġeli ras
Ġses io
Ġvari ety
pel is
ĠmalÄĿ usta
Peter burgo
d ad
Ġa cid
Ġb ik
Ġbe tra
iÄĿ ita
ĠC ong
ĠMar ga
Ġqu ir
Ġbra koj
Ġafi ÅĿ
B y
Ġw rap
Ġv az
ĠS vitavy
don is
du ced
Ġprin t
Ġrek t
Ġsal utas
ĠFa ir
Ġkontak tojn
ĠHav ing
Ġsupoz iganta
Ġoperaci umo
Ġgratu itous
Ġdeg ree
ĠWiki Trans
ĠMonteneg ro
Ġa eron
Ġg eno
Ġg amo
br un
Ġinter no
Ġch osen
ĠMor ris
Ġcxiuj n
Ġvent ro
Ġisra ela
Ġdisgust ing
k up
id ado
Ġfor vi
ĠÅĿ ok
ĠC op
ĠF AR
ĠR un
va tion
Ġsh ut
Ġlig na
din toj
Ġsor ton
Ġprote kta
Ġforlas as
Ġseg ment
ĠHum phrey
l n
Ġre ton
os aÅŃ
ĠL ando
Ġsci oj
Ġpartopren antojn
ĠAntaÅŃ e
Ġsuf ok
Ġprezento s
Cer te
Mich ael
G vineo
Ġk ni
ĠÄī uro
ĠE L
ĠB ald
ĠG va
Ġnom atan
ĠTh ank
rig itaj
Ġind ign
Ġprepar as
ĠHung ar
Ġron doj
Ġenspe zoj
Ġscream ing
h x
âĢ ĺ
ĠP ens
ĠD as
du ro
Ġak um
gan do
Ġsoci e
Ġsitu o
igita l
Ġevolu as
ĠIm per
Ġaver aÄĿa
Ġpek oj
Ġalb um
ĠmaÅĿ inoj
Ġprac tically
Ġeksped icio
h aÅŃ
u po
Ġes te
Ġen iro
id eo
ĠA u
ĠA tt
ĠB lue
Ġfor s
ct ly
Ġpubli kon
Ġproviz ore
ĠNich olas
c lo
lan tojn
Ġno bel
ion on
Ġr ut
Ġpres ents
Ġteor ioj
Ġmaterial ojn
ĠMals upra
Ġt rono
en is
bo lo
Ġad vis
Ġsol voj
ĠBri tain
Ġvalor ojn
ĠBu tano
Ġlearn s
Ġveter an
ĠPan amo
Ġspend s
konduk is
Ġhund red
Ġblon de
R en
ĠB un
ĠU p
ĠMar ch
Ġsuper is
fon oj
flu gis
Ġet naj
Ġspo il
ham ed
Ġmenso go
irka ux
U EA
d al
e Äī
Ġ á
re volu
Ġb ek
te ko
Ġo voj
Ġki lo
ĠS ile
ĠK in
av es
ran oj
ac tions
Ġsta rigita
zi an
Ġven dejoj
Ġspe aks
Ġag adojn
Ġmili taj
Ġbri lis
Ġlas te
Ġbata lon
Ġriver on
Ġfes tival
Ġaktiv ado
Ġaten tigas
ÅĻ ÃŃ
ĠinaÅŃg uro
Ġrefresh ing
O kaz
Ġ Ñģ
Ġt ribu
al b
Ġv a
at uo
ÅĿ tono
ĠP G
ĠF OR
Ġhe y
ĠRe ven
Ġpoli tics
Ġperio doj
gg y
skul tu
ĠaÅŃskul tas
kun s
ĠOrganiz aÄµo
Ġrequ ired
g ic
Ã Ħ
Ġp ug
re o
ÅŃ ten
ÅĿ in
ĠN el
ac a
Ġhom ajn
par i
IN A
ĠWar ner
i tula
j aj
ĠS n
Ġci ti
Ġliber igo
amo us
Ġexperi ences
Ġpreleg on
Ġride tis
ĠGi orgio
Ġcontro vers
ĠSara h
ĠSri lanko
1 12
Î »
Ġf its
Ġi pernity
il u
Ġsek undoj
Ġplen igi
Ġkompren on
Ġrila ta
t ling
om aj
Ġin verse
ĠE vil
ÅĿ ance
par on
ĠÄīef ajn
Ġsuper i
Ġdek omence
Ġstru cture
Ġreprez enta
Ġmalri Äīeco
Ġaktu alaj
ĠJack ie
Ġproj ec
Ġtap i
S O
i ties
ĠP ay
ĠH erman
da ÅŃro
00 89
Ġmar nivelo
Ġka ÅĿis
Ġvoj ojn
Ġkur as
Ġses dek
ism ajn
Ġlat est
Ġkonsci enco
Ġom aÄĿe
Ġdiss ol
Ġukra ina
ĠNapole on
Ġpatrin on
u lan
Ġc un
ĠH ugh
ĠF al
ĠF os
Ġat entu
Ġda tiÄĿas
Ġr ul
Ġbon on
ast ru
ĠÅĿta lo
Ġinten sa
ĠJes us
Ġaspek t
Ġmir ror
ĠAleks ander
Ġconvin ced
Ġperform ed
Ġtheat rical
ĠLang u
[ âĢ¦]
k alk
ar anoj
Ġhom ose
Ġex ag
Ġ18 90
Ġpres ita
Ġraj d
Ġgas o
Ġdistingi voj
Ġfrank ly
J ap
g l
Ġp ity
ri ce
Äµ en
ku ri
Ġmake up
ĠSu fi
cal y
Ġcut ting
ĠCla y
Ġkomerc istoj
ĠMadagask aro
Ġ 09
la Äµojn
ĠN om
Ġlo usy
ma le
tem alo
por tis
Ġspe gulo
ĠCh am
ue z
Ġkar av
fic ation
201 3
Ġisla manoj
Ġfoot ball
Ġslovak oj
t ti
Ġa ks
Ġde m
Ġf ata
ĠP io
ble d
Ġno toj
Ġri ve
Ġra m
Ġfin ance
tig ata
Ġspeci f
fon d
Ġdor mis
Ġsus pi
Ġprepar ita
200 7
Ġsom er
Ġgrande gaj
Ġcivili zo
l ent
Ġb atis
Ġen korp
ver ko
ĠD ue
Ġhav igis
ag al
Ġreg ularo
rin toj
Ġekkon is
ĠEst us
S R
es h
ĠK urt
um iloj
Ġter a
Ġkap tas
Ġapar tajn
Ġpac ed
foj a
Ġpol vo
ĠCan adian
Ġstate ment
fam ilio
ĠSy l
Sc ript
f riko
Ï Ħ
Ġla goj
Ġde di
le ts
Ġin iti
at us
ĠG olfo
ag h
ĠO ver
Ġex er
ga te
Ġspeci ojn
ps es
Ġrela tively
Ġinflu i
ĠSek ureco
Ġcost s
ĠKazaÄ¥ io
ĠKenn edy
% .
ta ry
Ġo pozi
lo kon
ins ek
wh el
cer te
ĠMal granda
Ġbalo tado
Ġavanta ÄĿojn
ĠKongres a
Ġares tita
Ġhaun ting
Ġabandon ed
ĠVizi to
C A
T om
k ano
ĠS H
ig xo
kon kurso
kon traÅŃ
tor ioj
Ġam at
ĠTh ree
Ġsek von
cep to
Ġpatr ujo
Ġteam oj
Ġfeature d
kva lita
Ġclaim s
k at
Ġ ze
Ġpri ju
Ġas ek
gh i
use um
Ġrev iewer
Ġnig ran
Ġtim u
Ġeventu ala
i rado
Ġt ack
Ġp eton
Ġc ring
Ġon do
ĠP in
pren u
ĠEn landa
pre ciated
Ġgvid ata
Ġpren ita
Ġdeath s
ĠpaÅĿ on
IM E
Ġfals a
ĠHels in
P ierre
T ag
p Ã©
Ġt ong
Ġc lue
ĠB urn
tu ri
ma tic
ph one
Ġmala pro
Ġoff ensive
Ġru le
Ġsignif ojn
Ġkontro lis
Ġca uses
Ġportra ying
Ġinvi to
Ġadres oj
Ġkalku las
Ġmembr aro
Ġcita Äµo
Ġrit mo
Ġvidinda Äµoj
b ula
Ġun for
Ġsta yed
Ġperio daÄµoj
Ġrefer ence
Ġsom ere
ĠBroad way
ĠCoo per
ĠParag vajo
" ...
2 000
ri co
ro ll
ĠH od
Ġesplor istoj
ĠIsra elon
wri tten
ĠFried rich
Ġenth us
Ġa in
ĠÄī inoj
Ġkon jek
Ġpre pared
Ġvid vino
04 3
Ġju ÄĿo
ĠDo es
Ġkapab lojn
tak ing
Ġseks umi
Ġvali da
Ġreale co
Ġmalven ko
Ġfles h
Ġi z
Ġpo ign
ĠlaÅŃ dire
ĠÅĿi pon
Ġpl end
Ġmo tivo
ĠPor talo
Li ke
Ġrefer enco
Ġdri ver
Ġapro bita
Ġeg alaj
Ġprofi ti
Ġdepic ted
Ġkategori igi
T ri
v ik
Ġt ris
Ġd entojn
ar de
ĠK are
tion ed
enta ro
tig aj
ĠJo Mo
Ġproviz ora
Ġspor ts
Ġsuffer s
Ġcen z
bir doj
Gran da
ĠAfri ca
Ġaccom pan
lyn n
ĠN an
ie la
Ġhim no
Ġgrand ska
Ġspeci men
Ġparo lante
Ġkompren os
Ġce tero
ĠÅĿta tan
titu tion
bur y
Ġentertain ed
Ġpal pe
Ġeksplo do
Ġrub riko
Ġvikti mo
Ġsymp athy
Ġkorte go
d emokra
s at
is cher
Ġp uzz
Ġo pozicio
Ġre minis
ajn a
ĠG l
Ġam ason
ber ia
Ġag ad
Ġinform iÄĿi
Ġdri ven
Ġvolon t
Ġbalo to
ĠBrun o
tina to
Ġne ck
Ġdi ino
ow ski
Ġch ap
no to
zon a
Ġhor on
Ġmala vanta
Ġtradi tional
Ġtraf ik
Ġteat raÄµo
1 17
c ase
id an
di kap
Ġak ces
Ġfin as
enc ajn
ĠUn der
ĠBe fore
Ġreali zes
ĠtaÅŃ gaj
Ġsov aÄĿa
Ġsca le
Ġb eko
Ġe ight
ci enco
Ġli bero
tan aj
ĠO ur
gan g
Ġaldon an
Ġhal tigi
Ġsid iÄĿis
Ġkris tnas
Ġobser vas
Ġtermin on
Ġord eno
ĠAdam s
ĠCX ar
z ek
× ķ
Ġi aj
Ġal kutim
com ing
Ġpe c
Ġankor a
ick ed
Ġbaz e
Ġler ta
Ġevid ent
ĠUr b
Ġmalhel pis
ĠKos ta
ĠmesaÄĿ oj
Ġgel ern
k istoj
n acia
Ġn ational
Ġc ore
ko lekto
ge co
pro pri
Ġcir klo
Ġkli entojn
Ġtelevid a
ĠPi tt
Ġpromen i
dem and
ĠJem eno
. =
c ka
Ġ ....
ta goj
ro us
Ġampleks o
produk tado
Ġgrama tikaj
Ġparla menta
Ġregis tra
preci pe
Ġrepe ti
ĠOli ver
Ġmallar ÄĿa
Ġse ction
Ġmod elon
ĠÃ ¸
Ġhand led
Ġesplor as
Ġversion s
Ġbul teno
Ġornam ita
Ġsinsek vaj
Ġhang ing
Ġbabila do
E ÅŃro
m aro
le joj
Ġes eo
Ġi g
us taj
ĠL ater
Ġmal es
iÄĿ ado
Ġpa fi
Ġab unde
Ġevery where
Ġer are
Ġprom ising
Ġem fa
Ġori entaj
ĠmanÄĿ aÄµon
Ġrapid an
Ġsab ate
Amer iko
Ġpull s
Ins tituto
ĠMold avio
K lubo
b ic
ce ive
ĠN Y
Ġno cioj
Ġcom peti
pro fita
Ġsk y
Ġiom a
Ġgu ilty
Ġprezid anton
ĠMe xico
Ġpren os
Ġfeli Äīon
% ,
S ch
g xo
r use
Ġde vice
ti ll
to le
Ġno tis
Ġfil ojn
Ġor den
gi an
Ġak voj
Ġfon tojn
Ġkol omb
Ġcost ume
ĠTrans ilvanio
Ġnukle aj
ĠFon daÄµo
V in
V enon
Ġla id
ĠL ion
Ġj uris
ĠM om
Ġpro vu
Ġit in
ĠU gando
ĠRe publi
Ġab use
Ġpra ise
Ġlu don
Ġflu ti
Ġimp reso
Ġokup iÄĿi
ĠMan if
Ġkro ata
p ut
es taj
ĠT ere
ĠM AS
ag i
Ġher bo
ink luzive
10 7
ĠPar ker
Ġredak tis
Ġkonser vado
ĠvoÄī dono
ON E
forma tion
ĠMosk va
Ġacc ording
ĀĀĀĀĀĀĀĀĀĀĀĀĀĀĀĀ ĀĀĀĀĀĀĀĀĀĀĀĀĀĀĀĀ
ĠBandar Q
p df
Ġli p
im ed
ĠB ala
Ġek lo
Ġkom enti
va taj
ĠlaÅŃ d
Ġsim et
Ġfun do
Ġmo do
Ġpol ojn
amb iko
avi ad
O D
V o
ka o
ke e
Ġor anÄĿ
pl end
ĠJu vent
Ġordon on
ĠSal vadoro
ĠPla co
Ġpraktik as
bir do
Ġbes ides
Ġoce ano
i en
k li
Ġa ka
an ino
ĠK ara
th an
ĠM alantaÅŃ
ĠTh rough
Ġrenkon to
ĠÐ ½
ĠIntern acian
ĠvojaÄĿ as
Ġir re
Ġrekon i
Ġvok as
ĠTre k
Ġeksperim ento
Ġefik as
ĠPu erto
ĠGron lando
ĠGva temalo
D ek
li day
Ġin stink
Ġkon tes
tin taj
Ġinstru istino
Ġkam pon
kov rilaj
ĠCent r
ĠTH AT
Ġfid el
Ġforget table
Ġagri kultur
ĠBona ero
Ġcontem porary
Ġpafmor tigis
R es
es io
Ġm ud
Ġkun vi
kon tra
Ġkom encon
âĢĿ )
Ġsuper natural
ĠVik imedia
Ġset tle
Ġescep toj
Ro bert
ĠaranÄĿ ita
Ġelmon tri
ĠKru co
Ġvun di
Ġkomunum aro
Ġrout ine
Ġf iki
ci Ã³n
Ġkre deble
ĠJam ajko
Ġarm ilojn
Ġski p
ĠPow er
ĠClar k
Ġtrar ig
Ġburo kra
b os
Ġg ek
ĠL KK
ĠA K
ĠA po
ka la
Ġpre dik
Ġmem bre
Ġliber al
Ġ13 0
Ġbra ve
Ġserio zaj
Ġfron te
o kaz
ĠI R
ĠE EU
Ġbe leg
ĠLa u
ĠC IA
tra di
Ġdor mas
ĠRi vero
bus ter
wor thy
ĠaÄī et
ĠPow ell
ĠESP ERANTO
ĠJew ish
l istoj
Û Į
Ġen u
ĠS et
ĠE ach
ĠK va
ĠK astelo
ran g
ĠAn golo
Ġven dejo
Ġlin ion
Ġplan lingvo
pla ce
Ġtur men
Ġkapab laj
Ġclo ser
Ġtouch es
Ġprevious ly
ĠDen ove
Ġflash back
i pernity
v ine
Ġen keto
br ajn
Ġmal lev
Ġpo t
Ġpo le
Ġso pir
Ġtro tu
ĠIn dekso
pro fes
Ġtend encoj
Ġparola doj
ĠKambo ÄĿo
C la
d led
Ġs port
Ġb ore
Ġti r
ĠM Ã¼
Ġvi vaj
Ġkons ent
Ġsc eno
par ta
Ġpas sing
Ġvok alo
dim ens
Q u
R i
Ë Ī
Ġde eper
ĠA men
ĠA bs
ĠK id
ĠM ank
Ġmor tigita
vid e
Ġmulte ge
ĠHo lo
Ġbor doj
ĠSta tu
Ġagnos kita
ĠMed ic
n una
Ġs no
es cepte
ur ban
Ġsu fic
Ġse ÄĿo
Ġch op
tr us
Ġqu ar
Äīe f
pos to
Ġci tas
Ġmur m
hel m
Ġdosier on
Ġstri p
Ġapo gas
Ġagnos ki
ĠEm peror
Ġtrak tis
ĠSc ar
Ġveturi lo
Ġvaria Äµoj
Ġkonkre taj
Ġâĸ º
S em
g ula
v igo
Ġan eks
Ġre taj
Ġek v
Ġser ves
ĠÅ ¬
Ġprof undo
Ġcx irkaux
ps is
ĠAm iko
Ġmuzik isto
Ġdetru o
ĠÄīes igi
Ġfid inda
Ġdezir oj
Ġnekon ataj
ches ter
ĠSah aro
Ġre alaj
ĠA si
ĠP ip
Ġpri me
ĠH AL
Ġpre ach
Ġam ori
âĢĿ ).
ĠÄīiu okaze
Ġcent roj
ĠMon te
Ġdef endis
Ġsto len
ĠTra di
Ġconvin ce
met u
Ġkorespon d
ĠT ake
ĠC lass
Ġtri ono
all eng
Ġplan ojn
Ġ7 2
Ġsp ion
ĠBe lar
fra to
ðŁĺ¨ðŁĺ¨ ðŁĺ¨ðŁĺ¨
ĠInd ust
Ġgala ks
W atch
j en
Ġ19 51
Ġlan go
Ġwor ry
Ġchar ge
Ġelek tos
Ġef ikoj
Ġscen oj
Ġkan tono
Ð¾ ÑĢ
ĠKri meo
ĠmalriÄī uloj
Ġdiskrimin acio
Ġweap ons
Ġuncon vin
Ġen li
Ġali ris
ĠW eb
ĠAn a
Ġeks hibicio
Ġaldon ante
ĠloÄĿ i
Ġsal utis
Ġdisting o
Ġpron omo
Ġcry ing
ĠMus ic
Ġmalkon ten
Ġrecogni ze
inc luding
Ġg ol
Ġmov i
Ġmov iÄĿas
Ġres ul
ĠSe j
Ġang les
ĠUnu iÄĿinta
ĠVen u
ĠFri day
Ġin hab
at ribu
Ġra ci
Ġres pe
Ġpl endis
Ġko ali
ĠRus lando
ĠUnivers al
Ġsal t
Ġposed antoj
ĠBro oks
Ġtor n
Ġproce ed
Ġakompan as
Ġinterna tional
Ġheav ily
Ġhospita lo
Ġastron omo
ĠLen in
K S
Ġk vi
Ġp ip
Ġc ens
ĠA so
âĢ ĭ
ĠG usta
ĠW el
Ġdu bbed
ll er
ĠCh ild
Ġsa f
Ġtiam aj
ĠÄµ azo
vor tojn
Ġevent ojn
Ġevolu igi
Ġdan ki
Ġopen ed
Ġvok aloj
ĠBah Ã¡
Ġrepu tation
ĠMoz ambiko
ĠNam ibio
Ġdy nam
Ġp eno
Ġs el
ra dio
Ġc icoj
ik ado
ome o
Ġtu taj
ĠÄīirkaÅŃ e
Ġja il
Ġlig ojn
Ġche er
Ġhej mon
oo oo
Ġadap tita
ãģ ®
Ki om
Ġfian Äī
ĠTun izio
Ġstom ach
ĠSene galo
I r
P A
en so
Ġon klo
Ġse le
Ġfin aÄµo
Ġlong daÅŃ
Ġide al
Ġsigni fi
Ġmuz ikaj
gu es
Ġbelie f
Ġmallong igo
Ġinte gra
Ġmid zi
Af rika
Ġrepor ter
1 15
M AN
Ġ ^
in ajn
Ġp ile
Ġde fici
ĠM az
ĠP ie
ĠB lu
tu d
ĠR ib
uz oj
Ġno kta
Ġsin ago
igh o
Ġprin ce
ĠVik i
Ġem phas
Ġiam aj
Ġsinjor oj
Ġmiks aÄµo
Ġsuspense ful
ĠfraÅŃ l
Ġstereoty pical
ĠSinjor ino
fare jo
P ala
Ġs tern
Ġv ap
Ġg ain
Ġre tar
ĠN as
ĠC ri
Ġhe ck
va Äµojn
vi zi
Ġkons tern
igh ty
Ġprof ound
Ġkul tiv
Ġespri mojn
Ġves tita
Ġworth while
proksim e
ĠkaÅŃz ita
Ġdiman Äīe
Ġ02 4
ĠIst vÃ¡n
ĠDeklara cio
. --
is tra
Ġb in
ek onom
Ġme talo
so ciated
pa ce
Ġdon itaj
ki es
ĠkontraÅŃ bata
Ġho di
Ġkul pas
Ġmis tera
Ġci co
Ġnaci ajn
cern e
Ġpoten caj
val or
ĠPre ÄĿejo
ĠÐ ¡
ĠDan ke
Ġkov r
Ġarb it
ĠRu ando
Ġoffer ed
Nen iu
ĠSatur day
B one
O ri
ĠM P
po zio
ĠC is
ĠR ain
Ġsh out
Ġmemor on
Ġappe aling
Ġfid on
Ġarkite k
h as
or gan
Ġsu ck
ĠN er
Ġdi ver
Ġdu bo
be it
Ġprofes io
ĠTe atro
Ġpu goj
ĠNen io
Ġremo tely
p ia
en ess
Ġin tim
ĠE dukado
ĠK olon
ol k
ĠB ell
Ġpri zono
ĠN ar
et r
ĠLa z
ĠF ur
Ġmov ad
Ġtrans fer
Ġsti r
Ġkri moj
Ġhon ore
Ġpers a
Ġaso cion
ĠKar en
Ġmer ka
Ġtru ck
ĠAc tually
ĠBab y
Ġfrequ ently
ĠKamer uno
ag xo
ĠÅĿi ajn
and in
Ġje alo
pis ko
ĠÄµ az
Ġrom pis
Ġsil entis
Ġekzempl ojn
Ġparola don
Ġavanta ÄĿo
Ġkondamn ita
ĠJuvent us
x im
in ton
le do
lo si
ĠE di
ol ute
ĠH ave
ĠV I
ven aj
qu is
ĠZ omb
Ġsubten antoj
Ġvio lon
Ġbab ili
Ġjo in
Ġampleks as
ĠMem broj
ĠMem briÄĿi
Ġpreten d
ĠKort umo
ĠKosta riko
Ġs ne
ĠS uz
ĠS qu
Ġel fos
Ġun e
Ġek funkci
Ġali ÄĿo
Ġdo gs
ĠO tto
Ġ19 15
ris mo
Ġfar oj
Ġsim pli
Ġinf r
Ġplu v
Ġjun eco
Ġer ror
Ġkonsider ante
Ã¤ r
Ġkonklu di
Ġreve al
Ġera o
ÅĿip oj
z one
la mo
Äī ilo
ĠI re
ĠB ible
Ġinter ple
Ġch ose
Ġtu ber
ĠÂ ĵ
ne co
Ġkap tita
Ġparo lanto
04 2
Ġleg os
Ġpun ch
Ġtab l
ĠMos cow
poli tiko
Ġbother ed
ĠLeon ard
ĠTrin idado
.= --
Ġ oj
ĠF S
Ġlo yal
Ġri Äīeco
man uel
ĠO ficiala
vi co
fe to
pa ir
vid i
Ġvin ber
ĠHe in
Ġblog oj
ava Script
ĠHon duro
OIL ER
Ġglute oj
ĠUzbek io
ĠEmir landoj
H ere
K an
N a
Ġm ut
Ġm uta
ti ki
Ġal kla
ĠT ab
ig xi
Ġsek aj
ĠMar sh
Ġren ask
Ġflu gi
ĠÃ ¢
Ġofici ro
Ġjubile o
Ġemfaz as
ĠÄīies ulino
Ġsensi tive
Ġfrighten ing
_ ,
g ono
ĠL inda
ĠC ag
ĠR id
Ġtra pped
Ġnov elo
no logio
Ġven igis
ling von
ĠCh annel
Ġ' '
Ġpi Äīo
Ġsper taj
Ġmond mapo
Ġanon cas
Ġrevolu ci
Ġvali di
Ġforma la
Ġful mo
Ġatenti gi
Ġcik lo
Ġmalsanule jo
Ġextraordin ary
Ġw o
Ġo pon
Ġc it
ĠS ky
vo lo
ĠW ol
Ġar tiko
Ġop timis
Ġfak toro
fin itely
Ġesplor isto
inde x
Ġdezir us
Ġtraf as
Ġdesc ription
ĠclichÃ© d
Ġgaranti i
Ġglute o
ĠTesta mento
ĠGand hi
R ed
ter y
ĠS ES
ĠI ru
ĠT ian
il ind
Ġover look
ĠFran caj
ĠRo berto
vor ton
Ġrespek tivaj
Ġarme oj
Ġobjek ton
Ġsurvi vor
Ġero tic
ĠSove tio
Pa ul
Ġini tial
c aya
Ġde ks
Ġf ic
am as
ĠL ie
ĠA bout
ĠK ER
ĠLa oso
Ġflu gis
Ġform ulo
Ġekstre m
Ġsinsek vo
Ġaccid entally
ĠProjek ta
V V
i jo
u tan
is ko
ĠK ron
Ġbe bo
... ).
pro pon
Ġspeci fita
Ġgu ard
ĠloÄĿ loko
Ġscen ario
Ġbre aking
Ġkolon io
Ġneo log
ĠKas tilio
Ġcha ir
Ġ um
Ġd ar
Ġw is
ĠÄīi elon
ĠW ild
ĠMi y
Ġokaz onta
Ġredak t
gg er
Ġteritor iojn
Ġhero oj
ĠPl en
ĠAL L
ĠJako bo
Ġlegend ary
Ġde kor
ti tajn
Ġe vo
ul tan
ita no
ĠP ot
ĠD anc
ĠR alph
ĠG DR
Ġunu oj
Ġpa ÅĿis
roj ect
ĠCh ic
ĠFran ces
Ġer ojn
Ġtab ern
ãĥ ¼
ĠAp parently
Ġfocus es
Ġkolor on
ĠÄīeÄ¥ aj
Ġinsek toj
ĠTop ic
Ġgoof y
C an
D io
K vin
p ik
Ġi lustra
ĠN ATO
ĠF lynn
Ġcharacter iz
Ġkap itula
tre o
ĠBo c
Ġbit ter
Ġcir k
lik ely
Ġelsta ras
Ġkonven as
Ġvizitan tojn
Ġero tismo
F ar
ur g
ĠÄī eno
id ed
ĠF le
ma tiko
Ġins pek
Ġmat Äīo
ĠPor tala
Ġ15 00
Ġvalor aj
Ġokul vit
Ġdrin king
p py
en de
Ġm ere
el low
Ġre ver
Ġre ten
Ġsu den
Ġek lernis
ĠG ib
Ġsub sequ
pa ti
ill on
ang alo
Ġinstru adon
ĠOr deno
Ġvis ually
Ġaser ti
Ġkal um
Ġpaci entoj
Ġentuzias mo
Ġkonvers aci
Ġarri ves
Ġkok ri
Ġtrajn oj
ĠLar ry
k tita
ir aj
ita taj
ĠP ren
Ġpro gno
Ġren es
labor is
ĠAd ministra
ĠBen ed
Ġmurder er
Ã¡n dez
Ġvig le
ĠRed ak
Ġliteratur aj
Ġepo koj
Ġkavali r
Ġmuze on
Ġcategor y
! ,
S ankta
h oro
en ado
re te
Ġe tajn
Ġin tri
ul in
ĠI vo
ĠE van
Ġkon ate
Ġmal esti
ĠW y
Ġ19 16
ab on
Ġekz ili
ĠRe ally
Ġhon este
Ġkonsider u
Ġroman on
Ġpan jo
ĠsufiÄī an
ĠMaj stro
Ġmalsukces is
ĠKir gi
Ġcompli cated
indust rio
Ġgef iloj
ĠInvers igu
Ġa le
Ġe co
ul inon
ĠK lo
ĠP C
Ġsh angh
Ġmat ure
raj toj
ĠÃ Ħ
ĠÄĪe fe
Ġregista ra
Ġama z
Ġforges as
Ġmid zo
ĠSci encoj
ĠMeks ika
Ġlingvis to
Ġadvo kato
Ġp ack
ĠH ud
Ġpi Äīoj
Ġnu daÄµo
IN O
Ġgro tes
Ġrespek tas
inter faco
Ġfes tis
Ġarg ent
Ġinterv iews
ĠRa fa
Ġmalrap ida
ĠOkaz is
ĠPov as
ĠItal ujo
t ut
Ġen coura
Ġin ept
us tan
ĠL od
ĠM are
um ento
pe te
ren ia
Ġam i
Ġmar kita
Ġekster lando
Ġbri le
Ġuti lajn
ĠLu cy
Ġses deknaÅŃi
Ġspo ilers
Ġapo gi
Ġripo zo
Äľis da
J a
u kso
Ġki ajn
Ġre ÄĿon
ĠM alio
Ġno to
ow er
Ġex tent
ĠMar ian
Ġkan on
Ġhon esta
Ġbal da
Ġgri tty
vet uris
Ġevi tas
Ġchang ing
Ġkalk ulis
Ġplimul ton
Ġmame go
Ġmame goj
Ġlang umi
. âĢĶ
j ak
t est
Ġn ine
at rino
ĠH us
Ġtag man
Ġ18 0
Ġvar iaj
Ġimag as
Ġsor ts
Ġteor ia
Ġforgo t
m ine
ĠS tor
Ġte xt
Ġinf o
ĠAr to
Ġdev igita
Ġbata las
Ġhigh light
ĠSte pan
ĠSen depen
ĠVers io
ĠB io
Ġpre le
Ġfilm eto
ado ws
Ġman kon
Ġkons ilio
az y
ach o
ĠdaÅŃ ros
Ġcent re
ĠAk vo
lov skij
Ð° Ð½
Ġmalpermes as
ĠStu d
Ġagra blan
Ġliver i
Ġfigure d
ÄĿ antaj
ch ange
and el
Ġeldon oj
ĠJes uon
ÅĤ o
Ġcal ling
Ġhi red
Ġlingvis toj
Ġaccent s
L ER
h ere
h ora
ti pa
Ġc up
Ġun ikan
Ġno bla
Ġsen esper
ĠO c
Ġbut onon
Ġfar iÄĿu
Ġkrom an
Ġku irejo
ĠSte fano
Ġmain stream
ĠBon an
Ġmid zumo
d rop
li ghts
ĠS tras
di ÄĿi
ĠH i
Ġhav aÄµo
Ġpre tigi
ĠW he
ĠW ater
Ġekster landa
ĠBe le
Ġform at
far i
ĠserÄī ante
Ġrapor tojn
ĠFo iro
Ġdeven aÄµon
ĠKu vaj
D ie
j ord
Ġt iny
in amo
Ġg ut
uz a
ab el
ĠMar t
Ġkur b
Ġnu bo
Ġpen as
Ġdol Äīa
Ġkarakteriz as
eso to
ĠHom aj
jam in
Ġatro cious
I m
Ġc ata
per caya
aci Ã³n
Ġak c
igh i
Ġte eth
ĠVi la
Ġco us
Ġcri tical
ĠaÅŃskul tu
Ġcap tures
Ġrimed on
Ġcor por
ĠSan ti
ĠPoli tiko
Ġoffic ers
Ġoccasion al
ĠPaci fiko
T eks
W ho
k il
Ġm um
Ġre in
Ġne pra
Ġkun vo
ĠÅĿ pru
ĠH ag
da Äµojn
Ġmon aton
Ġser ved
Ġvir us
ĠAr my
Ġsurpris es
ĠBu dap
Ġata ki
Ġkod ojn
apar te
H A
as y
Ġkom enta
ĠaÅŃ diÄĿis
Ġsi ze
ge o
par ton
ĠAl menaÅŃ
Ġhor ses
Ġmat erio
ĠFran z
pos te
12 7
Ġsem oj
bur gio
201 7
ĠSuper a
Ġafab la
opin ie
ĠM etro
ĠÅĿ ance
Ġpartopren anto
Ġbezon ataj
Ġama zed
Ġpent ra
Ġtrin kis
Ġcho ices
Ġkritik is
Ġclos ing
Ġremo te
B A
v oro
Ġ ),
Ġ ***
in strum
ĠS ong
00 68
Ġgo o
Ġho le
titu do
ĠSh ar
Ġtek st
ĠCar lo
Ġreprez entis
ĠMa uri
Ġteor ie
ĠvoÄīdon i
Ġexpla ins
Ġmira klo
Ġligh ts
Ġfunni er
Sin joro
k tan
tu ko
Ġpo lem
ĠEs pecially
ĠCh a
Ġfra ton
Ġjun k
03 4
org es
ner y
ĠSta te
Ġkunlabor e
Ġscienc an
Ġvas taj
ĠSud ameriko
Ġplez ur
Ġminac as
Ġsendepende con
ãĢ Ĥ
Ġc ell
ci taj
ĠA D
ent uloj
ĠÄĿ erman
ĠN ig
01 3
Ġating ita
Ġkolek tiva
Ġkind s
Ġknab on
Ġmeto dojn
hor ror
Ġfilozofi aj
ĠGuj ano
Ġ zonoj
ti ge
Ġen ten
Ġc enti
Ġre li
ĠN aturo
ĠÄīi ela
Ġor bi
ĠO ber
ling v
ue la
eb lajn
Ġfla m
08 9
fon to
Ġuti ligas
Ġbur ÄĿa
Ġbonven a
Ġrekla mo
ĠFra kcioj
ĠFak oj
Ġgratu las
ĠSau da
Ġs umon
ti co
ĠS uch
id el
de ta
Ġpli gran
pa ign
lin es
19 45
prez ento
Ġmas sive
ĠvoÄīdon is
Ġinves tig
Ġatta cked
ĠFeli Äīe
Ġbrun a
ĠVoj aÄĿo
g ren
l umo
Ġs aÅŃ
or ia
Ġre vis
Ġne videbla
ĠL F
Ġmal k
ĠG ubernio
Ġtra ining
Ġac cus
Ġokaz u
Ġro ta
Ġwe althy
Ġpens u
ĠÄµurn aloj
Ġpay ing
Ġsit com
Ġlerno libroj
Ġintelek ta
Voj aÄĿo
Äµen kov
is ting
ta kso
Ġb um
te ca
ĠT ul
Ġkon tent
Ġmi tologio
va la
Ġsub skribo
por o
Ġesti ÄĿas
ot es
ĠKon ci
era ted
Ġbri toj
Ġkomb ino
ĠSem ajno
ĠLis a
Ekz emple
ĠPap uo
Ġes tanta
lo vaka
Ġne esperan
ĠM I
di tions
ĠB ial
et ta
Ġali igas
ni ce
Ġtie a
ĠÅ »
Ġmalf av
ĠSo cial
Ġlu dic
Ġnatur ally
ĠÄĿoj is
Ġkvadra taj
è¡ĢèĺĩæľĪè¡ĢèĺĩæľĪ è¡ĢèĺĩæľĪè¡ĢèĺĩæľĪ
ĠArn old
Ġguberni estro
Ġw ander
ĠS ie
Ġne vid
ĠM AN
Ġ1 10
ĠÅĿ aÅŃ
00 97
Ġsen kons
Ġnom inated
Ġdon ante
ĠÄīef ro
Ġelek tr
raj ta
Ġ7 7
Ġvers oj
ĠEÅŃro paj
wh en
ĠMe anwhile
ĠFin ally
Ġdispon o
Ġaktiv ulo
Ġapro bo
ĠfraÅŃ lino
Ġnego co
ĠZam bio
Ġgita ro
B al
K ri
h ung
j ap
Ġp int
Ġde ce
Ġf aro
el ing
Ġkon ton
Ġmal pro
por n
Ġpost tagme
log ue
Ġang er
Ġco ach
Ġvar marko
Ġpra va
Ġdec ades
Ġbla zono
su per
Ġdeli very
Ġgre kaj
Ġlok ajn
Ġminim um
Ġreag oj
cons cious
Ġalkoho lo
distri kto
ĠÅľanh ajo
m ac
Ġg los
Ġre aper
um ed
Ġdeta la
Ġtag me
Ġob nox
fo li
Ġuni verse
ĠEl don
Ġreali gis
Ġenjoy ing
Ġposed o
Ġsw im
Ġpain ting
Ġkonsid ero
Ġimpos toj
Ġvidpun ktoj
ĠPed ro
ĠVER Y
/ .
f iks
h ov
Ġth ick
Ġg ather
ran t
ĠJ in
Ġra w
Ġpos sess
Ġup set
Ġcer tigas
Ġob sessed
vor ta
Ġcour t
ĠHol m
Ġestr aron
Ġdifin is
ĠFer din
sci enca
Ġquir ky
la d
ti ÄĿos
Ġre pag
ĠP iron
ĠB ild
Ġsu pozi
ĠF ed
Ġmar velo
kor do
EA D
ĠKon stru
Ġfran ch
Ġkunlabor ado
Ġlim igi
ĠBon venon
Ġkomputi lon
Ñģ Ðº
Ġdetermin ed
ĠKristnas ko
Ġsymb ol
l ero
s igni
Ġs ali
Ġsh eriff
http s
Ġsim pt
mi la
Ġpe zaj
fin an
Ġrom pi
Ġbu ÅĿon
Ġklas ikaj
Ġscreen ing
ĠLu cas
Ġstru ck
Ġcri ed
Ġcontinu ed
Ġprole taro
tebr uloj
Ġsoph isti
S ame
Ä ¤
Ġc ilind
ter no
ĠR and
gh as
and ra
Ġgra fi
Ġlabor isto
Ġmar ÅĿis
ĠÄīiu foje
Ġperio don
Ġfavor ites
Ġargum entojn
hi en
ĠKris t
Ġerar as
h id
r ze
Ġ 06
es k
Ġre alan
ul ta
ĠT eo
Ġfor est
Ġdis cip
for ta
Ã¡ k
Ġrela ted
ĠRes publi
Ã¤ n
Ġargum ent
Ġcontinu ity
I ta
M in
b ing
l om
ĠM uch
ĠM ult
Ġl oj
der ed
Ġvir ojn
Ġproduk tadon
ĠHo ff
ĠSome times
Ġdro go
Ġequ al
Ġkonfes as
Ġvie ws
á ĥ
Ġof end
ĠA ward
Ġun likely
ĠG reg
Ġhave blas
Ġkons isto
Ġte ar
ĠKomun a
itan te
An g
tras te
Ġtur koj
Ġkontro las
ĠMan uel
ĠGran daj
200 1
ĠGre ek
ĠpseÅŃ don
Venon ta
1 14
re m
re v
al m
ĠM OV
ĠB ren
Ġpri taks
Ġel sen
ĠG lor
ali igi
Ġfak ultato
ĠBo gos
Ġprote ct
Ġhar m
Ġjap anoj
ĠEkon omia
Ġfrene za
ĠArÄ¥ ivo
atribu ite
w ater
Ġe th
ĠI ron
ĠL ost
ol ly
Ġdis belie
vi vis
Ġsta m
Ġsek vu
Ġven kon
Ġfun goj
Ġmar kis
fin ita
Ġorigin ality
Ġsep dek
Ġrenkonti ÄĿas
ĠeÅŃro pan
Ġemo ci
ĠpreÄĿ ejon
Ġinici atis
ĠWith out
ĠvilaÄĿ anoj
Ġabund as
some thing
neÅŃ tra
Ġepizo do
L ou
p uti
Ġv ita
ĠN em
Ġpar on
ĠY u
Ġvar ian
Ġprote ktas
ĠTim oro
Ġsec urity
Ġvag on
ĠSw ed
Ġdisdon i
k m
Ġf los
Ġh es
ĠD ream
Ġsen fina
Ġam or
Ġlabor ejo
Ġmulte kosta
ĠKon tro
Ġdra m
Ġmer kre
Ġsubstan tivoj
pat r
Ġadop tis
ciklo ped
dim ensional
B u
G ood
un ion
ĠB R
Ġun interesting
ĠC astro
Ġnu clear
Ġpolitik oj
aring hien
ĠReg istaro
ĠBah amoj
ĠTob ago
Ġcommunic ate
C K
n ica
s om
ĠM aps
ĠN atura
Ġmin isterio
Ġnun e
ON G
inter facon
Ġefi keco
Ġcoun tries
Ġkolon oj
Ġripe tas
ĠBud ho
vat ora
Ali aj
Ġenthus ias
Ġne image
Ġmal tra
ĠF ro
ĠF iÄĿ
du o
ĠW ag
Ġch alleng
Ġmor tigitaj
Ġreg n
Ġtri ck
Ġsol vojn
Ġinstru kci
kur son
Ġevolu igo
Ġanali z
Ġpromes as
Ġmiks ita
ĠStra te
Ġdikta turo
Ġadjek tivo
ĠMalfer ma
ĠCag ney
P res
T uj
s io
Ġm ue
re i
Ġf ia
Ġan tis
ĠT ou
âĢ °
im p
ĠN um
don io
Ġam ikon
ĠNe ws
Ġide ala
Ġvar maj
ĠÅľ ajne
Ġdok tr
Ġsid i
Ġdeli ber
Ġnut raÄµo
ĠmalantaÅŃ en
Ġfilozof ia
Ġkonfes i
Ġlam po
ĠCez aro
la go
Ġne bulo
ĠO leg
Ġmor alo
Ġorgan ismo
Ã¡ z
we et
07 9
Ġcam py
ĠCom pany
Ġexam ples
Ġanno un
Ġnecess arily
ĠBrun ejo
Ġachie ve
Ġkrue la
German io
Ġdeputi toj
j ana
k antoj
Ġne tuÅĿ
man a
lu de
Ġ19 04
Ġra bo
ribu tion
Ġmar ki
Ġdown right
Ġdep ost
Ġbas is
Ġgrama tikon
igx os
Ġdesegn ita
Ġels endoj
ĠHal low
ĠSun day
Ġfabrik ado
ĠApri lo
Ġdepart ment
) ?
K ale
M er
T emas
U ST
Ġd atoj
ar ante
Ġne ordin
il uzi
av ia
ĠF onto
Ġdo zen
ĠO lim
ĠAn tik
Ġex tras
Ġcon tact
ty pe
Ġfig ures
Ġph en
Ġrobo t
fron t
Ġhop eless
ĠTaÄĿ ikio
Ġof endi
Ġmal vir
ĠD uring
ca ble
Ġthro ws
Ġeb ligante
Ġcx io
Ġvizi ton
Ġmodern an
ĠMc G
Ġkond uton
Ġtouch ed
Ġmalp ra
Ġavanta ÄĿon
Ġstrugg ling
1 19
R iko
c ko
n ut
Ġa peran
ĠL aste
ĠE bur
Ġkon ced
ĠJ ay
Ġ19 03
Ġkons cia
ĠLi an
ĠRe jno
Ġce lante
Ġer ara
Ġradi k
pov oj
ĠmonaÄ¥ oj
Ġalterna tivo
Ġrecen zo
Ġadvan tage
Ġsucce eds
Ġhaun ted
ĠelÄīer p
ĠBoc vano
Äľisda tigita
B edaÅŃrinde
D A
k ris
Ġa vino
Ġvi coj
Ġlabor ojn
Ġbu ying
15 6
ĠDu on
ĠSub ite
ĠEm ma
Ġans wers
Ġindustri aj
Ġhazar da
Ġintelig enta
ĠAngel es
Ġkorid oro
l Ã³
ti ÄĿoj
Ġv om
Ġti tles
ĠD ro
Ġsub ita
fi zi
ĠIn te
Ġro o
Ġsuper rig
Ġplen kres
Ġsukces oj
Ġblo wn
Ġhand le
Ġinici at
ĠAp ple
Ġsak ra
Ġkomerc isto
ĠKir k
Dav id
n ame
Ġs ap
ĠH uman
Ġmon tetoj
Ġres tri
rin te
Ġpartopren intoj
ĠBe lizo
ĠSen naci
ĠSur inamo
Ġseason s
Ġharmon io
Ġbici klo
Ġsearch ing
Ġmam uloj
Ġbrus ton
E m
I u
f und
Ġla ca
re ds
le e
Ġki ras
ĠM ick
Ġel der
ĠH ome
ĠC atherine
Ġver d
Ġme Ä¥an
ĠTh onon
Ġfo lio
Ġmals imi
Ġmed ion
Ġtab lon
Ġcons ists
Ġeffec tively
ĠBra tis
Ġtutmon daj
enn es
ĠTem po
Ġatta cks
Ġskla vo
Ġreag is
Ġregard ing
ĠS ak
ĠL id
ĠK ut
Ġsen pere
Ġar ro
Ġsh adow
ne ta
Ġter oris
Ġaper igi
Ġhor rific
Ġurbo domo
Ġkompren u
Ġfi x
Ġperfor te
Ġkonsider ita
ĠNo te
Ġfeder acio
Ġpersone co
Ġkampar a
ĠAny one
Ġservi lo
Ġfrun to
Ġselek tado
ĠEri treo
ĠEventu alaj
u per
Ġa i
an ity
Ġv intre
ĠA P
Ġ( Â«
ag ree
Ġfil inoj
ac ted
se p
no on
ĠÂ £
rig on
Ġ6 3
Ġvin tra
10 8
Ġche ese
Ġinc or
Ġkill ers
ĠKan ada
Ġrekom endo
Ġmalaper o
ĠJan uaro
ĠBla ir
Ġkontin enta
umb ling
ĠvizaÄĿ oj
ĠKaz im
Ġelpens is
Ġekzek uti
ĠGold en
Ġunconvin cing
F il
in ov
Ġla v
an ces
Ġb ala
Ġc ust
us ence
th on
man to
qu er
aÄĿ uloj
Ġcar ries
gu y
gor it
Ġmalmul tajn
Ġaver tis
ĠKor Äµenkov
ĠUr ba
Ġaktu ale
Ġwin ner
terd am
Ġdesign ed
Ġisra e
haus en
lari um
T S
u u
Ġa Äµojn
Ġk esto
li ps
Ġo sta
ĠA ct
ĠA zor
ĠR oma
ĠG ale
ĠG ore
Ġdi rita
Ġmon ton
fi es
ore jo
ĠKon ven
Ġproksim eco
Ġstud ojn
ĠKar ol
su kces
AS T
Ġkonkur s
ĠNiko laj
Ġentuzias m
Ġmarks ismo
ĠKonsi lantaro
Ġfanfar on
I am
Ġa us
Ġfor mul
Ġwh is
Ġdis koj
ĠO SM
01 09
Ġst ult
Ġkul po
Ġthro wing
Ġtradi cion
Ġprogram ero
fici alaj
ĠCol umb
Ġaktive coj
Ġmalfeli Äīo
Ġprizorg as
ĠSad ly
Ġk ardinalo
vi er
Ġsek se
Ġsek und
ue a
ĠAr tikolo
Ġgen roj
Ġsal on
ĠCar ter
kar cer
Ġmista kes
ĠmallaÅŃ te
Hung ario
N G
p rojekto
Ġ Ã©
Ġa lo
at ene
ĠS ig
ko la
Ġkons ilojn
âĢĿ :
ate litaj
Ġsk et
ĠCh ang
ins pired
leg io
Ġtradi cian
Wh ere
Ġsound ed
ĠFo toj
Ġbonven igas
Ġcolo ur
Ã »
Ġm ist
os h
ĠL ane
Ġpro pre
Ġinter par
vi ad
se c
Ġ201 9
ins tein
In form
Ġkru da
Ġreturn ed
Ġsend itaj
ĠAleksand r
Ġnarra tion
ĠFon da
ĠAtlan tiko
i um
Ġa ri
li bera
as pecaj
ĠS ici
ĠK il
Ġ4 80
Ġ6 6
Ġsti loj
Ġindi koj
Ġsup ran
ec an
Ġhelp antoj
Ġprofes oroj
ĠmanÄĿ aÄµojn
Ġid entecon
Ġmalpermes o
ãĤ «
ĠEks pozicio
ĠBab el
prem io
Ġreproduk ta
Ġdesper ately
ĠMul te
Ġenviron ment
ĠSanti ago
Ð ķ
ä ½
Ġs adis
Ġf res
ĠM ono
Ġpor doj
de go
Ġat omb
Ġsen a
Ġak ord
ze jo
Ġapli kas
Ġkomenc antojn
ĠWil helm
Ġlisten ing
Vikip edion
an ing
ur ant
ĠK ill
Ġven kas
Ġter uraj
Ġ4 50
ĠÄľi aj
Ġover whel
ÄĪ ef
Ġna tive
ĠTom my
ãĥ ĳ
fil umo
Ġcomb ined
Ġnaz ia
rh oden
katoli ka
ĠVola pu
Ġpoign ant
B ro
h ad
Ġth irty
ci go
ĠS is
ĠP ur
ĠF A
Ġres p
ust y
gan tan
Ġout rageous
Ġsek vos
land ano
Ġ9 78
Ġju ÄĿi
Ġmil ojn
Ġsufer o
200 2
Ġdro goj
Ġinterkons enton
Ġripe tis
Ġprun te
Ġsepar ate
ĠRem oval
Ġproper ly
ĠChic ago
O kaze
Ġv oje
Äī em
id at
ĠA void
Ġvi k
Ġdo cum
van taj
qu el
Ġtu tajn
Ġkre du
Ġgreat ly
Ġdek stren
Ġcam er
Ġarb itra
Ġtim ing
Ġimpli cas
Ġrobo to
ĠVol ley
Ġmob ili
Ġsenpro kras
Ġ q
un ts
Ġre tradukoj
ĠS ki
Ġmal kom
ĠV aj
Ġmov iÄĿo
Ġra in
Ġekz ilo
pa ÄĿa
Ġkres ki
Ġind ulg
Ġdor s
Ġmez ur
Ġinterkons entis
Ġestablish ed
c tic
u atuo
li toj
ti am
Ġre cei
ĠL t
ĠL ow
Ġon klino
Ġmal pu
uz is
Ġinter veno
00 87
Ġtre men
Ġeks pan
pen so
Ġsis ters
Ġmag ical
ĠÄĿoj on
Ġetern an
Ġscar es
ĠTurn er
Ġassis tant
ĠretpoÅĿta d
Lic enco
Ġobnox ious
k vanto
Ġb uri
ro cla
Ġun cle
ĠR ss
Ġap pal
uti ve
Ġpa int
ill es
Ġgrand urbo
Ġmen son
ach im
Ġdifer encaj
Ġcap tain
Ġinvi ti
Ġsx ang
Ġblin da
Ġeksk luzi
Sek cio
ĠStel larium
ĠKuvaj to
er ic
an ne
ĠS van
ĠK em
man taj
Ġle arning
Ġreg non
tem pon
ĠAtribu te
ĠLe ono
Ġneces us
ÃŃ k
Ġdistri k
Ġauth en
estr aro
ĠtaÄī mentoj
provi zo
Ġcritic ism
# ?
Ġo il
ĠT imo
ĠN y
Ġel paro
Ġra ti
Ġak toroj
Ġkla raj
Ġmemor is
Ġbata lantoj
Ġkunlabor anto
Ġnut raÄµoj
Ġflor ojn
ĠLand sat
Ġnordokcid ente
a e
Ġin tu
Ġpri mar
ĠG ard
ven ess
Ġsim ilis
Ġwe ars
Ġrila tis
ĠÅĿanÄĿ ita
jor oj
Ġsufer oj
ĠBen jamin
ann on
Ġattemp ting
ĠBre tonio
Ġgrun don
Ġlaw yer
Ġcrimin als
ĠAtt ribution
I U
is ms
Ġla d
ta ted
ĠT es
Ġ/> *
Ġsub mar
ĠSe agal
tur ing
the w
ĠÅľ tatoj
Ġvian don
Ġdifin oj
Un io
Ġintrodu ction
TH E
Ġtrium ph
B er
Ġ lying
Ġm ent
Ġne ak
Ġsu ker
ĠD own
ok y
pa te
ula te
Ġstory telling
ĠkondiÄī e
Ġob ject
Ġturn as
Ġhal tejo
Ġdekla ri
Ġmeze po
Ġprezenti ÄĿis
ĠantaÅŃen igi
ĠJud ujo
Ġens em
Ġpritra kti
Ġforpas o
ĠKata ro
ĠRein hard
B ordo
K ris
f ama
w ord
Ġb ub
Ġan t
Ġmon tru
ĠO R
Ġfar tas
ang er
ĠX V
Ġwar ned
Ġordon oj
Ġrespek ton
Ġnorma laj
Ġbov oj
Ġproced o
Of fice
Ġaktor ino
Ġtav oloj
ĠÄīiuta gaj
e ve
e the
l ono
â ĵ
Ġa ÄĿaj
Ġde ka
Ġf aÅŃ
am ika
Ġof ico
ĠS ÅĤ
ĠP el
Ġreg noj
Ġko li
ps y
omb re
ĠAÅŃ ton
Ġanim oj
ES S
Ġran gon
Ġoper o
Å¡ ek
Ġveturi loj
liter aturo
har mon
proble moj
Ġferm itaj
Ġsurround ing
ĠD ik
Ġas sociated
va bly
ĠO kaze
Ġfe ÅŃ
Ġab unda
Ġgerman lingva
Ġsper ti
Ġste am
Ġtab ulo
ĠHer oldo
aw a
Ġprovin ca
Ġsan on
ategor ioj
ĠÄĪar to
Ðµ ÑĢ
Ġekvi li
Ġpalest ina
âĹ Ħ
Ġhan dikap
ĠHun ter
Ġjung le
ĠAzor ÃŃn
d id
ti Äīo
Ġkaj o
Ġw ins
Ġre ward
ĠA teno
Ġel pe
Ġas hamed
Ġdis agree
Ġuz antojn
ron ic
Ġtrans c
ph an
Ġstar red
ĠPro du
kan alo
Ġna zi
Ġjob s
Ġplenum ado
Ġpreleg ojn
ĠEÅŃ geno
ĠEast wood
f ts
h omo
å ¸
Ġali ri
Ġeble cojn
pen aÅŃ
Ġtrans skrib
Ġcent ron
Ġste ps
Ġbre ms
Ġconf usion
kar toj
ĠÄīes as
Ġmalproksim aj
Ġfiks itaj
Ġdisku tado
ĠSco t
Ġduo ble
Su per
Ġlon ely
ĠTeri torioj
×Ļ ×
E r
n elonge
Ġen try
ĠM GM
ĠV am
ag xon
Ġlo os
Ġres pec
Ġcon du
be ka
ser io
Ġform ado
Ġret mes
Ġdef aÅŃl
Ġrapor ti
ĠLing voj
Ġreve als
Ġplez uron
Ġkalk ulo
ĠFlor enco
ĠRobin son
Ġsmo oth
Ġjubile a
Ġvidpun kton
ĠAustra lia
Ġorto grafio
E B
P ress
R ich
f its
z in
ta cion
Ġen miks
Ġc ong
il ton
id en
ĠNe il
Ġmili tista
ĠAnd roid
Ġsa ÄĿo
Ġvar b
ĠBo ok
Ġaspek tojn
Ġfen estr
Ġsign on
Ġfes ti
Ġinsta lis
Ġkonklu dis
Ġminim uma
Ġsekure con
Ġmild ly
Ġkonson anto
Ġplat formo
ĠNiÄĿ ero
fur to
f est
i tis
w l
ed ing
ÅĿ ton
ita te
01 13
Ġbon us
Ġindi kita
Ġ12 5
Ġmur dita
Ġdep iction
Ġinklu de
Ġsum mary
ĠBet ty
Ġzo o
hear ted
is me
ed u
Ġre bel
ĠB am
Ġmal plej
iÄĿ ojn
pa to
laj a
Ġpost ulojn
Ġmo la
Ġsufi Äīis
Ġfair y
Ġmeta ph
ĠÄĿisda tigita
Ġporde goj
Ġbalan ce
Ġshor ts
Ġchallen ge
Ġtong ue
, âĢĶ
g om
k lin
Ġ user
ur ajn
Äµ aro
ĠC us
ĠV es
Ġpre gnant
ven dejo
Ġch uck
Ġsam on
ki j
ist ri
ĠAl fon
ĠloÄĿ ejon
Ġleg s
Ġtur ismaj
Ġmil es
sc en
ĠPla y
Ġsubskrib ita
Ġfocus ed
Any way
teran eo
Ġgelern antoj
F und
p ets
v na
ar da
ĠL ad
Ġbon vole
Ġset lejo
Ġvide os
hor lo
Ġmig rado
Ġcarry ing
H en
Ġa ven
Ġf us
ti ally
ĠE V
ek zis
00 67
Ġspeci fan
Ġdispone blaj
tom ana
Ġdistan ce
ĠVan uatuo
win ki
fam ili
Ġinfana ÄĿo
Ġkapitalis ma
ĠFind vej
Ġinfr astru
ĠKirgi zio
T ube
i laj
k ulo
ta doj
Ġfor iras
ĠÄīe lo
Ġlong eco
03 5
Ġdisvol vi
ĠDu ke
Ġdim ension
soci ation
Ling va
Ġfaith ful
ĠGam bio
ĠMate o
terane a
ĠOkto bro
ĠHallow een
I uj
ï ¸
la h
le ma
ter ap
ĠA parte
ie c
ik lo
Ġman ier
ish ment
ĠÄīiam aj
07 7
Ġtab loj
Ġevolu igis
Ġembar as
p r
Ġc uri
ĠI ce
em ajne
um ilo
ĠB ow
ĠN ic
ĠN ome
ĠR ow
Ġsub ÅĿtato
Ġup per
ask et
Ġturn iÄĿis
ĠInter tempe
Ġimag ery
ĠÄīees ton
Ð½ Ð°
ĠÅĿar ÄĿo
Ġdiffic ul
Ġembarras s
Ġtekn ikoj
Ġreminis cent
Ġjuris di
) âĢİ
P la
d igi
z illa
Äī irkaÅŃ
Ġg is
ka pa
gra v
Ġcon cert
vol v
Ġro koj
Ġad ding
ina tions
Ġposte uloj
Ġtraduk istoj
Ġkura ÄĿis
Ġdirek t
Ġrespek t
ĠaÄīe tas
ĠIm peri
ĠTiuj n
Ġsud orienta
Ġnega tiva
Ø ¯
Ġla c
un blog
Ġe pid
Ġar taj
fer ence
ber y
zi lando
Ġmili ard
Ġevery day
12 6
ĠTo ledo
Ġinici atoj
Ġprofi ton
ĠMag gi
Ġign ore
ĠVil no
Ġkvali fik
ĠBr no
Ġparale le
M r
Ġne m
ĠP od
Ġfor igitaj
ĠN in
for ward
Ġap preciated
Ġra ise
Ġeks idis
Ġka f
Ġco incid
Ġkar ieron
ĠIli aj
Ġlu ktas
Ġdra mo
lar d
Ġpripens is
Ġgeed zoj
Ġexpress ions
v ina
ĠL uno
ĠW onder
ni bal
pro vinco
Ġmar koj
19 44
ĠDe f
Ġet na
ĠSci enco
ĠMat th
Ġmalfacila Äµojn
No to
klas o
Ġunuo pa
Ġpropor cio
ĠSalom onoj
O kay
f ri
on bul
Ġs plend
ĠL esoto
Ġ( *
Ġek dor
de con
ĠJ Ã³
Ġgran do
ant om
red ado
lot te
02 6
ĠEÅŃro pon
Ġves taÄµoj
ĠBri tujo
Ġuti l
Ġredak tojn
Ġbru lo
Ġron da
olu tion
Ġdisku tas
Ġeko logia
Ġhipo kri
ĠLangu age
! .
g ese
s ho
z hou
Ġp itch
ar anÄĿoj
Ġen reta
ĠMi Ä¥a
Ġsek voj
Ġesperan tajn
Ġkomun ajn
ĠY OU
sk Ã½
Ġcent r
Ġstre tch
Ġinklu dis
Ġcolor s
OO D
ĠOther wise
Ġmalagra bla
ĠPrezid ento
M em
Ġi ÄĿ
ur ba
ÅĿ iri
go ing
Ġsin ister
Ġdeta laj
Ġ6 8
Ġval uto
leg u
Ġposed i
Ġkampan jon
ĠÅĿlos il
ĠYe ah
Ġthousand s
? Â»
I om
Â ª
en ko
ĠB alk
Ġeks entis
Ġef em
Ġplan t
Ġfi ÅĿo
Ġrezul tan
Ġsper t
Ġna zo
ĠaÅŃskul tantoj
Ġpol u
kura ÄĿ
ĠMala vio
Ġatak ojn
ĠpaÅŃ zo
Ġdelegi to
ĠNel son
Ġludic rous
E lek
b un
g run
n ell
Ġk ale
er al
Ġla b
ra don
ter ioj
ul ton
br al
ver t
ou c
Ġsur ter
Ġuz anta
Ġfar uno
Ġaper u
10 9
Ġkli m
Ġvek iÄĿis
Ġproce zon
Ġmalmulte kos
ĠjuÄĿ isto
Ġpopo laj
ĠSva zilando
ĠBogos lovskij
v ak
Ġf is
Ġh ir
ad ays
ĠL anda
Ġj ul
av oj
mo toro
Ġres on
Ġnov eloj
ier z
Ġdev il
Ġakcep tebla
ÃŃ s
Ġlar ÄĿaj
ĠJe hu
200 3
Ġanarki istoj
Ġsty lish
Ġdelegi toj
w ed
Ġa ston
am erika
Ġg in
im ag
Ġsu daj
ĠG es
Ġar ko
Ġar res
bor do
âĢĿ ),
Ġter oro
Ġko los
Ġ9 8
17 9
14 7
Ġkonsider oj
Ġpriskrib itaj
Ġfeli Äīaj
Ġsold atojn
ĠFund amenta
redak toro
Ġremov ed
ĠHab s
U K
g xis
h ill
k uro
å ®
Ġes tigis
Äī es
ĠD NA
Ġpar alle
se x
vers io
Ġcon vey
Ġposte ulo
02 2
Ġdez ajn
Ġbaz itaj
Ġekonom ion
ĠTi bor
ex cept
Ġsec re
ĠDire ktoro
Ġrent ing
ĠÅĿlos ilo
Ġdeg ener
Ġblon d
ĠlaÅŃle ÄĿe
Ġinvent is
ĠWW II
g am
k lando
p aci
z ak
an or
re ll
ri aj
Ġthe ory
lo ad
ĠI d
Ġj ack
ĠV illa
Ġsen iluzi
Ġnov els
si vely
tro po
Ġus eless
ĠPro p
Ġbro ke
Ġsto ps
graph ic
Ġdeli kata
ald emokra
Ġnut ri
Ġargum entas
Ġbur ÄĿaro
Ġgaze tara
iss ue
Ġfing er
Ġaccep ted
ĠÄīa pelo
Dire ctor
C Y
m ers
s igno
Ġh ib
ĠS L
ĠP O
ĠB ros
ak tiv
ĠJ our
Ġpo emon
Ġmon at
Ġkomun uma
Ġpas igi
hav aj
Ġpop olojn
ĠDo ctor
Ġeldon itaj
Ġrek taj
Ġcor ner
Ġtrez oro
ĠKy renia
Ġfranch ise
Ġdisbelie f
I B
I RE
ĠS ala
ĠM ST
Ġl istoj
ĠEs plor
ok up
Ġcom ical
Ġsci ojn
12 9
Ġkuti mis
Ġfaci al
Li fe
Ġpromes o
ĠCi vil
Ġkritik as
ĠVen is
Ġamong st
Ġnav ig
Ġminis troj
ĠKolor ado
onbul ismo
c ur
Ġin da
ĠM ati
Ġ1 15
Ġek ri
ĠV alo
Ġpre tigis
ĠO mano
Ġsh ape
Ġfon tas
Ġsti ff
Ġprin cess
Ġlim igas
ĠkaÅĿ e
Ġsurpri ze
Ġafi ÅĿoj
Ġfiz ikaj
ĠLen ino
Ġmens a
ĠFu kuÅĿ
num ero
ĠinÄĿen ier
ĠsovaÄĿ aj
ĠTurk menio
k anta
Ñ ħ
te ton
ter ing
il in
Ġj er
ch ild
ran ge
Ġpri lum
Ġel teni
Ġch il
Ġho teloj
Ġ8 8
ĠAr g
Ġmis ter
Ġgru esome
ĠFor ce
ĠSek elj
bre to
Ġia foje
Ġmodi foj
Ġvarme ga
Ġexag g
H aving
b ilities
p ronon
t ched
Ġp intoj
Ġe cojn
Ġpo ol
Ġtra de
Ġ3 20
ĠAnd ers
AR D
Ġkvan t
Ġdead ly
ĠAN Y
Ġmilit kap
Ġkomita tano
Ġocc urs
ĠLabor ista
Ġrememor as
ĠÅĿuld as
ĠAnge la
Ġalmo z
Ġamaz ingly
b esto
h ajne
j s
Ã ²
å ¤
Ġs ir
Ġm ure
re joj
Ġdis gu
ĠW aringhien
Ġling ve
Ġag ord
Ġpres entation
Ġkri tikon
ib a
Ġkura cis
flu g
Ġalt lernejoj
Ġcra ck
Ġarm itaj
Ġmalof taj
Ġisla mo
Ġprison ers
Ġeltro vis
mod ern
Ġos toj
ĠMedi teraneo
ĠSpi ke
Ġhapp iness
Ġsindik atoj
P aÅŃ
or as
Ġde pri
Ġn ose
Ġb ull
lo ka
ĠD aÅŃ
Ġek posed
man s
Ġsen ar
Ġme chan
Ġsta ys
ĠlaÅŃ t
Ġcon ve
Ġsci igi
Ġgu arante
tre to
Ġtuj a
Ġstran gan
Ġfab ulous
Ġripe ti
ĠSank tan
Ġproduc tions
Ã± a
Ġpilgri m
gaze to
Ġinspira tion
Ġwel come
L ud
h ak
p one
Ã ĸ
Ù Ī
Ġd ata
ĠK ane
tis ma
ĠD ur
Ġekz istado
Ġtu ÅĿi
". [
Ġkomp ili
Ġpun kton
09 7
flan kaj
Ġfavor aj
ĠBra zila
fra zo
Ġata kon
Ġklarig on
ĠWell s
Ġdin osa
ĠÄ¥ a
Ġfinanc an
Ġintervju on
ĠlaÅŃle ÄĿa
? âĢľ
p pe
s ud
el lo
ton es
Ġhe alth
Ġsen naci
ĠÄĪ ado
Ġcon centra
Ġsin d
Ġkap able
Ġtrans dono
Ġ6 1
17 7
Ġson is
ĠanstataÅŃ is
Ġind ul
ĠIta ly
Ġass ign
Ġimpor tance
Ġpromes on
Ġtemp loj
Ġacc ura
ĠVatik ana
E tikedoj
Ġa Ã½
Ġg entoj
ĠK ov
ĠC ir
Ġle ono
ĠEsperan tio
ple asant
ki un
Ġliter ature
ĠDo g
Ġmus ici
Ġinten con
Ġkoncern an
aso cio
Ġdisvas tiÄĿo
Ġsank tejo
Ġterri tory
Ġteror istoj
Ġsuges tis
Ġeksplu atado
Ġpasint jare
Ġuncom fortable
ti ano
Ġkon atan
ĠD et
Ġri pet
ante co
Ġlabor ado
Ġob lig
Ġang uloj
Ġbaz oj
Ġform s
Ġrela tiva
Ġbud dy
Ġrekom endis
ĠDis er
ĠEU RO
Ġedi tor
Ġinterpre to
Ġkuns idon
Ġaten du
Ġmanif es
progra moj
Ġelspe zoj
A X
F on
po wer
st ory
ĠF ara
Ġor aj
est ly
Ġkons ilo
Ġex pens
Ġex ists
ate jo
ĠRe lig
Ġfon daÄµo
ĠDe uts
18 8
lar ojn
val ora
Ġtal ento
Ġkomunik iloj
ĠTom aso
Ġdisvolv iÄĿis
Ġcul tural
chi at
pac a
ĠÄīa pe
ĠBes ides
Des pite
Ġsenprokras te
J O
es plor
Ġc av
ĠS as
ĠD ri
ĠC ome
ĠG ug
Ġle tting
ki am
ĠMar so
Ġ18 70
ach e
Ġproduk titaj
Ġnask iÄĿas
Ġkonk ero
Ġlar ger
Ġclo sely
Ġreligi an
Ġresponde ca
Ġnord aj
ĠDen is
ĠMic key
Ġmalo be
ĠVatik ano
z ig
Ġp ran
Ġde pon
al tis
Ġne el
ka zo
ĠV ide
Ġdis tor
Ġra cist
ĠMi los
ene jo
Ġkap oj
ĠAnd rÃ©
Ġvin on
Ġtur key
Ġkapab l
Ġspo ken
Ġkru ci
ĠRuss ia
Ġreferend umo
Ġauthen tic
p ado
Ġm ac
Ġvi vid
tan ton
tor ojn
ĠR ic
ĠG xi
00 77
gra do
Ġpermes ite
ĠMar to
Ġko p
ĠLe ÄĿo
Ġdeci da
ĠGra y
Ġprogres on
Ġradio ak
sub e
Ġfide laj
Ġintelek tuloj
Ġkonkre te
kal ku
Ġmalpe za
Ġcyn ical
f fin
n aja
Ñ Ī
on io
Ġh all
ur inde
ver a
Ġel tenas
ma in
Ġr use
par u
Ġkre pus
Ġtag libro
Ġsis teme
ĠJoh an
Ġtut on
Ġstra ton
Ġgas tojn
aran ces
Ġmallong ajn
Ġpru v
Ġkonkur enco
Ġu top
Ġordin ar
Ġstrate gia
Ġdiman Äīon
ĠRay mond
ĠMitch ell
ĠSile zio
li bere
ĠB iz
Ġfor esto
ĠD ad
Ġat entis
Ġmon tara
ris toj
Ġmem bri
pl ore
log ist
Ġsitu is
Ġinstru on
Ġorganiz aj
12 8
prez en
Ġbru ta
Ġgla cio
Ġhalf way
Ġras ismo
Ġkonvin kita
Ġtun e
Ġplifor tigi
ĠtaÄī mento
Ġbulg ara
Ã ī
Ġt esti
te go
Äī itaj
ĠD res
ĠTh anks
Ä¥ u
ĠloÄĿ antaj
ĠHis tor
Ġhelp ing
ĠSu po
Ġmalj usta
Ġkal end
ĠTiam aniere
Ġklopo d
Ġfall en
Ġalvo kojn
Ġprofund aj
Ġmatema tikisto
ĠDra gon
Ġdatre venon
nive la
ĠindiÄĿ enoj
Ġtechni que
Ġalianc anoj
f ojn
j una
â ĸ
Ġk over
do ub
se h
ale ono
Ġfra teco
Ġsuper sign
Ġating oj
Ġfaci ligas
Ġeldon isto
Ġbla h
Ġgajn as
press ed
Ġmalfor taj
Kon traÅŃ
Ġfing ro
Ġrenov igo
Ġflaw ed
ĠSpi elberg
Ġexperim ent
ĠPermes ilo
in ismo
al ti
Ġv os
Äī eno
ig s
ĠL ake
ĠA C
ĠP roject
ĠV io
aÅŃ d
Ġver ÅĿ
Ġnen e
Ġapli kado
Ġtak so
Ġpe con
ÄĪ io
Ġsoci etoj
ĠDe vil
ba ti
ĠTiu tempe
Ġkura ÄĿo
Ġtradi tion
fici ent
Ġpozi tive
Ġsab aton
Ġmalof ta
ĠÄĿusta tempe
ĠTar antino
???? ????
Ġsudokcid enta
c li
Ġc lum
ig na
pe coj
ĠR h
Ġmon th
Ġak va
pro cezo
Ġko lego
Ġdisp uto
Ġbone gan
ĠÄľ ardeno
rus a
Ġspo iler
Ġkonkur son
blan ka
ĠWell es
Ġadministra cio
Ġkonten tigi
Ġenspe zo
Ġescap es
Ġciviliz acio
Ġimpon a
Ġork estro
Ġnet work
ĠUNES KO
% )
4 00
s uch
Ġp endis
Ġfor iro
ĠD ave
ge on
Ġres er
fi ÅĿo
ĠÄīiu kaze
Ġsuper re
Ġfilozo foj
Ġblu aj
ĠMaÅŃri tanio
. Â»
k vo
s ay
Ġh int
ĠE P
Ġpar tion
Ġdi ven
Ġmon eroj
und aj
ne to
Ġlabor antoj
Ġwere wolf
Ġaf ek
.... ..
Ġfoj oj
ator oj
ĠCo ok
Ġsold at
ĠSoci ety
Ġsetting s
ĠOl om
Ġplas tic
Ġretiri ÄĿis
Ġfok us
Ġaud io
Ġmilli ons
ãĥĳ ãĤ«
C R
G S
s ame
Ġ 04
ĠC andy
ac ing
Ġsta ff
Ġmul ta
Ġjar milo
Ġsin di
Ġbo un
Ġ[ [
Ġafter noon
ĠVik tor
Ġdisvol vo
Ġkru d
Ġkonsci is
Ġcas tle
ĠBad en
Ġmodif itan
B ad
P lan
Ġ **
ĠL um
ĠK AJ
ol ph
ag x
Ġar toj
Ġex pert
Ġser vantoj
eri oj
Ġmat ura
ĠRo gers
Ġkol ere
Ġfer mo
Ġhung ar
Ġcol la
Ġvolon tu
Ġnordokcid enta
Ġcommer ci
Ġtam bur
Ġhorlo ÄĿo
ĠFalk landoj
M ost
e po
n g
li zed
Ġh ill
ĠF EI
ĠR achel
Ġno ktoj
rom e
ĠW end
ĠW ies
Ġsh ark
gra da
eks a
Ġ18 98
Ġdek re
cent ric
Ġskrib e
ĠRo yal
kul p
Ġcons ist
Ġris kas
Ġnaj baro
Ġpreten das
Ġsinc era
ĠBak er
ĠWi tt
Ġkompa to
ĠDec embro
Ġretum ilo
maÅĿ ino
Ġpub lish
b ol
h un
u ge
Ġm ason
ti ÄĿu
Ġe labor
ro t
Ġan ekdo
ĠT R
Ġel pro
Ġmon itor
Ġar gu
dis ko
Ġwe b
Ġrom ianoj
ĠPo ÅĿ
Ġlig is
graf ie
ĠSta tis
ule to
Ġrefer encas
ĠVir inoj
ĠFrank enstein
Ġkern a
Ġexcep tional
k hol
ï ¾
Ġm ast
ti en
ĠS outhern
ĠL ep
ka le
Ġpl umoj
ĠUn like
ĠNor do
Ġstri king
ĠAng l
Ġstupid ity
ĠriÄī an
ius z
Ġreform oj
ï¼ Į
Ġprofe toj
Ġlibre to
an di
ar baroj
Ġan at
ra t
ĠM aked
ru d
Ġdi kaj
gan a
Ġst rio
Ġspe con
Ġok dek
Ġpermes os
Ġag ro
Ġko pio
Ġci fero
Ġfre ak
.) <
Ġpriskrib on
Ġfli ght
Ġrec over
Ġpic ks
Ġjap an
ĠAg ado
ĠSove ta
Ġalmen au
ĠBohem io
Ġintellec tual
g ene
Ġb is
Ġpro of
ak v
Ġtra iris
are to
Ġstar ti
Ġmulte gaj
ĠEk le
Ġmark ante
Ġweak ness
Ġesperant lingvaj
poli tika
Ġhy po
Ġfiz ikisto
Ġstrugg les
Ġlecion ojn
orig inal
hand ed
Ġprizor gi
N E
P arto
k ir
z Ã¡
Ġp isto
Ġe man
ra por
ĠM am
ap pe
ard io
Ġtro ops
Ġ6 7
ĠEk vatora
Ġcare fully
Ġmind less
Ġapo gon
Ġagnos ko
Ġinterpre tado
Ġkresk igi
Ġpure ly
Ġdiverse con
Ġmetro o
Ġreach ed
Ġembarras sed
Ġfanta zio
ĠSier aleono
Ġdefini tiva
s piri
Å Ī
ĠN itra
ma tion
Ġsta ted
Ġreg ata
ras e
Ġsp y
ĠBe ing
ĠMe ta
ĠDav enant
Ġkial on
ĠHar old
cha ft
Ġkal d
ĠJun io
ĠCam eron
Ġmalfeli Äīa
Muz eo
Okaz is
Ġiniti ally
] ).
j ug
s x
Å «
Ġen ciklopedio
Ġin stin
ĠE gy
ĠP ad
lan der
ĠR Ã©
one to
ĠO mar
Ġmor tig
Ġpl endas
Ġur so
Ġaldon a
Ġvo la
Ġfam iÄĿis
Ġide alo
Ġplan tojn
Ġekster an
ĠMon s
ĠPost tagmeze
Ġten se
Ġran g
ĠÐ ¸
20 6
ĠDi versaj
Ġtrove blaj
Ġweek end
ĠinterÅĿanÄĿ i
ĠGab ono
Ġinterrom pis
ĠCin ema
ĠPoz na
Ġrepla ced
ĠpasaÄĿ eroj
Ġbonkor a
Ġkni fe
Kale donio
u tion
or don
id ers
ĠE ras
ĠP S
ĠJ us
Ġor ders
it us
Ġhis panoj
Ġhave blaj
Ġcon veni
pen et
Ġ18 48
Ġvir g
Ġprof essor
Ġfla gon
Ġtur ment
Ġtalk ed
ĠPat ri
Ġbab i
Ġfab elo
Ġkond ut
Ġuson an
Ġkonfir mas
Ġkab ineto
ĠWatch ing
ĠEkon omio
Ġweap on
ĠOlom ouc
I a
M ag
l Ã©
p om
p ho
te or
ÄĿ intaj
ĠK ath
um ing
ĠP un
Ġel ten
Ġdu cent
Ġsim fon
Ġro lling
tik istoj
ĠZ o
Ġ18 00
Ġkompren ata
Ġvar bi
Äł s
ĠVer on
str ong
Ġtop ic
Ġdonac ojn
Ch ris
Ġhid ing
Ġned is
Ġdisappe ar
Ġdras te
Ġaffec ted
Ġrespe gu
ĠBial isto
d l
Ġk raj
Ġp p
Ġm end
Ġen du
Ġne po
Ġhav igas
ĠF ish
Ġso lo
Ġsen fine
rib e
ata ro
Ġst unt
Ġag ed
Ġjun ajn
Ġrespon dos
Ġrila ti
Ġfla v
KO N
Ġkura ÄĿas
Ġfut b
Ġsekvan taj
Ġcen so
Ġcru de
dat umoj
Ġabon antoj
person a
Ġdekli vo
C he
e ing
É Ļ
Ġti ed
ĠM uro
Ġfor aj
Ġinter parolo
Ġres taÅŃ
Ġsta bi
Ġpos ter
ile con
Ġkla varo
Ġprof ilo
ĠJo achim
ĠPro vinco
Ġeldon as
ĠFo to
Ġfes ton
Ġpozi tivan
ĠCom mun
Ġproviz itaj
ĠJon athan
Ali flanke
ugos i
Ġrevol ves
Ġaltnive la
T F
om ic
Ġin fec
ĠC ris
ve z
Ġno table
ĠJ ek
Ġdu ona
Ġser vado
Ġwe ight
kom itato
Ġfla g
pun kton
Ġclo wn
Ġgri pping
Ġir landa
Ġdri ves
ĠBur ton
Ġartis ts
Ġmask loj
ĠBol lywood
Ġinevita ble
Ã ģ
Ġa for
re ÅĿ
Ġal gorit
ĠP onto
ko wski
Ġun pre
ie co
Ġsen inter
ĠO per
mon to
Ġpens maniero
Ġreali gita
07 8
Ġvizi tos
sis temon
Ġeta po
Ġconne cted
Ġdiskon igi
Ġekspli cite
ĠApri l
Ġper fection
Ġmov iÄĿis
Ġno ble
ĠKon f
ans ko
Ġakcep tos
ĠIsra ela
Ġkolon ia
Ġbat tles
Ġmask lo
Ġsuk ero
ĠindiÄĿ ena
Ġnas ki
Ġgimnaz io
Ġambasad oro
Ġmalob ser
M A
M P
b lua
Ġne ebla
ĠK of
th ic
Ġres ol
ej ro
Ġpres er
Ġplan lingvoj
mas o
leg oj
Ġprin tempa
Ġcir kvi
ĠRom ero
ĠGo gh
Ġastron omio
Ġade qu
ĠaÅŃtomob ilo
J orko
P at
T ut
Ġd iÄĿita
Ġla ws
Ġti ran
ĠM ath
ĠD ana
Ġhas te
Ġtri logy
na h
Ġag os
Ġelek traj
Ġskrib ite
Ġ9 7
08 4
ĠRus ujo
val ent
Ġinflu ita
Ġwan na
Ġhar ojn
Ġcredi ble
Ġcrea tion
ĠLiber io
Ġekspozi cion
sam kondiÄīe
ĠBag hy
Ġbelong s
Ġscrip ts
F eli
c n
o ke
Ġan tologio
il ds
ent in
Ġ( [
Ġ/> (
ĠÅĿ ildo
Ġar d
Ġsub spe
tig xis
Ġins tantly
pen ter
Ġ9 6
ĠPro duk
ĠÅľ tub
Ġsil enta
Ġvesper a
Ġour selves
blan ce
Ġcredi bility
ĠKa ÅĿi
Ġpraktik ado
Ġsleep ing
Ġantici pe
ĠloÄĿanta ron
Ġhoriz onto
Ġretar ded
Ġcuri osity
. ]
1 01
R u
Ġla vis
ĠS F
Ġl undo
Ġfor kuris
ĠAn ato
pas sion
entis ts
Ġkol onelo
ĠInter kultura
Ġcons pira
ĠEtern ulon
Ġanta gon
Ġbel ga
ĠLud oj
ĠFa e
ĠMov ies
ĠKore an
Ġeksperim entoj
ĠBas ically
Ġfik cio
Ġbase ball
g ena
z ite
Ġt os
ar koj
Ġe igh
ĠL OV
ĠP ho
Ġfor igas
Ġkun igas
ĠC N
ĠG aze
Ġri ding
Ġor an
ĠO kay
uti ful
pi oj
ara ble
Ġinf aneco
Ġqu est
Ġtak son
ĠKon certo
Ġves ti
ĠSte lo
ĠvoÄī ojn
graph er
Ġeston to
Ġspek tantoj
Ġta x
Ġinterpre tation
Ġsle azy
Ġrating s
Ġinno cence
Ġdestru ction
P e
g na
ĠI K
Ġmal mun
Ġno ted
Ġbut ton
Ġkons cion
Ġex pli
Ġins ulon
Ġkri tiki
ever y
Ġmond an
Ġkonkur soj
Ġguess ing
Ġfinan coj
Ġidio tic
Ġess ential
Ġsmo ke
ĠFred dy
ĠFreder iko
Ġbelo ved
Ġskan ilo
ĠTod d
b ild
v ul
to l
Ġre foje
po doj
Ġwas ting
Ġokaz us
Ġ18 89
fin aj
ĠloÄĿ ejoj
Ġorganiz itaj
Ġrus hed
Ġkolek tiÄĿis
Ġdifin on
Ġprote kton
EL L
Unu a
Ġque en
Ġmerk atoj
buti o
ĠTjum eno
b atis
d ri
h us
i tas
k tu
v re
z ino
Ä ĥ
es ka
Ġi con
ĠM ek
ĠB ulon
Ġkun disku
Ġnom umis
ĠantaÅŃ d
Ġlibro servo
ĠAk tu
erotika Äµo
ĠRu th
Ġprofi tas
Ġsac ri
Ġtabern aklo
? '
J ack
h ome
or da
te g
te la
Ġo vers
Ġin con
ĠR O
for toj
Ġsen li
Ġsta dio
Ġmor alaj
ĠMi che
ĠEsperanto Land
Ġplej e
Ġda ux
ĠLi ving
Ġcon cep
Ġ7 3
ĠÄīirkaÅŃ as
Ġtru d
Ġsendepen diÄĿo
Ġkalk ul
ĠBob by
ĠarÄĿ ento
Ġphiloso ph
K ategorio
Ġvi cious
Ġfor tajn
kon du
Ġkom entis
Ġsen mor
ok u
Ġaldon itan
Ġmar ti
ĠÄľi butio
Ġru inoj
rap ide
Ġsex u
Ġanon c
Ġlaboris taj
ĠBur kino
ĠIndi ans
Ð¾Ð »
Ġofice joj
ĠSand ler
gvid antoj
porn aÄµo
f rap
i ter
s tein
â Ļ
ar ano
ĠA da
Ġkon toj
tan ts
ĠU TC
ĠMi ra
Ġho lo
Ġaf li
Ġhor ri
enti fic
Ġfunkci anta
ju di
Ġdispon igi
Ġgroup s
Ġskla veco
ĠCam acho
ĠMur ray
ĠLes lie
Ġekhav i
Ã¡s z
Ġgraph ics
Vikip edio
. ;
M aybe
R espon
Ġg olfo
Ġti mon
ĠM ess
Ġpo inted
Ġtre j
lin ers
Ġokaz igas
Ġtri foje
Ġlabor anta
Ġpris tu
kos toj
Ġdekla ron
Ġcou rage
Ġsubstan coj
ĠNeder landa
Ġsekreta ri
ĠmonaÄ¥ o
Un fortunately
konstru ita
Ġinstan co
Ġteo logio
nomb ra
ĠAristo telo
c als
Ġa kso
Ġe mon
ov ice
ĠÄī inan
ek so
Ġl una
tu ous
ĠF ru
don aj
vol on
Ġter uro
Ġvo los
kor pa
Ġ10 2
14 8
Ġekonom ie
ĠÐ º
Ġgx ia
Ġadop tita
Ġmalhe laj
Ġekzist us
Ġmarvelo us
« ï¸
ļ «ï¸
Ġl ust
ĠÄĪ ie
19 41
ys ÅĤaw
mar on
ÄĪ irkaÅŃ
Ġpens adon
Ġsol v
fon on
ring o
Ġscreen writer
Ġcli ps
Ġnight mare
ĠSp ring
Ġattemp ted
emp loj
Ġvund ita
Ġkost ojn
nomb rado
Ġkidnap ped
Ġkana bo
ÅŃten anto
Ġexer cise
a po
Ġa wards
lo ve
am s
Ġne gra
ĠA F
ĠA feroj
Ġvi ci
Ġun pleasant
ĠF ir
Ġno tor
Ġor gen
man ieroj
Ġ19 02
Ġkons enti
ali zo
Ġbon ÅĿan
Ġmar kas
Ġmili on
Ġqu ali
Ġkar bo
ĠAr men
13 7
Ġcons cious
Ġkomer con
Ġfavor as
ĠCon nery
ĠKel kfoje
Ġrapid aj
Ġkonsci e
amer ikaj
Ġimpos to
Ġpardon u
Ġsuffer ed
Ġsuggest s
ĠUl rich
V al
æ Ī
Ġde kon
Ġde parte
Ġf umo
Ġh inda
ĠR as
Ġfil tri
Ġdis like
Ġme at
Ġcon ditions
ne ces
Ġsek reto
iz er
Ġnen iuj
ugh ters
Ġtur oj
Ġran ks
esta po
Ġrekom p
Ġpozi cioj
Ġless er
Ġproced uro
Ġill ustra
Ġeksped ici
K ul
V ere
s ia
Ġun be
Ġek son
com edy
Ġri pped
und ing
ĠTh ings
Ġpost res
be ta
ĠkontraÅŃ is
Ġprez on
Ġ8 6
10 2
Ġvol umoj
Ġkvar on
Ġtal enton
ĠGra ce
Ġkultur ajn
Ġdro pped
ĠEx press
Ġavanta ÄĿoj
Ġhistori ajn
naci aj
Ġmunici poj
ĠBud h
Ġiron y
Ġtrio po
ĠGabri el
ĠCare y
w alk
Ġen cikloped
ĠM Ã©
ut ing
Ġbe er
Ġper eo
ĠÄĿis nun
ĠZ ar
Ġko in
10 6
Ġorganiz anto
Ġkan aloj
13 8
Ġprogram istoj
Ġfas ado
Ġrepe at
ĠBlan ke
Ġlogi ke
Ġdiss end
ĠHu go
Ä ĵ
on ly
Ġla zy
Ġm entally
ra b
ĠI an
Ġvi con
Ġkun g
Ġch io
Ġcon vic
Ġtri cks
Ġins piris
Ġprop os
Ġesperantis tino
ĠÄīirkaÅŃ ita
ĠInter reta
Ġmed ical
Ġrenkonti ÄĿi
Ġpriskrib oj
ĠSome thing
Ġnord orienta
prem ion
Ġmedi um
Ġpira m
ĠGlo bal
Ġseek ing
ĠHod ler
ĠSÅĤ up
n ek
p ically
à ®
li ÄĿi
ra ble
ĠS ten
Ġek um
Ġek rigardis
go o
Ġest ris
Ġkre doj
Ġop posed
Ġkan cero
lar ÄĿ
ĠÐ ´
Ġgro ws
Ġsemajn fino
Ġata kas
Ġbur st
Ġsuccess fully
ĠCol lege
Ġkav ern
ÅĿe vis
yster y
Ġneevi teble
Ġinterlingvis tiko
Ġtribu te
C S
P G
b lu
Ġs que
Ġre tor
ĠS od
ĠA gen
ve la
Ġman gx
Ġfar anta
Ġfra tinoj
Ġindi e
Ġblo ko
Ġmes o
ĠStan ley
Ġrepres ent
Ġpartner oj
Ġced is
Ġserp ento
ĠaÅŃtorraj to
Ġalire bla
IGH T
T ia
c ino
Ġla g
Ġre tan
ĠI vano
di t
Ġfor pelis
pe tis
Ġsen proble
ts er
ĠEn ciklopedio
vid oj
Ġher b
vol uo
ĠRe to
ue co
Ġ8 3
enti ÄĿis
pec tor
Ġimag is
Ġtend aron
Ġfes tas
Ġstab ili
ĠÄĿard enoj
Ġequ ip
Ġekzisto s
Ġfremd uloj
Ġgli mp
instru ado
Ko lekto
Ġpanta lon
T ro
i Äĩ
Ġt ank
ĠB uch
ĠÅĿ losi
Ġtiu rilate
Ġap r
Ġover come
hav o
Ġma lek
ĠMon taro
ĠRo ad
13 5
Ġmalfaci las
Ġfriend ly
Ġpag os
Ġdat on
ĠPe ters
Ġprotes toj
ĠSom era
Ġsekre taj
Ġferi oj
Ġbord elon
Ġegip ta
Ġglimp se
G reat
Ġf ili
Ġal logi
ĠI P
ĠE is
ĠK um
Ġfor bru
ĠR ou
ĠW ard
Ġser van
Ġplen igas
Ġbezon us
16 5
Ġfer mi
Ġmalsan uloj
ĠdediÄī i
!!!! !!!!
Ġkonsul ti
ĠFilo zo
Ġmulto b
Ġrum ana
Ġates tantoj
ĠAndaluz io
B as
S AT
Ġp ep
le ft
al ku
Ġg er
ĠM um
Ġ( '
Ġch illing
18 9
Ġru bri
An koraÅŃ
ĠSh i
Ġkura ÄĿa
Ġdor son
ĠCo le
ĠSa ul
Ġner ve
Ġmalmulte kosta
ĠFer voj
ĠÄīas ado
emp tion
ĠWill is
Ġbudh ismo
Ġleks iko
ĠRejn lando
ĠBialisto ko
M O
f lo
m ates
Ġth read
Ġf Ã¼r
ci vita
ĠD ud
ĠH ills
ĠV rocla
Ġpli igi
Ġdis falo
Ġnur aj
ga leco
tig itan
Ġmo on
Ġob jec
15 7
Ġer up
Ġpublik ajn
Ġtru o
AR T
Ġkurac ado
Ġkompar as
Ġservis to
Ġlatin an
Ġanarki ismo
Ġstun ts
Ġkoleg io
Ġprotagon ists
ĠGeorg es
b ak
m outh
Ġg rum
ĠE v
Ġj uran
de ad
gh a
Ġ- ,
Ġokaz igo
19 99
Ġob lik
tain ed
Ġ9 2
uri gi
Ġreven u
Ġviz ita
Ġdark ness
Ġprofi tis
Ġspend ing
ĠnaskiÄĿ tago
Ġclos ed
ĠDomin ika
Ġdilig ente
ĠMarga ret
ĠMOV IE
ĠMilos lav
e ti
en cia
in jo
al ys
ra taj
Ġi dojn
Ġg amb
ĠD ante
Ġinter ven
Ġres umo
Ġrespon si
ĠDe par
Ġsp uroj
Ġproksim an
17 5
Ġcar ing
Ġaparten antaj
Ġcri mes
ctor s
ĠSim pson
Ġcal m
ĠAndre as
Ġekle ziaj
ĠRam zes
todo ksa
fte en
Ġortodo ksa
ĠWalk er
Ġfic tional
ĠM anÄĿ
ĠB ry
ĠR ag
ther land
ern ess
ĠEn konduko
ĠKaj to
Ġmat enon
ĠX X
ĠIntern acio
ĠHar rison
ash ed
Inter tempe
ĠHam ilton
Ġekvi libro
Ġkem io
Ġita lan
Ġpedago gio
ĠWat son
ĠenloÄĿ antoj
EÅŃro po
ĠStepan ov
a is
s po
ĠS ign
Ġne forma
lan tan
ĠF lo
ĠV olon
uz ov
ĠW OR
pon to
Ġam erika
Ġkap ri
Ġko incid
Ä¥ in
Ġorgan ismoj
Ġmen di
sk Ã¡
03 2
Ġmult lingva
Ġunder ground
Ġoper acioj
Ġoper aco
IS T
Ã¤ l
Ġfid i
Ġbio grafio
Ġarri ve
ĠVe gas
Ġmiz era
Ġmuze oj
ĠAmi ke
ĠPozna ÅĦ
W ow
c entoj
f ast
Ġde duk
ce lo
kon go
Ġdi veni
est rojn
Ġpl umo
Ġprom in
Ġekonom iajn
Ġredak tado
Ġinflu oj
ĠSek cio
Ġcho os
Ġeng lu
Ġmatema tika
Ġidenti gi
lingve co
ĠAg laja
Ġatmosph eric
Ġbored om
ĠDun ne
Ġoccur red
Ġdungi toj
ĠEug en
c ellent
Ġe ager
Ġal is
ĠT itan
ĠL ugosi
Ġali ÄĿas
Ġgo al
Ġkons tantan
qu ez
Ġtri al
Ġintern et
ĠdaÅŃ rigo
ĠanstataÅŃ i
Ġbra kojn
Ġkomer can
Ġserio z
Ġanon cita
Ġplenum ita
Ġminim al
ĠVene cio
Ġkondamn is
Ġphys ically
ĠSpeci al
ĠMich elle
tiz ens
ĠfaÅĿ ismo
ĠWord Press
Ġfiask is
3 69
B en
N O
t ulon
Ġc em
ĠS tano
ĠN ancy
ĠF ore
ĠG im
Ġtre asure
Ġskrib os
Ġscienc fik
Ġbus y
tiÄĿ inta
Ġshoo ts
Ġvam pires
Ġjum ps
Ġnorve ga
Ġcous in
m omente
t ta
u er
Ġ }
Ġs l
as ingly
Ġn asko
Ġen radik
ĠM ason
Ġpo lig
be c
Ġdek du
Ġsem an
Ġseks per
Kom ento
Ġpron omoj
Ġgaz et
ĠCi vita
Ġkas isto
ĠNiko la
Ġadvent ures
Ġgaj e
ĠCong ress
c at
m itaj
Ġen metis
Ġc ats
Ġal leg
ci ita
tis m
rom an
ens ible
Ġwe bs
ves pere
Ġfak ulo
EA T
we ight
Ġamb ig
mov adon
Ġgas tejo
ĠDan ubo
Ġestab li
Ġhonor on
ĠStu doj
Ġtaj pi
Ġkoti zon
Ġiron ic
Jam es
Ġkombin ita
ĠFam ily
Ġmalmo la
c eno
u ka
ar me
Ġn est
Ġkon a
ĠB in
ĠD iru
ĠG ut
00 69
bor g
title d
ess a
Ġ18 80
Ġsuper aj
ep ing
Ġcx ielo
Ġdra wing
ash i
Ġspo iled
Ġstr ing
Ġtelefon oj
Ġkonek tita
Ġpse udo
Ġkomfor ta
Ġbong usta
ĠCis jord
Ġd uty
Ġc aro
Ġal right
ci lia
Ġman sion
zi anoj
Ġim pla
Ġplu an
Ġdec la
Ġradi oj
oma tio
Ġordon as
Ġfrem dajn
plen an
Ġatend ante
Ġprav igi
Ġvirtu ala
Ġsoft varo
ĠÅĿer c
Ġsila bo
Ġjunula raj
Wil liam
s pi
à ¸
om or
ov ani
Ġ( âĢŀ
ita ro
Ġmi zo
ĠP age
ĠB AD
ĠG rin
Ġhe liko
Ġsin k
Ġsek son
Ġhel ena
Ġgu est
ĠPro ble
Ġbri lo
Ġsem ajne
Ġokup i
Ġhand ful
Ġkontribu on
ĠSa tano
Ġceter ajn
tek ston
Ġdeb atoj
Ġsekvan te
Ġexplo sions
ĠKos mo
Ġdolor on
Ġfals aj
ĠSep tembro
Ġunf old
Ġsuverene co
Pal est
ĠManif esto
ĠHud son
" !
li ano
Ġlo cked
00 65
Ġsen kom
Ġtra v
Ġch est
10 4
Ġlu k
ĠSin atra
Ġvari anto
Ġpsy chiat
Ġfilozof ion
o fici
s ak
å ħ
Ġto ile
ĠK ans
Ġar k
Ġar ton
ali gita
Ġokaz anta
Ġmar moro
Ġ8 4
pla co
Ġ9 00
ĠYou Tube
Ġdan coj
ĠCent ral
Ġparti z
Ġproviz ita
Ġtun oj
Ġkorespon dado
Ġprogramer ojn
ĠTw itter
Ġtechni ques
ĠBog art
Ġp acked
Ġj x
Ġsci os
Ġim mig
Ġperson alities
Ġkul to
Ġ8 2
ĠPor t
Ġeb lojn
ĠSo on
Ġmed iti
ĠOr din
ĠÐ ¾
ĠmanÄĿ ado
Ġkos tis
Ġeng ine
ĠSto khol
Ġdiskut ojn
Ġoce an
Ġsubti to
dat re
Ling vo
Ġretpa ÄĿaro
Ġpuri gi
Ġspli t
ĠBudap est
p he
u rio
Ð Ĥ
ta gan
ĠÄīi ajn
mo ur
Ġar oj
Ġres tra
Ġ7 4
Ġorganiz on
wh y
Ġflu id
ER O
Ġhal ti
Ġokup ado
Ġstri kta
Ġspor toj
Ġalterna tiva
Ġekzer coj
nova tive
Ġatenti go
Ġhund reds
Ġess ence
Ġsexu ality
R a
T wo
n ano
Ġt ata
Äī eron
Ġc andy
de legi
ĠF ero
Ġsta riÄĿis
Ġak raj
Ġnur se
Ġda ily
ck en
Ġur ÄĿe
Ġsal tis
Ġappe arances
Ġlim igitaj
Ġspo ke
ĠVin dozo
Ġbran d
Ġmaldek stro
fil mo
Ġnar ko
Ġresta urant
Ġconcern s
ĠLiter aturo
Ġengag ed
Ġquo te
Rich ard
B ildo
G od
g um
m edio
Ġk ine
as i
Ġn edi
Ġal las
am pleks
ĠE X
ĠP ino
ch ang
ĠB E
Ġri dis
Ġver dan
ens is
ki en
iko to
Ġ18 50
kom pan
07 5
Ġhelp iloj
Ġsal utoj
Ġfrem dulo
ãĥ ³
Ġmalvar mo
ĠFe tiÄīo
Ġperform ers
Ġmaksim uma
ĠWin dows
Ġparamet roj
ĠarÄ¥ ite
Ġtras er
Ġsophisti cated
m ie
Ġ ðŁĺ
es ter
Ġal ÅĿuti
am ent
ig adis
th ro
ĠG EA
Ġsh y
Ġsc re
Ġr er
Ġkor pa
ĠRe c
Ġrespon se
Ġkomenc intojn
Ġeb lajn
Ġfi fteen
16 7
Ġcam paign
Ġaver aÄĿe
ĠCon f
Ġhung araj
Ġlat ine
Ġkonfir mi
ĠSuper man
Ġsak on
Ġtransi ri
Ġcolor ful
ĠLic ense
Ġvac ation
ĠIre land
Kvin petalo
M L
O fte
S i
f ree
p ul
p ata
Ù ħ
Ġt issue
Ġm oj
Ġre iris
Ġne farita
av ier
Ġmi k
Ġel kres
Ġven en
Ġins istis
Ġkomenc u
Ġbezon ojn
Ġ16 0
ĠHis tory
Ġele menta
Ġdef io
Ġcomed ian
ĠFlor ido
Ġares tis
Ġparlamen tanoj
ĠanÄĿ elo
ĠHoff man
X ian
f le
h os
Ġt all
Ġth rew
ti que
Ġes encon
ĠS ik
Ġper pet
Äµ et
01 05
pren ita
Ġpla ta
Ġter enoj
Ġsp ell
get table
Ġstre b
Ġdia gno
Ġelse where
ĠvojaÄĿ antoj
Ġkompon is
Ġtravi vaÄµoj
Ġrep aci
ĠSlo vaka
Ġalko hol
Ġbuti ko
Ġrepeated ly
Ġpsi Ä¥a
Ġsoj lo
å ľ
Ġc ere
ĠT own
Ġlo kita
ĠJ ag
Ġpre ÄĿis
Ġpre pozicio
Ġme asure
Ġsta cioj
Ġhom age
se ka
Ġpl oris
ĠNe xt
Ġsci us
Ġpe zas
Ġeb lan
ĠEÅŃro pan
Ġvol um
flan k
Ġunue con
ĠSen dube
Ġpraktik oj
Ġtrove bla
mez ure
ĠJoze f
Ġpress ure
G H
d E
k h
Ġs ni
om in
ĠA BC
ĠK anto
Ġ( -
Ġpri dis
st or
ap ek
Ġdo laro
ĠCh er
Ġpres kau
mas ter
Ġ14 0
ĠSek cioj
pov on
Ġenkonduk as
ĠPoli ce
ãĢ Ģ
Ġbonfar to
Ġmastrum ado
ĠMic ro
Pala tinato
Ġdistrik taro
h ila
u ish
â ļ«ï¸
æ ĺ
to k
ro e
ĠS ac
ĠI lin
Ġmal stre
Ġnom inte
lig oj
Ġaf fection
Ġob session
Ġlern os
ath ers
ĠankoraÅŃ foje
12 5
Ġfunkci adon
Ġnask iÄĿinta
gru pon
ĠtaÅŃ g
Ġarm ilo
Ġ28 0
Ġod oro
ĠÄĿen ro
ĠLiber aj
Ġversi ojn
Ġprokla mita
Ġrecen zoj
Ġabrup te
Ġferv ore
Ġartefar itaj
Ġkundisku tantoj
K ia
k us
Ġa Äµo
en burg
Ġd igital
Ġan ser
ĠD iman
ĠN INA
Ġkun fan
ple te
Ġsh el
Ġres our
vis ible
Ġpl on
pre mo
Ġdeta lan
ĠY a
Ġsoci alaj
Ġgu ilt
Ġsis tema
ĠLu ko
Ġsus pend
Ġfu ÄĿi
Ġeten diÄĿis
Ġinsta ll
ĠdediÄī as
Ġminac is
ĠGi ovan
ĠVor to
ĠÅĿul tro
Ġtrouble d
Ø§ Ø
Ġbeat en
ĠKata lin
Ġretad reso
Ġinvestiga tion
ĠBerg man
Ġconsequ ences
Ġmiliard ojn
Ġexpens ive
F ra
d omoj
g upta
Ù Ĩ
Ġa ired
ta di
un alo
ĠK av
ĠK eb
Ġbe ating
ĠJ ak
Ġpar ano
Ġri b
Ġsh ines
Ġra k
Ġres id
Ġmo ck
Ġju vel
Ġpreci zan
Ġdra gged
Ġbor row
ign on
Ġuti lo
Ġfab eloj
tima te
Ġwish es
ĠEuro po
Ġrema ined
ĠretpoÅĿ to
Ġmelo dio
wi fe
ĠFranÃ§ ois
ĠFiÄĿ ioj
M od
z od
Ġt ons
Ġf land
Ġti ris
Ġne kons
id as
em bra
Ġvi zio
ĠH ob
kon ata
da ted
Ġdis iÄĿis
ĠW ri
gra d
Ġesperan tigo
tik ismo
si p
ĠMar s
min ute
Ġdek reto
Ġpe cojn
13 9
Ġmemor aÄµoj
kov Ã¡
Ġste aling
35 7
Ġref uses
Ġtutmon dan
Ġnord en
Ġrema ining
ĠTor ino
Ġproto koloj
ĠHard y
Ġfabri koj
Ġneighbor hood
Ġmiser ably
Ġvulg ar
ĠAlfon so
. _
F oje
b eno
i is
j as
m ay
s chool
y an
le ca
ĠI o
ĠT uro
ĠP utin
Ġpar oloj
Ġat esti
eo usly
ĠantaÅŃ vido
19 7
ĠMe za
Ġem bra
25 3
ĠLu ci
Ġbru ligis
Ġcor rupt
Ġmir indan
Ġbele gan
Ġhi per
Ġfour th
Ġagri kultura
Ġkonsekven ce
Ġinsul ting
ĠMod ern
Ġcomman d
ĠMass acre
ijo te
b end
Ġp df
al lo
Ġc os
ĠM other
ĠB rig
Ġhav antaj
ĠV iz
ĠG ian
Ġman ÄĿon
Ġac coun
voj aÄĿo
Ġab ilities
Ġcent ralo
Ġbri dge
Ġakcep titaj
gri m
ĠUS SR
ĠretpoÅĿ te
Ġsekre te
Ġvul ner
Ġcita Äµoj
Ġwall s
Ġforvet uris
Ġskato lo
Ġrego povoj
Ġambi tious
. ÂĶ
a bout
s pek
ĠG os
Ġsen lima
Ġmon ero
ĠU m
Ġsub meti
ĠÄĪ EA
Ġcom petent
ali z
Ġkar b
ĠMon tre
15 8
Ġbas tono
Ġgas tigis
Ġpied e
ĠJun e
ĠBla ke
Ġdisvolv iÄĿon
Ġmanag er
ĠaÅŃtorita ton
ĠmalÄĿoj o
Ġkup ro
ĠVladi miro
ĠTrum p
kampan jo
ĠSÅĤup sk
N ask
ri da
ĠT E
ĠT ir
ÅĿ ita
Ġmi ro
Ġpri zon
Ġas is
Ġmon s
ĠW o
ĠW oman
ĠKom ita
anoj o
19 97
ĠRe te
Ġ9 1
Ġbri las
Ġju do
Ġinten tion
Ġstran ger
Ġspiri taj
Ġnut rado
Ġzorg eme
Äľ uste
Ġalf ab
Ġsekvan tan
Ġens emble
Ġtradu ka
SP OILERS
Ġintens ity
ĠProfes oro
Ġkortu ÅĿa
Ġk amen
Ġd ento
ta men
Ġf atal
ov na
ĠE mili
ĠK uba
Ġun inspired
ĠÅĿ uoj
ĠH U
de ca
Ġtiu cele
ts ch
Ġpos tan
Ġter uran
Ġins istas
ĠMon aÄ¥
dek stre
eb lo
Ġsil ver
Li ter
ĠAd olf
Ġpopula tion
Ġobser vado
Ġconf ess
Ġref reÅĿ
Ġbran Äī
Ġreligi ajn
Ġdevelo ps
Ġtransform iÄĿas
ĠdanÄĿ eraj
ĠCla ire
Ġatt end
ĠSE O
fes tivalo
ĠJos uo
Ġrestor acioj
bil doj
Ġsenpag an
Ġpion iro
Ġnekuti ma
C X
h in
ç Ķ
Ġla ke
Ġs pan
ar ab
Ġv jetnam
ÄĿ ajn
ĠI stan
tis t
ĠP ier
Ġvi ve
he y
ĠH ern
pe tas
Ġpar am
Ġpre ÄĿoj
Ġmor on
Ġher boj
Ġ: (
Ġmar aj
Ġinkluzi vita
Ġbed a
Ġbio logia
Ġwish ed
ĠQu ijote
Ġresta rigi
On line
ĠTag oj
Ġterror ist
Ġmanifesta cio
Ġsurround ed
ĠBis aÅŃa
Ġobsc ure
Sem ajno
) ...
B el
e vo
w ik
Î ·
or row
Ġde metas
Ġb ati
Ġal flu
ĠB au
Ġun ion
Ġsta ÄĿoj
Ġokaz intaj
pro ces
19 98
ĠÄīef urbon
tain ly
Ġsol ene
15 9
ĠTer ry
Ġmalam ikojn
ĠHav ajo
Ġavent uroj
Ġadmi re
ĠNaz ia
Ġincre asingly
Ġmalgaj a
ĠCamp bell
0 67
Ġ oma
Ġd iÄĿi
li gan
ĠK li
ĠK iuj
ol in
lan k
uz on
ĠkontraÅŃ uloj
19 52
Ġbone co
Ġkar ik
Ġdeci du
Ġgen erous
Ġjo int
Ġspek tis
Ġmalaper os
Ġdemokra ta
Ġself ish
Ġkritik oj
Ġevange li
ĠBir doj
Ġfurio z
wy ck
mind ed
G re
K or
R Y
p so
Ġ uloj
Ļ Ĥ
ig inte
res oj
lan t
Ġek estas
ĠC ob
Ġas sa
Ġlo vable
Ġmon ate
Ġreg ulon
ies tra
Ġvar ojn
Ġcent ojn
Ġakcep tu
Ġfla vaj
Ġinten tions
Ġkura ÄĿon
Ġenjoy ment
09 4
Ġsid ek
ez ia
ĠMa in
Ġarb ojn
Ġalven i
Ġras oj
ĠOri ent
Ġidenti fy
Ġenmig rintoj
Ġparad izo
Ġhook ed
Ġrepeti tive
T ute
h appy
is y
Ġf esta
Ġf ilio
ed uk
Ġto ta
ĠK ent
ÅĿ tonoj
ĠP M
kon ferenco
Ġch ases
Ġsub tro
Ġup s
Ġkomun ika
men da
Ġdivers a
Ġ7 1
08 3
ĠBri d
Ġspiri tan
37 9
Ġbir dojn
ĠChar acter
cor n
Ġreturn ing
ĠEuro pa
Ġerar is
Ġkompli kaj
ya hoo
Ġgli t
Ġrequ ire
Ġfian c
Ġfundam enton
g ata
oj oj
am ar
ÅĿ ev
ĠÅĿ il
ay e
ĠW ere
Ġtrans iras
ff a
Ġbeing s
Ġpris er
Ġmalpli mul
Ġhon t
Ġflan ka
ĠkaÅŃ zon
Ġten ante
Ġnow adays
Ġdirek tita
Ġve gan
ĠbedaÅŃ r
Ġproce zoj
Ġreag as
Ġjuste con
ĠSto ck
Ġing en
Ġemer i
ĠanÄĿ eloj
Ġlege blas
ĠSoft ware
Instru kcioj
L es
b estoj
Ġp us
ĠA man
ita r
Ġmal respek
ĠH ack
ag ar
ĠAn to
Ġkons ilis
Ġr ingo
Ġplu vi
ier a
Ġaper intaj
ila r
ĠHe bre
Ġcx ion
ĠGerman s
Ġkvar taloj
Ġmed itado
Ġinc endio
ĠAli en
Ġreason able
ĠEm ily
Ġmalvar maj
ĠÅĿablon on
Ġgard as
Ġpet u
Ġpossi bility
Ġsenti mental
Ġetern aj
ĠLaw rence
Ġkl era
ĠLibere c
ĠKare l
ĠCisjord anio
A h
] ]
Ġ zon
Ġb ieron
Ġb aha
Ġti paj
ul toj
ĠM O
ĠB ed
Ġfor pu
Ġsu its
Ġek bri
ru lo
Ġmov is
Ġsub plot
Ġte a
Ġho od
Ġleg endoj
ĠPo e
Ġform atoj
ĠInter alie
ane y
Ġkonsider inde
Ġappe aring
ses io
ĠChar lotte
ĠMy ers
esperan te
Ġeksci os
ĠLud wig
ĠmaÅĿ ina
ĠMac edon
ĠVirg inia
Ġsymp ath
Ġhapp ily
Ġmeks ika
Ġlingvou zo
Ġcring e
ĠHAL E
ĠWag ner
A c
re c
ti ans
Ġe duko
Ġv u
Ġi lon
ed aÄµo
Ġre ceive
ĠR ot
Ġat entas
ĠW itch
ĠO m
Ġsta lin
Ġlong as
Ġinf ini
Ġang lo
ĠPro to
ER E
med iaj
Ġaparten anta
Ġsil ence
Ġkolek t
Ġgre koj
Ð° ÑĤ
gri za
Ġalt kva
Ġbele con
ĠSal uton
ĠaÅŃto vojo
igx u
Ġatribu as
Ġrekla m
Ġprezenta ta
ĠIJ S
Ġdetermin i
Ġaccep table
Ġforgi ve
Ġmedikam entoj
Ġmembre co
Ġappal ling
Ġchil dish
PaÅŃ lo
- "
S D
b uso
f ting
Ù Ĭ
Ġf ile
ri er
ĠL ok
ĠE instein
ik anoj
Ġra cism
Ġmor ale
ula tion
Ġkomun iko
19 8
19 92
rig ardi
Ġcar ic
Ġofici al
Ġradi ado
Ġradi osta
Ġdirek tas
Ġseks aj
ĠBu ck
Ġindividu als
Ġthrill ing
Ġpros titute
ĠUz u
ĠSuda friko
Ġwound ed
Ġhaz ardo
oling vo
ĠKva zaÅŃ
Ġin co
Ġj ure
Ġvi and
ĠH BO
ĠF ischer
ĠO wen
Ġman dato
Ġtro pikaj
pro vo
Ġkontra kton
Ġko oper
Ġkomenc aj
of te
Ġpag xo
Ġnatur sci
Ġbab il
Ġmalkov ras
ĠTom as
ĠJos h
Ġscipov is
ĠÅĿata taj
Ġsenkul p
aspek ta
Ġretum iloj
ĠdeÄµ or
Ġarmen a
Ġcab in
Ġcontrovers ial
S il
z ie
Ġde por
Ġf et
Ġe erie
Ġw est
ĠS ony
Ġfor prenis
Ġpre paro
go la
Ġare as
Ġam pli
Ġbon as
Ġfun ction
19 40
urn al
Ġfo tis
Ġgrand father
ĠÄīef minis
Ġhor ren
fin ed
Ġvar io
Ġvar bado
Ġson ojn
Ġisla maj
Ġdig no
ĠDay s
ĠbroÅĿ uro
Sud ano
Ġen mane
ĠE ST
Ġper diÄĿis
Ġsu peran
ap pro
ĠW ould
Ġpost enoj
Ġ18 92
Ġsp am
03 3
ĠÄľ en
op ini
ĠPre m
Ġjud g
Ġstri ke
ãĥ Ī
rill er
Ġstrong er
Ġtransdon as
ĠGro up
Ġachie ved
Ġkompleks aj
Ġeklo ÄĿis
1 18
V or
å °
Ġd us
Ġin dekso
Ġki cks
ch as
Ġpri mary
bo wski
Ġmon stro
01 14
Th ough
low ing
Ġkul ture
Ġrice vu
10 5
long a
ĠVik idat
09 6
ĠSu therland
ĠLu ke
Ġalian co
Ġsm ug
Ġlim igo
spe ca
Ġcra fted
Ġvend rede
ĠFer r
Ġmap on
ĠÅĿtu po
Ġsamide ano
Ġarbar on
ĠErn est
Ġspre ad
Ġpreterlas ita
ĠStras burgo
Ġsplend id
( (
G a
O kcid
Ã ¾
æ ĸ
Ġw rest
em ies
Ġpri du
Ġek pens
ĠH ur
ĠC ow
kaÅŃ sto
Ġda re
ant ly
Ġsek cion
Ġag ents
Ġka fon
Ġapar tigi
ĠJo el
Ġinteres is
ĠSte in
Ġdivid is
Ġnight mar
Ġoficiala jn
Ġglor on
Ġstrang ely
Ġmonum entoj
ĠLern u
Ġmerk at
Ġkonfer encoj
Ġadminis traj
Ġklasif ik
ĠAms terdamo
) -
P ubli
T ION
g ul
p ton
Ï ĥ
ti gan
Äī iuj
ĠA ven
ĠK now
Ġmi toj
ĠP ris
Ġsu ple
Ġpri paro
ĠN aci
ĠR he
Ġor elo
00 39
00 98
for te
aÄµ a
Ġmor tigo
Ġst umb
Ġins ularo
Ġka fe
Ġtrov u
ob y
!! !!!
Ġprin coj
07 6
ĠPa f
ĠHar vey
Ġfrem dan
Ġnut ras
ĠWal lace
Don ald
Je an
Ġinv adis
ĠOrig in
Ġexten ded
Las ta
ç¤¼åĮħç¤¼åĮħç¤¼åĮħç¤¼åĮħç¤¼åĮħç¤¼åĮħç¤¼åĮħç¤¼åĮħç¤¼åĮħç¤¼åĮħç¤¼åĮħç¤¼åĮħç¤¼åĮħç¤¼åĮħç¤¼åĮħç¤¼åĮħç¤¼åĮħç¤¼åĮħç¤¼åĮħç¤¼åĮħç¤¼åĮħç¤¼åĮħç¤¼åĮħç¤¼åĮħç¤¼åĮħç¤¼åĮħç¤¼åĮħç¤¼åĮħç¤¼åĮħç¤¼åĮħç¤¼åĮħç¤¼åĮħç¤¼åĮħç¤¼åĮħç¤¼åĮħç¤¼åĮħç¤¼åĮħç¤¼åĮħç¤¼åĮħç¤¼åĮħç¤¼åĮħç¤¼åĮħç¤¼åĮħç¤¼åĮħç¤¼åĮħç¤¼åĮħç¤¼åĮħç¤¼åĮħç¤¼åĮħç¤¼åĮħç¤¼åĮħç¤¼åĮħç¤¼åĮħç¤¼åĮħç¤¼åĮħç¤¼åĮħç¤¼åĮħç¤¼åĮħç¤¼åĮħç¤¼åĮħç¤¼åĮħç¤¼åĮħç¤¼åĮħç¤¼åĮħ ç¤¼åĮħç¤¼åĮħç¤¼åĮħç¤¼åĮħç¤¼åĮħç¤¼åĮħç¤¼åĮħç¤¼åĮħç¤¼åĮħç¤¼åĮħç¤¼åĮħç¤¼åĮħç¤¼åĮħç¤¼åĮħç¤¼åĮħç¤¼åĮħç¤¼åĮħç¤¼åĮħç¤¼åĮħç¤¼åĮħç¤¼åĮħç¤¼åĮħç¤¼åĮħç¤¼åĮħç¤¼åĮħç¤¼åĮħç¤¼åĮħç¤¼åĮħç¤¼åĮħç¤¼åĮħç¤¼åĮħç¤¼åĮħç¤¼åĮħç¤¼åĮħç¤¼åĮħç¤¼åĮħç¤¼åĮħç¤¼åĮħç¤¼åĮħç¤¼åĮħç¤¼åĮħç¤¼åĮħç¤¼åĮħç¤¼åĮħç¤¼åĮħç¤¼åĮħç¤¼åĮħç¤¼åĮħç¤¼åĮħç¤¼åĮħç¤¼åĮħç¤¼åĮħç¤¼åĮħç¤¼åĮħç¤¼åĮħç¤¼åĮħç¤¼åĮħç¤¼åĮħç¤¼åĮħç¤¼åĮħç¤¼åĮħç¤¼åĮħç¤¼åĮħç¤¼åĮħ
ffe e
ĠAlas ko
ĠREAL LY
C M
S tu
i tions
Ð ¶
Ġs var
ĠA gri
ir anta
ĠR at
Ġsub tera
Ġak iro
Ġte on
pre mis
Ġtie aj
Ġinf amous
ore g
Ġpres ident
ĠÄĿener al
Ġlead ers
ĠJu lian
ĠMor avio
Ġside jon
ĠÄĿu u
wri ters
Ġkondu tas
Ġnews paper
Ġedu ka
Ġfortun e
Ġinex pli
ĠdiÄĿi tigi
A Z
h ojn
es on
ĠI ran
ĠL omb
Ġfor no
ĠC seh
Ġim mor
Ġho ped
ĠCh ong
Ġsuper sti
Ġ9 4
Ġflu e
ĠMo ham
Ġlar ÄĿan
ĠCar penter
aran ÄĿo
Ġvet urado
ĠMc K
ãģ Ħ
ĠWar ren
Ġmalsan on
ĠSpa in
Ġemfaz is
Ġmanuskri pto
Ø§Ù Ħ
ĠJehu da
+ +
D en
S an
e on
f loro
m om
n ikaj
er ty
re lig
Ġw et
Ġin fero
ĠÄī irkau
ĠT our
ĠE as
Ġver as
ĠÄīiuj ara
enc istoj
Ġpermes ita
Ġ7 6
kam poj
ĠPro gramo
ĠRo z
Ġespri mita
Ġabs ence
far iÄĿas
Ġrimar koj
Ġsav es
Ġpozi tivaj
ĠJan u
ĠVic toria
German a
Ġpion iroj
Ġalfron ti
ĠHop kins
kurac isto
b ird
f leks
k red
Ġla mp
Ġs ings
ter min
ĠS aÄĿ
ĠS insek
ĠM ing
ĠH X
Ġtra p
Ġple ased
Ġro of
Ġkre ante
be cause
min te
Ġfon dintoj
Ġplan ado
Ġ8 7
ĠBe au
Ġuti ligis
vel t
ĠPri vat
Ġkonser vita
Ġcri tici
ĠKun s
Ġdekla ra
Ġforlas ita
Ġalpor tos
Ġgaze ta
Ġkontak tis
Ã¨ ne
Ġpardon on
Ġakuz ativo
Ġekzer ci
ĠÅĿtu p
Ġcompan ion
Ġmista ken
Ġskulp tisto
Ġfanta zi
ĠÅĿpar i
Ġalti ris
ĠPac ino
Ġspar k
ĠÄīapit roj
T ur
c ÃŃa
× Ķ
la tions
le tt
ĠS ant
ig eblaj
ĠH E
ĠF ather
ĠW all
Ġme tos
dis tan
Ġins tit
Ġvar bis
Ġrakon tos
Ġriver eto
Ġekzis tantajn
Ġmalsam as
Ġpaper on
Ġpros titu
Ġstrate gion
Ġfinanc ajn
ĠMis sion
nok te
ĠZagre bo
Ġenme titaj
" [
K la
r uloj
è ª
ï ½
Ġa ÄĿon
ĠL ot
di ko
ran e
ĠÅĿ elo
ĠâĢ ĭ
ĠG ros
Ġnot ch
lin ess
ej aj
Ġed zon
Ġlu po
Ġmalpli igi
Ġves ton
Ġkill ings
Ġaran ÄĿojn
ĠHar z
Ġsign s
ĠTer mino
Äľ ia
Ġkas tel
Ġblow s
Ġjur isto
Ġble ak
Ġpentris toj
R ob
in tern
Ġp ento
Ġd ic
Ġs elling
te blan
ĠA w
ĠD emo
de velo
ĠR EU
Ġar ka
Ġmor fo
pa tion
Ġte zo
urn alo
ĠRe yn
Ġplu vas
Ġ7 8
Ġru th
Ġkvar ono
Ġrefer encoj
Ġpriva tan
Ġalpor tu
Ġimportant ly
Ġallow ing
cen zo
Ġmeaning ful
Ġkonsekven coj
Ġalproksim iÄĿis
ÅĿte jn
Ġaccompl ished
Ġprefik so
ĠFara ono
l ds
Ã ®
Ġd rum
an tas
Ġes peri
ĠM Ã¼n
ÅĿ tu
Ġar de
Ġsta ranta
Ġ3 50
Ġag u
Ġ7 68
Ġson s
Ġpur pos
ĠEsperantis taj
Ġstan do
Ġpolic anoj
Fin fine
ĠStran ge
Ġkonform as
ĠJess ica
Ġcompeti tion
i uloj
v juo
Ä Ĺ
Ġ ujo
te orio
at eri
Ġto po
ĠB L
Ġmal ler
ver bo
ĠHe y
ĠAr ki
Ġleg omoj
ĠUnivers alaj
Mal fer
Ġignor ed
Ġmagaz ino
koti zo
ĠÄīem izo
Ġgrandio za
Ġhyster ical
m ic
p ilo
en zo
li te
ĠA B
di ÄĿon
Ġsci entists
Ġro lis
ĠKom entoj
Ġmen uo
Ġci tita
Ġfi ere
Ġspiri tual
Ġmez lernejo
Ġkris tano
Ġpac aj
Ġportra it
kato lo
Ġliver is
Ġlernej ojn
ĠOli mp
G F
in ks
Ġla unch
li ch
Ġb old
un kci
Ġof ero
ĠP am
Ġinter komunik
Ġpar olon
Ġmon arkio
ĠW ÅĤ
Ġme lanko
Ġra cie
Ġnom brojn
be ck
ĠAl ong
ĠÄµ aÅŃ
ans son
Ġele ganta
Ġhal tigis
ĠHo od
Ġnu ligi
Ġdep one
Ġdan ci
Ġunue ca
Ġdirek toj
Ġkarakter oj
Ġca using
ĠEng el
ĠÅĿton a
Ġfiz io
Ġradika la
Ġkno ck
Ġlesson s
ĠStanis ÅĤaw
Ġburi ed
B ah
b ov
b ent
la g
Ġan tics
Ġsen ds
Ġdo ors
ca ust
Ġgo tika
Ġro w
ĠKom isi
Ġok upo
19 89
ila toj
Ġci tizens
ĠPo or
Ġbar ak
ĠSer gio
Ġrif uzi
Ġkomputi laj
Ġkunven as
El ÅĿutita
Ġdese gno
Ġsimbo las
Ġheav en
Ġkonserv iÄĿis
Ġorient en
Ġprojec ts
Ġkalum ni
A I
M ad
Â ĸ
ĠK ana
ĠK iller
ek e
ĠB ank
Ġpar koj
Ġmin ister
ĠKom is
19 90
Ġ8 1
Ġkonstru ata
Ġsp ring
Ġmur on
Ġklas i
Ġeli ro
ĠBro ok
Ðµ ÑĤ
ĠTer min
ĠAp ol
Ġmad ness
Ġkvadra ta
Ġsul f
Ki pro
Ġportre to
Ġheli cop
) "
Ġa me
Ġde bu
ĠH EA
Ġak to
ĠÄĪ ambro
Ġr hy
pi aj
19 87
Ġcer tajn
Ġlin iojn
plo ts
48 7
ĠPl ur
dos iero
Ġoportun e
ĠÅł vÃ¡
ĠIsla mo
Ġvideb lis
serv atorio
Ġunfor gettable
p ago
Ġt us
Ġb ato
Ġper tur
Ġek zo
ĠF EL
Ġpre ced
me tita
Ġsta mp
Ġgra don
tic ks
Ġtri te
Ġmar oj
Ġkonstru adon
ĠLe v
Ġset lejoj
Ġhon to
Ġdefin ite
ĠQ ua
Ġanali zon
Ġthrill ers
Ġkonfes is
Ġbrief ly
Ġbap to
KK A
Ġgor ÄĿo
Ġabstra kta
Ġokcident en
Ġwid ow
hat tan
Ġdiscip lin
ä ¼
le bla
ĠS R
ĠC age
ke joj
lu ded
Ġam us
Ġser vanto
ali gi
Ġdon us
Ġter oj
Ġmala mas
Ġdev igi
ĠPar iza
Ġmis tero
." [
ser voj
Ġsufi che
ĠÃ ¾
paro lado
Ġlud ojn
Ġscienc ajn
ju ÄĿ
ĠMat thew
Ġdest ino
Ġpromen is
ĠmalÅĿ ar
Wor ld
×ķ ×
âĵ ı
H am
I ts
k tik
s us
in deco
Ġs mas
ta d
Ġre luc
Ġne eble
ĠE b
ĠM it
ĠG ive
Ġap pla
Ġpla gue
Ġren de
we b
ori ties
Ġmalfaci lan
Ġran k
Ġkoncern antaj
Ġbab ilis
ric s
ĠSil ver
Ġkem iaj
Ġade ptoj
uni vers
ĠKub rick
ĠFAR K
ĠÅłvÃ¡ Äįek
m ith
w itz
in fan
Ġla cked
re ÄĿo
Ġh ug
Ġal kro
ĠL it
ĠA y
Ġis ola
ĠC ab
ag ain
Ġor elojn
ow a
Ġar mita
Ġman ov
Ġtra fe
Ġsh am
Ġnot es
Ġnot ojn
ho f
Ġpas io
Ġ7 9
Ġkri as
Ġsukces i
16 6
ĠÄĪe fa
reta ry
Ġtru oj
ĠGran de
Ġsho es
Ġspo ts
ju k
Ġcor rup
Ġconsider able
Ġhun gare
Ġprotek tado
Ġpleasant ly
Ġgradu ally
rze j
F er
e tis
i om
Ġt esto
is mojn
ri m
Ġti mi
ĠE vid
ĠK oro
Ġmal lum
ĠEsperan tajn
Ġfar igxis
tle y
Ġter glo
tur ojn
Ġneces on
Ġwork ers
Ġdra mas
Ġsex ually
Ġideo logia
Ġenkonduk ita
Ġens al
cra tic
ĠSem inario
Ġkr urojn
Ġsocialis maj
amik inoj
ĠAnstataÅŃ e
Ph one
Ġelef anto
Ġherbe joj
t ris
å Ń
Ġs mar
Ġf ed
le ct
Ġh aj
te ch
Ġo ught
ĠL ins
ĠÄīi Äīeron
iÄĿ intan
ĠR an
Ġlan Äīi
Ġst ress
Ġsek ret
Ġad ul
Ġenhav i
17 8
Ġele gant
ĠÅľi aj
Ġreason ably
Ġgla ta
66 6
Ġrevolu cion
lum in
ĠKris ton
Ġvide oj
Ġinterkons enti
Ġsimile co
ĠRon do
Ġfier as
Ġimagina tive
ĠKof fi
n ÃŃ
Ġti ovani
di vido
ĠB ette
co ol
Ġpar ent
Ġali ke
Ġsen move
ĠW en
ĠO ks
Ġreg ul
Ġst ur
Ä¥ io
ĠÄīef vojo
ĠDe taloj
ER N
Ġuti le
ĠSek vis
bre aking
Ġdekla rita
nom bro
Åľ ajnas
Ġfal os
Ġfid indaj
Ġdro wn
Ġvide ojn
ĠStan wyck
ĠRod is
Ġelmon tro
Ġmalkres kis
Ġmelodrama tic
ĠRik ardo
fond into
g reat
g ista
Î º
is ation
Ġh en
Ġw ars
Ġes encaj
Ġin time
ĠL O
ĠL anti
ĠB ap
ĠD od
ĠÄĪ ika
Ġspe cojn
rin ta
pl oro
Ġ8 9
Ġsignif aj
Ġajn aj
Ġwar n
ĠEd gar
Ġimpres oj
Ġnord oriento
Ġcele bris
Ġpripens as
Ġdistribu o
Ġnone theless
Ġalterna tive
Ġavent uro
Ġsmo king
ĠSor ry
Ġegal raj
Ġrikol to
ĠVas ili
Mov ado
Ġnefor gese
Ġsubsequ ent
G E
R ig
V ery
c xo
s ie
la ron
Ġk iss
ri or
Ġe jon
Ġc ros
ĠL Ã¶
ĠM IME
um omente
im s
de zi
Ġbut t
mon taro
ser ies
Ġapud aj
Ġvalor an
ĠEd mund
ĠÄīes os
Ġhope fully
Ġmaldek stren
Ġoffer ing
Ġadminist rantoj
Ġkver ko
Ġbreath taking
Ġesta te
ĠCur tis
Ġalin eo
Ġresem bles
Ġcard board
ĠVrocla vo
l ist
Ġa ce
ĠR ight
ĠV ento
Ġpre cious
ĠÄīar maj
Ġaldon iÄĿis
Ġpermes u
Ġkla ras
kom panio
ob jek
ĠNov embro
Ġredak to
Ġna iva
Ġarb ustoj
ĠFrank furto
Ġrepu tacion
Ġlibr ary
Fin ally
Ġincid ent
rimed oj
: )
S or
Ġ !!!
Ġ ðŁ
es se
li ca
Ġf ala
Ġof ficial
ran d
ĠN eo
Ġri zo
ks ido
Ġhom aron
qu ith
Ġsk emoj
Ġkor tuÅĿ
Ġplu ajn
Ġbu cks
Ġdra ko
Ġangla lingvaj
Ġpun k
Ġmil de
pozi cion
Ġseks oj
Ġserio zan
ĠBen ny
Ġfac ed
Ġanno yed
ĠEr tl
ĠFre eman
ĠEgip ta
Ġattra ction
Ġkanton a
Ġrezolu cion
Ġmotiva tion
Ġtol eri
Ġvendre do
Ġaristo kra
Ġelder ly
6 00
B LE
al menaÅŃ
Ġne cer
il li
Ġj erk
Ġmov ements
ap p
Ġri beloj
Ġle ÄĿaro
Ġman u
Ġres ume
ca tive
Ġsub jects
Ġex posed
pa tio
por tu
Ġfe ars
Ġang loj
Ġkam pojn
Ġsimp lajn
ĠÄīam brojn
Ġgri mp
Ġtrin kas
Ġmedic in
Ġfenom enon
Ġdetermin as
ĠParto prenantoj
ĠÅĿa foj
materi aloj
ĠFan tas
ĠDip atrino
Ġtrotu aro
Ġnene ces
H on
c istoj
È Ļ
Ġes tigas
ĠD im
Ġek kompren
ĠH ok
kon io
Ġse ÄĿoj
est rino
Ġad vok
Ġfun eb
ĠÅ ļ
Ġ18 94
ĠHe ctor
ĠSo lo
sen ca
Ġunuan ime
ĠaÄīe to
Ġtor tured
Ġeduk adon
Ġtrin kejo
Ġner ek
ĠIS AE
Ġbank ro
Ġattra cted
Ġglo b
Ġbl end
sem inario
watch able
ĠSinsek vaj
S till
f one
o do
ĠC ul
Ġle go
Ġsur strate
ĠantaÅŃ nelonge
Ġim ita
[...]
