{"<s>":0,"<pad>":1,"</s>":2,"<unk>":3,"<mask>":4,"!":5,"\"":6,"#":7,"$":8,"%":9,"&":10,"'":11,"(":12,")":13,"*":14,"+":15,",":16,"-":17,".":18,"/":19,"0":20,"1":21,"2":22,"3":23,"4":24,"5":25,"6":26,"7":27,"8":28,"9":29,":":30,";":31,"<":32,"=":33,">":34,"?":35,"@":36,"A":37,"B":38,"C":39,"D":40,"E":41,"F":42,"G":43,"H":44,"I":45,"J":46,"K":47,"L":48,"M":49,"N":50,"O":51,"P":52,"Q":53,"R":54,"S":55,"T":56,"U":57,"V":58,"W":59,"X":60,"Y":61,"Z":62,"[":63,"\\":64,"]":65,"^":66,"_":67,"`":68,"a":69,"b":70,"c":71,"d":72,"e":73,"f":74,"g":75,"h":76,"i":77,"j":78,"k":79,"l":80,"m":81,"n":82,"o":83,"p":84,"q":85,"r":86,"s":87,"t":88,"u":89,"v":90,"w":91,"x":92,"y":93,"z":94,"{":95,"|":96,"}":97,"~":98,"¡":99,"¢":100,"£":101,"¤":102,"¥":103,"¦":104,"§":105,"¨":106,"©":107,"ª":108,"«":109,"¬":110,"®":111,"¯":112,"°":113,"±":114,"²":115,"³":116,"´":117,"µ":118,"¶":119,"·":120,"¸":121,"¹":122,"º":123,"»":124,"¼":125,"½":126,"¾":127,"¿":128,"À":129,"Á":130,"Â":131,"Ã":132,"Ä":133,"Å":134,"Æ":135,"Ç":136,"È":137,"É":138,"Ê":139,"Ë":140,"Ì":141,"Í":142,"Î":143,"Ï":144,"Ð":145,"Ñ":146,"Ò":147,"Ó":148,"Ô":149,"Õ":150,"Ö":151,"×":152,"Ø":153,"Ù":154,"Ú":155,"Û":156,"Ü":157,"Ý":158,"Þ":159,"ß":160,"à":161,"á":162,"â":163,"ã":164,"ä":165,"å":166,"æ":167,"ç":168,"è":169,"é":170,"ê":171,"ë":172,"ì":173,"í":174,"î":175,"ï":176,"ð":177,"ñ":178,"ò":179,"ó":180,"ô":181,"õ":182,"ö":183,"÷":184,"ø":185,"ù":186,"ú":187,"û":188,"ü":189,"ý":190,"þ":191,"ÿ":192,"Ā":193,"ā":194,"Ă":195,"ă":196,"Ą":197,"ą":198,"Ć":199,"ć":200,"Ĉ":201,"ĉ":202,"Ċ":203,"ċ":204,"Č":205,"č":206,"Ď":207,"ď":208,"Đ":209,"đ":210,"Ē":211,"ē":212,"Ĕ":213,"ĕ":214,"Ė":215,"ė":216,"Ę":217,"ę":218,"Ě":219,"ě":220,"Ĝ":221,"ĝ":222,"Ğ":223,"ğ":224,"Ġ":225,"ġ":226,"Ģ":227,"ģ":228,"Ĥ":229,"ĥ":230,"Ħ":231,"ħ":232,"Ĩ":233,"ĩ":234,"Ī":235,"ī":236,"Ĭ":237,"ĭ":238,"Į":239,"į":240,"İ":241,"ı":242,"Ĳ":243,"ĳ":244,"Ĵ":245,"ĵ":246,"Ķ":247,"ķ":248,"ĸ":249,"Ĺ":250,"ĺ":251,"Ļ":252,"ļ":253,"Ľ":254,"ľ":255,"Ŀ":256,"ŀ":257,"Ł":258,"ł":259,"Ń":260,"la":261,"Ġa":262,"Ġt":263,"on":264,"Ġk":265,"en":266,"er":267,"in":268,"is":269,"Ġp":270,"Ġd":271,"Ġla":272,"Ġs":273,"ta":274,"an":275,"oj":276,"es":277,"or":278,"Ġm":279,"aj":280,"Ġde":281,"Ġth":282,"li":283,"as":284,"re":285,"Ġf":286,"ar":287,"Ġn":288,"om":289,"ti":290,"ri":291,"le":292,"Ġh":293,"Ġb":294,"un":295,"to":296,"Ġe":297,"ro":298,"Ġkaj":299,"Ġthe":300,"te":301,"Ġw":302,"al":303,"Ġo":304,"Ġv":305,"ÄĿ":306,"Ġes":307,"Ġen":308,"Ġan":309,"ra":310,"Äī":311,"ÅŃ":312,"ing":313,"Ġin":314,"Ġc":315,"Ġi":316,"lo":317,"Ġal":318,"at":319,"am":320,"ci":321,"ed":322,"Ġki":323,"el":324,"ur":325,"Ġg":326,"us":327,"tas":328,"Ġti":329,"ov":330,"ter":331,"Ġof":332,"Ġre":333,"ul":334,"ad":335,"os":336,"ĠÄī":337,"Ġto":338,"Ġand":339,"ĠS":340,"ĠI":341,"Ġli":342,"ojn":343,"Ġne":344,"ĠT":345,"io":346,"il":347,"ig":348,"Ġestas":349,"ĠL":350,"id":351,"ĠA":352,"ĠE":353,"ĠK":354,"th":355,"Ġj":356,"ka":357,"ent":358,"ĠM":359,"Ġ(":360,"em":361,"per":362,"tis":363,"ut":364,"Ġkon":365,"br":366,"ir":367,"âĢ":368,"ÅĿ":369,"Ġpor":370,"um":371,"ly":372,"ita":373,"av":374,"Ġis":375,"Ġmi":376,"ol":377,"Ġon":378,"ĠP":379,"ek":380,"Ġpro":381,"toj":382,"di":383,"Ġvi":384,"Ġ1":385,"Ġ/":386,"ch":387,"im":388,"Ġbe":389,"Ġ/>":390,"do":391,"Ġl":392,"ce":393,"ran":394,"uj":395,"ĠB":396,"ko":397,"Ġper":398,"Ġfor":399,"Ġmal":400,"ĠÄĿ":401,"Ġsu":402,"Ġit":403,"taj":404,"Ġke":405,"ver":406,"Ġpri":407,"ia":408,"he":409,"ĠD":410,"res":411,"ĠN":412,"Ġkun":413,"Ġwh":414,"et":415,"Ġel":416,"ajn":417,"ĠÄīi":418,"ak":419,"lan":420,"Ġun":421,"tu":422,"Ġek":423,"tt":424,"co":425,"Äµ":426,"po":427,"ru":428,"Ġthat":429,"Ġ\"":430,"ie":431,"ĠLa":432,"iÄĿ":433,"ĠÅĿ":434,"ĠH":435,"pe":436,"kon":437,"de":438,"Ġhav":439,"tan":440,"Ġse":441,"Ġestis":442,"st":443,"'s":444,"da":445,"ĠC":446,"..":447,"ve":448,"peran":449,"ĠâĢ":450,"ere":451,"ĠF":452,"tor":453,"ou":454,"ĠR":455,"Ġkom":456,"ble":457,"las":458,"Ġ2":459,"Ġas":460,"com":461,"ĠV":462,"ĠG":463,"Ġthis":464,"ag":465,"ĠaÅŃ":466,"Ġmov":467,"mo":468,"Ġlo":469,"uz":470,"Ġno":471,"ke":472,"ĠJ":473,"bo":474,"Ġinter":475,"Ġfil":476,"ton":477,"aÅŃ":478,"Ġkiu":479,"Ġpar":480,"ap":481,"Ġri":482,"ith":483,"ic":484,"Ġy":485,"tion":486,"Ġpli":487,"Ġwas":488,"Ġor":489,"don":490,"ww":491,"ren":492,"vo":493,"Ġdi":494,"Ġdis":495,"Ġpre":496,"Ġpo":497,"ac":498,"Ġkiel":499,"Ġfilm":500,"00":501,"Ġ/><":502,"ado":503,"Ġwith":504,"kaÅŃ":505,"ĠEs":506,"ĠÄ":507,"rom":508,"aci":509,"ow":510,"Ġpov":511,"Ġver":512,"Ġat":513,"ost":514,"man":515,"Ġni":516,"gh":517,"one":518,"Ġili":519,"du":520,"Ġunu":521,"ik":522,"for":523,"ay":524,"La":525,"ven":526,"ion":527,"Ġsi":528,"Ġali":529,"Ġmovie":530,"Ġhe":531,"it":532,"Ġtiu":533,"Ġso":534,"Ġhis":535,"Ġ-":536,"Ġsen":537,"lu":538,"Ġmon":539,"va":540,"Ġdo":541,"Ġsed":542,"ome":543,"ino":544,"Ġap":545,"od":546,"Ġle":547,"tra":548,"ĠW":549,"ks":550,"ĠEsperan":551,"ma":552,"Ġsur":553,"me":554,"ĠO":555,"ĠU":556,"ĠÄīe":557,"ong":558,"aro":559,".<":560,"ment":561,"vi":562,"jo":563,"Ġ19":564,"Ġar":565,"ĠThe":566,"fer":567,"ten":568,"ab":569,"aÄµ":570,"ple":571,"est":572,"ris":573,"Ġman":574,"'t":575,"ala":576,"Ġbut":577,"ĠÄĿi":578,"Ġtra":579,"Ġoni":580,"Ġch":581,"Ġuz":582,"Ġfar":583,"rib":584,"go":585,"Ġkiuj":586,"end":587,"Ġme":588,"ted":589,"Ġsh":590,"taÅŃ":591,"Ġdu":592,"Ġra":593,"Ġare":594,"ni":595,"diÄī":596,"Ġling":597,"Ġyou":598,"ge":599,"ata":600,"Ġres":601,"ard":602,"ally":603,"up":604,"Ġple":605,"ca":606,"Ġac":607,"Ġgo":608,"gi":609,"ÄĿo":610,").":611,"ĠankaÅŃ":612,"uld":613,"Ġsta":614,"Ġmor":615,"ts":616,"ĠlaÅŃ":617,"tle":618,"Ġsub":619,"ust":620,"ould":621,"cio":622,"Ġpovas":623,"Ġnot":624,"Ġhave":625,"pon":626,"ero":627,"so":628,"ther":629,"bor":630,"Ġmin":631,"Ġ3":632,"Ġtio":633,"ĠMi":634,"Ġak":635,"ces":636,"ĠAn":637,"ĠEsperanto":638,"itaj":639,"zo":640,"Ġam":641,"Ġplej":642,"son":643,"ern":644,"//":645,"01":646,"ite":647,"ttp":648,"://":649,"pren":650,"Ġhom":651,"Ġnur":652,"fe":653,"Ġda":654,"ments":655,"Ġmem":656,"ento":657,"ting":658,"ĠÄĪ":659,"ok":660,"vas":661,"gan":662,"Ġmul":663,"),":664,"ck":665,"www":666,"ud":667,"ilo":668,"ber":669,"se":670,"Ġkons":671,"Ġex":672,"Ġnom":673,"...":674,"http":675,"db":676,"Ġtro":677,"blas":678,"Ġekz":679,"user":680,"ub":681,"title":682,"Ġsome":683,"Ġone":684,"imdb":685,"comments":686,"usercomments":687,"ĠEn":688,"ell":689,"fi":690,"Ġfin":691,"gra":692,"ga":693,"Ġjar":694,"Ġcom":695,"van":696,"bro":697,"Ġsam":698,"Ġdum":699,"vis":700,"duk":701,"zi":702,"Ġsc":703,"Ġwho":704,"und":705,"eo":706,"ĠLi":707,"tr":708,"Ġgran":709,"mes":710,"Ġby":711,"Ġreg":712,"qu":713,"pa":714,"ĠIn":715,"vid":716,"ĠÅĿi":717,"tem":718,"Ġr":719,"and":720,"tojn":721,"ĠTh":722,"Ġtem":723,"ens":724,"ĠantaÅŃ":725,"eks":726,"ess":727,"Ġtu":728,"Ġol":729,"amen":730,"con":731,"Ġpl":732,"Ġnov":733,"Ġall":734,"dis":735,"laj":736,"vers":737,"Ġher":738,"por":739,"Ġser":740,"alo":741,"âĢĿ":742,"uti":743,"az":744,"ll":745,"uloj":746,"kaz":747,"Ġcon":748,"Ġtre":749,"ali":750,"isto":751,"kaj":752,"Ġfrom":753,"loj":754,"Ġlan":755,"Ġpost":756,"no":757,"Ġsin":758,"Ġvid":759,"iÄĿis":760,"ers":761,"lin":762,"par":763,"Ġwor":764,"Ġthey":765,"aÄµo":766,"iu":767,"mon":768,"ĠNe":769,"lek":770,"Ġeks":771,"doj":772,"Ġgra":773,"igh":774,"ante":775,"ÄĿis":776,"ron":777,"Ġout":778,"Ġpos":779,"Ġsci":780,"Ġdon":781,"kondiÄī":782,"ili":783,"Ġim":784,"ulo":785,"Ġsim":786,"Ġhavas":787,"Ġlike":788,"Ġ:":789,"vol":790,"Ġest":791,"Ġnun":792,"stru":793,"Ġst":794,"Ġur":795,"ate":796,"Ġpa":797,"ki":798,"ĠÄīiuj":799,"ist":800,"ĠÂ":801,"ne":802,"oro":803,"Ġfe":804,"Ġdir":805,"are":806,"tita":807,"use":808,"Ġokaz":809,"Ġjam":810,"Ġbon":811,"ant":812,"Ġro":813,"Ġhas":814,"Ġsek":815,"tic":816,"Ġkiam":817,"bout":818,"enc":819,"Ġesperan":820,"pi":821,"sta":822,"Ġpla":823,"roj":824,"ale":825,"Ġabout":826,"Ġeble":827,"Ġte":828,"voj":829,"iz":830,"Ġven":831,"Ġmak":832,"ĠKom":833,"ies":834,"ano":835,"ĠÄīar":836,"enta":837,"Ġchar":838,"ine":839,"ĠâĢĶ":840,"pro":841,"our":842,"Ġnen":843,"Ġter":844,"Ġtiuj":845,"ich":846,"Ġjust":847,"ura":848,"Ġtri":849,"Ġje":850,"ĠâĢľ":851,"Ġlabor":852,"ľi":853,"ribu":854,"atch":855,"Ġcan":856,"Ġkontra":857,"tik":858,"Ġaldon":859,"ĠÄĿis":860,"Ġspe":861,"igi":862,"ĠÄĿin":863,"Ġsia":864,"ast":865,"ry":866,"ough":867,"ĠIt":868,"Ġad":869,"ula":870,"ara":871,"Ġsk":872,"ling":873,"antoj":874,"tig":875,"Ġvor":876,"rin":877,"Ġkre":878,"anta":879,"pre":880,"anoj":881,"ono":882,"ugh":883,"Ġlingvo":884,"Ġtran":885,"thing":886,"Ġvo":887,"ure":888,"Ġbo":889,"Ġesti":890,"Ġup":891,"Ġok":892,"anto":893,"Ġ201":894,"ĠKaj":895,"ene":896,"form":897,"Ġaliaj":898,"acter":899,"iÄĿas":900,"ĠSe":901,"ence":902,"tory":903,"ill":904,"be":905,"Ġfun":906,"istoj":907,"ty":908,"Ġins":909,"The":910,"Ġpermes":911,"der":912,"Ġcharacter":913,"Ġmar":914,"koj":915,"Ġ4":916,"tos":917,"Ġany":918,"Ġgood":919,"Ġkel":920,"erman":921,"uro":922,"cep":923,"ï¿":924,"ï¿½":925,"ĠkontraÅŃ":926,"Ġmore":927,"Ġever":928,"iam":929,"ina":930,"pan":931,"ho":932,"na":933,"si":934,"ind":935,"Ġteks":936,"tribu":937,"ip":938,"Ġget":939,"ile":940,"Ġag":941,"Ġkomun":942,"Ġwe":943,"Ġparto":944,"Ġwould":945,"tajn":946,"pl":947,"Ġthere":948,"lig":949,"tive":950,"Ġmy":951,"Ġ[":952,"ĠMar":953,"Ġ200":954,"Ġvery":955,"ful":956,"Ġfam":957,"ener":958,"Ġwatch":959,"all":960,"Ġwhat":961,"ank":962,"Ġtie":963,"reat":964,"Ġjaroj":965,"Ġprez":966,"ide":967,"umo":968,"Ġsee":969,"ĠeÄī":970,"Ġtiel":971,"aÄĿ":972,"ubli":973,"Ġdeta":974,"kor":975,"vin":976,"Ġhel":977,"Ġho":978,"Ġ5":979,"lio":980,"Ġlong":981,"Ġhad":982,"ct":983,"Ġhim":984,"log":985,"iko":986,"bla":987,"kto":988,"tiko":989,"tro":990,"uch":991,"eno":992,"19":993,"Ġinf":994,"ze":995,"Ġtime":996,"rea":997,"Ġkap":998,"pli":999,"ĠSed":1000,"zon":1001,"ĠZ":1002,"Ġdire":1003,"Ġstory":1004,"Ġkor":1005,"Ġus":1006,"urn":1007,"Ġko":1008,"pen":1009,"men":1010,"Ġtheir":1011,"ĠâĢĵ":1012,"cid":1013,"Ġdisp":1014,"Ġshe":1015,"Ġwhen":1016,"acia":1017,"Ġfo":1018,"Ġeven":1019,"Ġkn":1020,"Ġmia":1021,"ĠCh":1022,"ĠkondiÄī":1023,"ĠAl":1024,"Ġsian":1025,"ras":1026,"Ġtag":1027,"Ġwhich":1028,"rig":1029,"Ġstu":1030,"ĠRe":1031,"Ġteksto":1032,"Ġwere":1033,"ves":1034,"Ġmili":1035,"Ġcer":1036,"ang":1037,"ĠÄīiu":1038,"ung":1039,"Ġapli":1040,"Ä¥":1041,"min":1042,"Ġdevas":1043,"Ġtrans":1044,"Ġlin":1045,"lando":1046,"ph":1047,"Ġmo":1048,"ave":1049,"ĠKomun":1050,"Ġonly":1051,"ĠÅ":1052,"Ġif":1053,"anÄĿ":1054,"En":1055,"Ġperson":1056,"ord":1057,"Ġhomoj":1058,"Ġ'":1059,"uo":1060,"ore":1061,"Ġab":1062,"Ġfir":1063,"Ġreally":1064,"Ġother":1065,"ismo":1066,"Ġgrand":1067,"Ġsig":1068,"Ġaf":1069,"ack":1070,"ink":1071,"Ġ18":1072,"Ġshow":1073,"Ġpoli":1074,"ĠVid":1075,"Ġka":1076,"lon":1077,"Ġapar":1078,"Ġpas":1079,"ĠkondiÄīoj":1080,"Ġdid":1081,"igis":1082,"pek":1083,"ĠÄīef":1084,"ask":1085,"mer":1086,"Ġplu":1087,"von":1088,"ej":1089,"entoj":1090,"ĠÄľi":1091,"ue":1092,"Ġkiun":1093,"ier":1094,"ose":1095,"Äµo":1096,"istas":1097,"Ġqu":1098,"Ġend":1099,"ÅŃro":1100,"omo":1101,"Ġspeci":1102,"ese":1103,"Ġob":1104,"Ġdispone":1105,"Ġpres":1106,"Ġkie":1107,"ade":1108,"Ġide":1109,"wo":1110,"ight":1111,"Ġthan":1112,"Ġpermesilo":1113,"ame":1114,"Ġfra":1115,"ĠinK":1116,"ars":1117,"Äīe":1118,"Ġunua":1119,"bon":1120,"Ġdetaloj":1121,"iel":1122,"tern":1123,"Ġsuper":1124,"Ġaper":1125,"ĠVidu":1126,"ep":1127,"Ġdoes":1128,"vaj":1129,"Ġ|":1130,"ku":1131,"Ġorgan":1132,"tri":1133,"Ġhor":1134,"Ġthem":1135,"ÄĿas":1136,"Ġurbo":1137,"Ġtak":1138,"Ġpat":1139,"Ġmultaj":1140,"pri":1141,"tio":1142,"ĠÂ«":1143,"ĠY":1144,"ish":1145,"Ġelek":1146,"ys":1147,"Ġvir":1148,"oje":1149,"Ġtiun":1150,"tin":1151,"Ġlern":1152,"Ġmen":1153,"Ġlia":1154,"Sam":1155,"Ġbeen":1156,"ksim":1157,"ejo":1158,"Ġparo":1159,"Ġkio":1160,"ĠĠ":1161,"ĠVi":1162,"Ġjun":1163,"sk":1164,"Ġgreat":1165,"ĠUn":1166,"Ġmals":1167,"\",":1168,"ĠKrea":1169,"ĠKomunaÄµo":1170,"Ġang":1171,"ach":1172,"Ġnia":1173,"Ġcould":1174,"kondiÄīe":1175,"ĠAtribu":1176,"\".":1177,"Ġinto":1178,"mi":1179,"sel":1180,"Ġplen":1181,"wn":1182,"Ġgranda":1183,"int":1184,"igo":1185,"ista":1186,"var":1187,"Ġmuch":1188,"Ġaplike":1189,"Ġstar":1190,"Ġaldonaj":1191,"Ġbad":1192,"ĠAtribuite":1193,"ath":1194,"tions":1195,"SamkondiÄīe":1196,"kondiÄīojn":1197,"Ġbet":1198,"Ġdisponeblas":1199,"aptita":1200,"eople":1201,"Ġfon":1202,"Ġef":1203,"Th":1204,"eri":1205,"Ġdivers":1206,"Ġhow":1207,"ĠNi":1208,"za":1209,"ĠuzkondiÄīojn":1210,"adaptita":1211,"ĠNeadaptita":1212,"ds":1213,"Ġaplikeblas":1214,"way":1215,"Ġover":1216,"Ġren":1217,"adon":1218,"Äµoj":1219,"Ġdek":1220,"Ġkompren":1221,"moj":1222,"rio":1223,"cause":1224,"tur":1225,"Ġco":1226,"ĠAnd":1227,"ici":1228,"Ġknow":1229,"Ġkla":1230,"jn":1231,"Ġjaro":1232,"Ġwill":1233,"volu":1234,"ana":1235,"Ġafer":1236,"Ġpubli":1237,"Ġop":1238,"Ġpe":1239,"Ġmat":1240,"Ġmost":1241,"åĮ":1242,"ç¤":1243,"mar":1244,"Ġankor":1245,"Ġwell":1246,"ç¤¼":1247,"âĢ¦":1248,"åĮħ":1249,"Ġtion":1250,"ç¤¼åĮħ":1251,"ç¤¼åĮħç¤¼åĮħ":1252,"Ġplan":1253,"Ġmondo":1254,"Ġpeople":1255,"tika":1256,"ĠThis":1257,"Ã©":1258,"Ġtute":1259,"Ġce":1260,"Ġrespon":1261,"cent":1262,"gres":1263,"Ġtrov":1264,"ÄĪ":1265,"Ġ6":1266,"Ġdiris":1267,"Ġsti":1268,"kom":1269,"Ġprof":1270,"Ġway":1271,"ila":1272,"low":1273,"Ġsa":1274,"itan":1275,"ĠJo":1276,"Ġmala":1277,"Ġposte":1278,"ĠÄīu":1279,"Ġfak":1280,"raj":1281,"Ġgi":1282,"Â»":1283,"das":1284,"Ġtiam":1285,"ux":1286,"Ã¡":1287,"Ġilin":1288,"ved":1289,"fin":1290,"Ġkul":1291,"Mi":1292,"Ġrice":1293,"Ġbone":1294,"Ġvoj":1295,"Ġbecause":1296,"ĠFran":1297,"Ġorig":1298,"ght":1299,"Ġevery":1300,"Ġsame":1301,"Ġsoci":1302,"irkaÅŃ":1303,"fo":1304,"Ġiom":1305,"ĠDe":1306,"poj":1307,"Ġtamen":1308,"Ġvin":1309,"Ġhistor":1310,"hav":1311,"ato":1312,"Ġintern":1313,"ĠâĢ¢":1314,"âĢĶ":1315,"Ġestos":1316,"Ġiu":1317,"ĠHe":1318,"kis":1319,"Ġ7":1320,"Ġmake":1321,"Ġfirst":1322,"ious":1323,"Ġthink":1324,"tempe":1325,"Ġvar":1326,"Ġgu":1327,"Ġma":1328,"Ġ8":1329,"able":1330,"Ġdeman":1331,"ĠWh":1332,"ĠankoraÅŃ":1333,"ian":1334,"red":1335,"Ġvia":1336,"ob":1337,"Ġthing":1338,"lie":1339,"Ġfa":1340,"tain":1341,"Ġmade":1342,"enco":1343,"ove":1344,"ff":1345,"Ġdes":1346,"Ġpra":1347,"Ġpens":1348,"Ġkar":1349,"Ġprop":1350,"ny":1351,"ente":1352,"Ġkelkaj":1353,"tiv":1354,"Ġrila":1355,"kces":1356,"Ġskrib":1357,"enti":1358,"Ġalia":1359,"ild":1360,"aÄµoj":1361,"Ġtempo":1362,"age":1363,"ĠAr":1364,"land":1365,"EA":1366,"Ġmulte":1367,"Ġalso":1368,"Ġthough":1369,"Ġrez":1370,"coj":1371,"igas":1372,"ĠloÄĿ":1373,"pla":1374,"iuj":1375,"ot":1376,"Ġpartopren":1377,"Ġesperantis":1378,"Ġdev":1379,"tado":1380,"Ġnor":1381,"Ġsol":1382,"Ġits":1383,"10":1384,"Ġinform":1385,"ĠÄīirkaÅŃ":1386,"Ġ9":1387,"ĠPar":1388,"Ġekzem":1389,"Ġseem":1390,"Ġinteres":1391,"iÄĿo":1392,"ĠKon":1393,"--":1394,"olon":1395,"Ġindi":1396,"Ġ10":1397,"lot":1398,"Ġsigni":1399,"Ġkonstru":1400,"Ġekster":1401,"Ġprogra":1402,"Ġtraduk":1403,"Ġlook":1404,"Ġdirec":1405,"era":1406,"Ġthro":1407,"Ġsay":1408,"kas":1409,"iloj":1410,"ĠLe":1411,"pos":1412,"ĠÄīiam":1413,"Ġsitu":1414,"Ġtoo":1415,"ity":1416,"Ġofte":1417,"gran":1418,"Ġproble":1419,"Ġekzistas":1420,"mis":1421,"Ġmovies":1422,"Ġmis":1423,"kam":1424,"ioj":1425,"Ġrig":1426,"Ġkomenc":1427,"Ġja":1428,"led":1429,"Ġtuta":1430,"toro":1431,"Ġkri":1432,"Ġoff":1433,"tre":1434,"ĠPor":1435,"pt":1436,"ins":1437,"Ġcharacters":1438,"labor":1439,"Ġlando":1440,"Ġhavis":1441,"self":1442,"04":1443,"Ġraj":1444,"Ġvers":1445,"ĠÅĿta":1446,"inta":1447,"ÄĿoj":1448,"we":1449,"ĠdaÅŃ":1450,"igita":1451,"ujo":1452,"Ġgru":1453,"broj":1454,"Ġinstru":1455,"kci":1456,"Ġsp":1457,"Ġmuz":1458,"acio":1459,"ely":1460,"'m":1461,"vent":1462,"Ġeb":1463,"ib":1464,"Ġfilms":1465,"ress":1466,"long":1467,"eto":1468,"Ġsukces":1469,"Ġci":1470,"Ġthen":1471,"Ġorganiz":1472,"Ġyour":1473,"02":1474,"Ġhum":1475,"pis":1476,"ttle":1477,"Ġpop":1478,"03":1479,"Ġplay":1480,"ĠÄµ":1481,"ros":1482,"18":1483,"Ġbeing":1484,"inoj":1485,"mas":1486,"ans":1487,"pu":1488,"Äīo":1489,"ĠBut":1490,"Ġye":1491,"ĠEk":1492,"atur":1493,"Ġru":1494,"les":1495,"Ġcent":1496,"Ġvolas":1497,"ĠMon":1498,"foje":1499,"ĠPro":1500,"ĠIli":1501,"alk":1502,"Ġafter":1503,"Ġorigin":1504,"Ġleg":1505,"Ġfran":1506,"Ġproksim":1507,"Ġseen":1508,"Ġtwo":1509,"Ġbri":1510,"ĠRo":1511,"Ġneces":1512,"âĢľ":1513,"atoj":1514,".\"":1515,"ena":1516,"Ġreal":1517,"Ġ<":1518,"ser":1519,"Ġactor":1520,"!!":1521,"ation":1522,"ld":1523,"ider":1524,"Ġsiaj":1525,"Ġnever":1526,"ataj":1527,"iris":1528,"Ġating":1529,"Ġbest":1530,"Ġsis":1531,"Ġmany":1532,"Ġplot":1533,"ÄĿi":1534,"'ve":1535,"ba":1536,"12":1537,"Ġrom":1538,"Ġokazis":1539,"Ġvivo":1540,"ick":1541,"Ġrap":1542,"Ġwhere":1543,"dek":1544,"Ġju":1545,"Ġnova":1546,"Ġbezon":1547,"org":1548,"ĠEÅŃro":1549,"Ġmom":1550,"fa":1551,"Ġplur":1552,"Ġlife":1553,"wave":1554,"uri":1555,"Ġfi":1556,"ĠPo":1557,"Ġfari":1558,"edio":1559,"Ġgerman":1560,"Ġproduk":1561,"taro":1562,"Ġkam":1563,"zio":1564,"ase":1565,"Ġopin":1566,"out":1567,"Ġmalf":1568,"Ġ15":1569,"Ġthrough":1570,"Ġback":1571,"Ġnek":1572,"Ġcx":1573,"Ġlittle":1574,"Ġdiversaj":1575,"Ġacting":1576,"Ġturn":1577,"Ġz":1578,"esto":1579,"mul":1580,"This":1581,"Ġ199":1582,"kur":1583,"elo":1584,"vankam":1585,"Ġrenkon":1586,"boj":1587,"Ġscen":1588,"Ġlove":1589,"Ġlingvoj":1590,"Ġliber":1591,"ĠGerman":1592,"ĠSo":1593,"inte":1594,"iero":1595,"Ġdez":1596,"ĠÄľ":1597,"als":1598,"titu":1599,"ler":1600,"Ġwork":1601,"ori":1602,"Ġfamili":1603,"tal":1604,"Ġkva":1605,"Ġpropon":1606,"Ġlig":1607,"Ġscene":1608,"ĠÄĪu":1609,"Ġsup":1610,"Ġliter":1611,"stan":1612,"Ġsignif":1613,"Ġï¿½":1614,"the":1615,"Ġjarc":1616,"Ġuni":1617,"gain":1618,"Ġval":1619,"Ġkan":1620,"ily":1621,"ĠTio":1622,"oloj":1623,"Ġkur":1624,"Ġregion":1625,"daj":1626,"Ġperfor":1627,"ÄĿa":1628,"Ġden":1629,"eder":1630,"Ġlandoj":1631,"Ġbu":1632,"ĠDio":1633,"Ġau":1634,"ĠDo":1635,"Ġbetter":1636,"pas":1637,"An":1638,"000":1639,"Ġajn":1640,"turo":1641,"round":1642,"ĠâĢŀ":1643,"Ġkuti":1644,"ial":1645,"tikolo":1646,"Ġshould":1647,"Ġkrom":1648,"Ġmod":1649,"ason":1650,"act":1651,"ical":1652,"leg":1653,"wh":1654,"Ġrem":1655,"Ġed":1656,"Ġdeci":1657,"ree":1658,"Ġpart":1659,"Es":1660,"own":1661,"ÄĿon":1662,"cioj":1663,"ance":1664,"Ġkion":1665,"ft":1666,"ction":1667,"Ġ.":1668,"ute":1669,"ĠÅľ":1670,"ps":1671,"cia":1672,"kti":1673,"nov":1674,"iaj":1675,"15":1676,"Ġkiujn":1677,"Ġsufi":1678,".[":1679,"Ġlu":1680,"Ġenhav":1681,"Ġflu":1682,"ary":1683,"Ġpreci":1684,"In":1685,"17":1686,"ĠTiu":1687,"Ġprin":1688,"alaj":1689,"itato":1690,"eb":1691,"ora":1692,"ws":1693,"Ġmus":1694,"Ġ17":1695,"ĠJoh":1696,"ec":1697,"Ġagain":1698,"Ġkies":1699,"Ġfaci":1700,"tejo":1701,"Ġvol":1702,"ER":1703,"ced":1704,"Ġeldon":1705,"Ġhomo":1706,"ort":1707,"Ġ,":1708,"Ġkonf":1709,"antaj":1710,"Ġartikolo":1711,"rue":1712,"adis":1713,"Ġblo":1714,"Ġdra":1715,"ĠUEA":1716,"Ġmay":1717,"Ġkelk":1718,"Ġhere":1719,"ĠÅĿanÄĿ":1720,"Ġfaris":1721,"uste":1722,"ĠÅĿajn":1723,"Ġtut":1724,"Ġson":1725,"Ġpi":1726,"Ġkongres":1727,"Ġfeel":1728,"riend":1729,"omb":1730,"ĠBe":1731,"ents":1732,"old":1733,"Ġbaz":1734,"ĠÃ":1735,"Ġrev":1736,"Ġwon":1737,"Ġscenes":1738,"rojek":1739,"tigi":1740,"ped":1741,"Ġnomo":1742,"fore":1743,"lis":1744,"tp":1745,"cis":1746,"plo":1747,"Ġestus":1748,"Ġvian":1749,"Ġpris":1750,"ĠVik":1751,"tun":1752,"cer":1753,"Ġstra":1754,"Ġmalpli":1755,"ning":1756,"Ġku":1757,"ror":1758,"Ġakcep":1759,"16":1760,"13":1761,"14":1762,"vita":1763,"Ġ20":1764,"embro":1765,"ĠUni":1766,"Ġhap":1767,"Ġsem":1768,"Ġbona":1769,"Ġform":1770,"Ġstill":1771,"Ġfla":1772,"KO":1773,"Ġscias":1774,"ving":1775,"Ġsuch":1776,"Ġset":1777,"pec":1778,"Ġtia":1779,"Ġtuj":1780,"stra":1781,"irl":1782,"amo":1783,"eloj":1784,"ever":1785,"Ġangla":1786,"Ġfunkci":1787,"ĠÄĿener":1788,"Ġsomething":1789,"eble":1790,"aloj":1791,"Ġwri":1792,"ĠOni":1793,"Ġthese":1794,"Ġmaj":1795,"Ġpovus":1796,"lor":1797,"ĠThere":1798,"kta":1799,"tes":1800,"Äł":1801,"ice":1802,"ĠAÅŃ":1803,"ew":1804,"iÄĿi":1805,"piri":1806,"Ġ12":1807,"Ġgvid":1808,"08":1809,"Ġnask":1810,"Ġamb":1811,"Ġverk":1812,"Ġmemor":1813,"bar":1814,"get":1815,"Ġsiajn":1816,"Ġmalgran":1817,"ĠpreskaÅŃ":1818,"Ġkomp":1819,"Ġrakon":1820,"âĢĻ":1821,"Ġespri":1822,"Ġves":1823,"Ġstud":1824,"Ġ16":1825,"ire":1826,"ner":1827,"Ġkvar":1828,"ĠTamen":1829,"temo":1830,"Ġprezid":1831,"diaÅŃ":1832,"ĠAs":1833,"ding":1834,"Ġties":1835,"ĠDum":1836,"Ġ&":1837,"**":1838,"ona":1839,"Ġdif":1840,"ĠHis":1841,"ika":1842,"iras":1843,"Ġanim":1844,"ĠPost":1845,"ĠSh":1846,"Ġjarcento":1847,"kov":1848,"ĠAmer":1849,"entis":1850,"Ġlas":1851,"ikoj":1852,"Ġele":1853,"ago":1854,"cion":1855,"ĠÄĿia":1856,"ĠBri":1857,"los":1858,"prez":1859,"Ġactu":1860,"maj":1861,"reen":1862,"Ġkol":1863,"Ġekde":1864,"anc":1865,"Ġpovis":1866,"ult":1867,"ah":1868,"estro":1869,"Ġekzemple":1870,"Ġthose":1871,"med":1872,"less":1873,"ĠIs":1874,"ĠUson":1875,"Ġhal":1876,"Ġret":1877,"Ġmur":1878,"Ġer":1879,"Ġfre":1880,"jek":1881,"Ġperforman":1882,"ĠHo":1883,"Ġhon":1884,"goj":1885,"Ġktp":1886,"ges":1887,"other":1888,"Ġbor":1889,"ema":1890,"inda":1891,"tty":1892,"art":1893,"tras":1894,"Ġtek":1895,"Ġneniam":1896,"Ġgen":1897,"oung":1898,"Ġinten":1899,"ĠInter":1900,"Ġbata":1901,"Ġred":1902,"ign":1903,"Ġmas":1904,"Ġfilo":1905,"ĠBo":1906,"run":1907,"tel":1908,"Ġ14":1909,"Ġcar":1910,"ç¤¼åĮħç¤¼åĮħç¤¼åĮħç¤¼åĮħ":1911,"Ġwom":1912,"Ġche":1913,"Ġdoesn":1914,"ĠEl":1915,"ume":1916,"Ġkura":1917,"Ġdown":1918,"ĠMal":1919,"ters":1920,"Ġkres":1921,"ĠRus":1922,"Ġ13":1923,"Ġfer":1924,"bur":1925,"stataÅŃ":1926,"inio":1927,"Ġminut":1928,"ĠAf":1929,"Ġyears":1930,"Ġfav":1931,"Ġnu":1932,"ĠtroviÄĿas":1933,"uzi":1934,"Ġartik":1935,"paro":1936,"tiva":1937,"ĠMe":1938,"Ġdidn":1939,"Ġmed":1940,"Ġink":1941,"Ġprom":1942,"Ġhej":1943,"enci":1944,"teco":1945,"Ġpren":1946,"Ġestu":1947,"Ġsubten":1948,"Ġ198":1949,"gu":1950,"Ġdirector":1951,"ĠJes":1952,"Ġem":1953,"'d":1954,"fon":1955,"Ġvere":1956,"pens":1957,"Ġwatching":1958,"enton":1959,"Ġactors":1960,"Ġtele":1961,"Ġinterest":1962,"Ġinc":1963,"Ġtry":1964,"oo":1965,"Ġjen":1966,"intaj":1967,"ward":1968,"ĠÄĪe":1969,"iri":1970,"Ġflan":1971,"Ġgirl":1972,"ĠPer":1973,"ĠUnu":1974,"Ġtiom":1975,"Ġuzas":1976,"Ġreali":1977,"Ġbefore":1978,"Ġfunny":1979,"Ġgoing":1980,"dy":1981,"joy":1982,"eter":1983,"Ġold":1984,"ankta":1985,"Ġrezul":1986,"Ġgener":1987,"Ġfind":1988,"07":1989,"Ġmakes":1990,"Ġuti":1991,"ligi":1992,"Ġesperanto":1993,"entas":1994,"Ġnaci":1995,"ĠĠĠĠ":1996,"ÃŃ":1997,"ug":1998,"Ġabs":1999,"ĠIf":2000,"edy":2001,"Ġuzi":2002,"Ġpun":2003,"Ġimp":2004,"Ġtur":2005,"Ġbelie":2006,"Ġdep":2007,"den":2008,"Ġesperantistoj":2009,"45":2010,"Ġâ":2011,"Ġlot":2012,"Ġvizi":2013,"aturo":2014,"Ġdom":2015,"Ġbas":2016,"vor":2017,"of":2018,"kri":2019,"alis":2020,"Ġlibro":2021,"Ġfew":2022,"Ġfare":2023,"ĠkaÅŃ":2024,"tante":2025,"ĠÅľi":2026,"Ġbro":2027,"65":2028,"Ġpublik":2029,"Ġsper":2030,"cern":2031,"op":2032,"Ġofici":2033,"Ġown":2034,"lingva":2035,"ring":2036,"onom":2037,"Ġaparten":2038,"kra":2039,"Ġrela":2040,"ane":2041,"ES":2042,"titaj":2043,"ulojn":2044,"Ġdua":2045,"Ġsil":2046,"Ġwhile":2047,"ĠUnivers":2048,"ark":2049,"KOKO":2050,"Ġdec":2051,"Ġnin":2052,"Ġreven":2053,"Ġenjoy":2054,"Ġlud":2055,"Ġnum":2056,"'re":2057,"Ġviv":2058,"ms":2059,"Ġrek":2060,"Ġprodu":2061,"Ġview":2062,"Ġprojek":2063,"Ġinternacia":2064,"Ġdok":2065,"ture":2066,"joj":2067,"Ġbit":2068,"Ġneniu":2069,"Ġrigard":2070,"09":2071,"velo":2072,"krib":2073,"Ġyoung":2074,"Ġpoten":2075,"Ġfan":2076,"Ġge":2077,"into":2078,"Ġmalfer":2079,"Ġactually":2080,"Ġrus":2081,"lar":2082,"lajn":2083,"zaÅŃ":2084,"ably":2085,"ull":2086,"plor":2087,"Ġiam":2088,"Ġfine":2089,"peci":2090,"ĠKong":2091,"Ġkapab":2092,"Ġkvankam":2093,"ĠNov":2094,"gon":2095,"vel":2096,"Ġsama":2097,"âĢĿ.":2098,"Ġ...":2099,"Ġvortoj":2100,"22":2101,"ĠFor":2102,"Ġwhy":2103,"Ġkomunumo":2104,"kuto":2105,"ĠVikip":2106,"ĠÄīio":2107,"lass":2108,"Ġregista":2109,"anio":2110,"ido":2111,"Ġokup":2112,"Ġlingvon":2113,"reso":2114,"gor":2115,"tand":2116,"Ġedz":2117,"amenho":2118,"Ġdiras":2119,"Ġhelp":2120,"ĠanstataÅŃ":2121,"Ġanother":2122,"tigis":2123,"Ġcre":2124,"Ġmalfaci":2125,"Ġnothing":2126,"Ġtradi":2127,"Ġdisvol":2128,"Ġpers":2129,"IN":2130,"Ġsimple":2131,"Ã³":2132,"Ġday":2133,"Äµojn":2134,"ĠPa":2135,"Ġlaugh":2136,"Ġmil":2137,"Ġpen":2138,"Ġdos":2139,"fec":2140,"tten":2141,"rap":2142,"Ġvorto":2143,"polo":2144,"eco":2145,"uaro":2146,"ĠÄīiujn":2147,"logio":2148,"Ġ197":2149,"Ġtr":2150,"Ġten":2151,"ond":2152,"Ġhigh":2153,"AT":2154,"ise":2155,"Ġilia":2156,"vil":2157,"Ġthought":2158,"far":2159,"ĠUsono":2160,"eroj":2161,"Li":2162,"05":2163,"peri":2164,"onoj":2165,"Ġkontro":2166,"Ġnow":2167,"risto":2168,"ĠserÄī":2169,"Ġkonsider":2170,"Ġvila":2171,"Ġvenis":2172,"Ġkill":2173,"Ġafero":2174,"Ġcast":2175,"Ġklas":2176,"Ġwant":2177,"ĠOr":2178,"Ġfriend":2179,"ular":2180,"mal":2181,"ual":2182,"ĠkvazaÅŃ":2183,"cho":2184,"Ġprob":2185,"ĠAmeric":2186,"Ġcomple":2187,"Ġkolek":2188,"Ġbig":2189,"endas":2190,"Ġkomencis":2191,"ĠAli":2192,"graf":2193,"Ġbra":2194,"stre":2195,"].":2196,"25":2197,"Ġgrava":2198,"izo":2199,"Ġsep":2200,"au":2201,"Ġaperis":2202,"gn":2203,"Ġdenove":2204,"Ġeblas":2205,"Se":2206,"âĢĿ,":2207,"33":2208,"Ġsid":2209,"Ġquite":2210,"ĠSta":2211,"Ġaran":2212,"Ġstran":2213,"Ġapud":2214,"Ġradi":2215,"Ġtago":2216,"Ġaround":2217,"ways":2218,"flu":2219,"Ġgot":2220,"Ġthings":2221,"Ġrenkonti":2222,"Ġlasta":2223,"Ġran":2224,"Ġbal":2225,"Ġimag":2226,"mento":2227,"68":2228,"ders":2229,"Ġsal":2230,"Ġpatro":2231,"tran":2232,"gas":2233,"Ġbil":2234,"Ġfact":2235,"peranto":2236,"ario":2237,"Ġekonom":2238,"Ġhard":2239,"Äīa":2240,"ati":2241,"Ġput":2242,"Ġevent":2243,"Ġ;":2244,"umoj":2245,"Ġviz":2246,"Ġseems":2247,"Ġlast":2248,"ying":2249,"ween":2250,"ĠKiam":2251,"Ġpoint":2252,"kul":2253,"veno":2254,"publi":2255,"gio":2256,"ĠEsperanton":2257,"if":2258,"wer":2259,"dio":2260,"Ġlaboro":2261,"ness":2262,"zoj":2263,"Ġperio":2264,"alan":2265,"Ġaso":2266,"ĠÄĪi":2267,"ĠPri":2268,"Ġloko":2269,"Ġredak":2270,"ĠÄīefe":2271,"Ġenough":2272,"py":2273,"Ġmian":2274,"27":2275,"kan":2276,"Ġrimar":2277,"itor":2278,"ĠKar":2279,"ĠJen":2280,"kons":2281,"ĠÂ»":2282,"Ġriver":2283,"tero":2284,"ĠDu":2285,"tely":2286,"arly":2287,"Ġscreen":2288,"lita":2289,"ajne":2290,"28":2291,"Ġpretty":2292,"Ġkune":2293,"ebla":2294,"Ġenter":2295,"val":2296,"Ġste":2297,"ather":2298,"Ġhistorio":2299,"tistoj":2300,"Ġkunlabor":2301,"most":2302,"Ġniaj":2303,"ĠSu":2304,"ĠPre":2305,"ilon":2306,"Ġtake":2307,"67":2308,"Ġneed":2309,"gis":2310,"Ġricevis":2311,"ĠMo":2312,"Ġposed":2313,"Ġbetween":2314,"usto":2315,"Ġinflu":2316,"Ġkomple":2317,"luzi":2318,"Ġaction":2319,"ĠSte":2320,"ĠLu":2321,"ĠVikipedio":2322,"Ġappe":2323,"38":2324,"Ġiuj":2325,"riko":2326,"Ġmust":2327,"Ġparol":2328,".)":2329,"11":2330,"ript":2331,"igitaj":2332,"Ġversio":2333,"ĠMan":2334,"Ġnew":2335,"jor":2336,"ĠambaÅŃ":2337,"ja":2338,"ĠZamenho":2339,"emo":2340,"Ġesper":2341,"Ġkonk":2342,"Ġlar":2343,"ĠPol":2344,"Ġsistemo":2345,"48":2346,"Ġcam":2347,"Ġkv":2348,"Ġstre":2349,"Ġion":2350,"Ġhorror":2351,"Ġright":2352,"Ġworld":2353,"Ġprofes":2354,"Ġgive":2355,"paj":2356,"Ġunivers":2357,"ĠEÅŃropo":2358,"Ġbecom":2359,"ÅĿo":2360,"Ġdef":2361,"Ġori":2362,"bron":2363,"oks":2364,"tab":2365,"urbo":2366,"Ġepis":2367,"Ġind":2368,"29":2369,"antojn":2370,"dojn":2371,"Ġmalnov":2372,"Ġpag":2373,"sen":2374,"ĠX":2375,"ĠGermanio":2376,"gg":2377,"reta":2378,"Ġbla":2379,"Ġhand":2380,"Ġmond":2381,"Ġmet":2382,"Ġdor":2383,"jon":2384,"Ġwhole":2385,"Ġspiri":2386,"Ġwan":2387,"ĠJohn":2388,"ĠÐ":2389,"tak":2390,"minis":2391,"xi":2392,"Ġtab":2393,"ĠNor":2394,"ĠJe":2395,"bere":2396,"ĠIntern":2397,"una":2398,"Ġcons":2399,"Ġgrupo":2400,"tru":2401,"Ġwonder":2402,"cess":2403,"pozi":2404,"ĠVer":2405,"rita":2406,"Ġgro":2407,"Ġlik":2408,"ĠKiel":2409,"49":2410,"Ġlead":2411,"Ġaw":2412,"Ġliaj":2413,"69":2414,"je":2415,"xo":2416,"Ġfru":2417,"ĠShe":2418,"Ġrapide":2419,"Ġfranca":2420,"Ġmodern":2421,"mojn":2422,"ĠNo":2423,"....":2424,"Ġvidis":2425,"Ġgrandan":2426,"Ġretejo":2427,"Ġmult":2428,"35":2429,"din":2430,"Ġdialo":2431,"Ġcome":2432,"Ã¼":2433,"Ġalta":2434,"vious":2435,"Ġpluraj":2436,"Ġsex":2437,"cas":2438,"Ġoriginal":2439,"tigas":2440,"Ġtell":2441,"Ġreason":2442,"Ġalways":2443,"Ġdat":2444,"daÅŃ":2445,"Ġ30":2446,"Ġsaw":2447,"Ġmateri":2448,"'ll":2449,"ĀĀ":2450,"ĠThey":2451,"menaÅŃ":2452,"ikaj":2453,"Ġkomer":2454,"Ġrole":2455,"ĠHow":2456,"dic":2457,"Ġremem":2458,"aze":2459,",\"":2460,"Ġet":2461,"Ġregiono":2462,"Ġfaras":2463,"kos":2464,"39":2465,"Ġeli":2466,"47":2467,"Ġaspek":2468,"Ġtemas":2469,"Ġwithout":2470,"mov":2471,"Ġmain":2472,"Ġgrandaj":2473,"Ġ?":2474,"Ġread":2475,"umi":2476,"Ġtiujn":2477,"ĠCar":2478,"Ġbeg":2479,"over":2480,"ĠhodiaÅŃ":2481,"Ġdiffer":2482,"Ġgas":2483,"str":2484,"Ġmez":2485,"skul":2486,"ties":2487,"Ġboth":2488,"37":2489,"Ġleast":2490,"ĠEtern":2491,"AN":2492,"Wh":2493,"Ġmusic":2494,"Ġmer":2495,"eton":2496,"Ġisn":2497,"50":2498,"fect":2499,"Ġinteresting":2500,"Ġfol":2501,"Ġalian":2502,"iki":2503,"Ġseries":2504,"Ġevolu":2505,"Ġmilito":2506,"Ġwar":2507,"Ġtimes":2508,"ĠJu":2509,"Ġgermana":2510,"Ġkonser":2511,"Ġsignifas":2512,"tanta":2513,"ĠLaÅŃ":2514,"20":2515,"Ġkris":2516,"Ġtal":2517,"Ġokcid":2518,"Ġdiri":2519,"ating":2520,"Ġtru":2521,"aron":2522,"ster":2523,"Ġprecipe":2524,"ĠsufiÄīe":2525,"Ġgets":2526,"pris":2527,"Ġcomedy":2528,"ĠvoÄī":2529,"Ġsto":2530,"Ġkind":2531,"Ġkelkajn":2532,"Ġkonata":2533,"day":2534,"Ġaliajn":2535,"Ġscript":2536,"Ġokazas":2537,"Ġdone":2538,"Ġcin":2539,"ĠYou":2540,"Ġ--":2541,"aroj":2542,"ĠEstas":2543,"Ġdecid":2544,"aran":2545,"ĠZamenhof":2546,"Ġsimp":2547,"Ġrapor":2548,"Ġstru":2549,"Ġakvo":2550,"ĠTo":2551,"vojn":2552,"Ġunder":2553,"Ġopini":2554,"flan":2555,"Ġchild":2556,"Ġsus":2557,"ature":2558,"Ġmenci":2559,"Ġsaid":2560,"su":2561,"Ġkoncern":2562,"hel":2563,"Ġcare":2564,"isma":2565,"jara":2566,"Ġdan":2567,"Ġmag":2568,"kojn":2569,"Ġeffec":2570,"Ġefek":2571,"Ġmultajn":2572,"Ni":2573,"fek":2574,"Ġreprez":2575,"Ġalmost":2576,"ĠEkz":2577,"Ġmight":2578,"Ġcle":2579,"Ġnovaj":2580,"Ġsm":2581,"Ġbezonas":2582,"aste":2583,"Ġprovi":2584,"Ġcerte":2585,"Ġsav":2586,"Ġexc":2587,"eg":2588,"Ġminutes":2589,"graph":2590,"ĠGran":2591,"Ġcour":2592,"Ġworth":2593,"ĠSin":2594,"rible":2595,"Ġvet":2596,"uso":2597,"Ġbea":2598,"cks":2599,"tisto":2600,"Ġpriskrib":2601,"Ġdistri":2602,"ĠHer":2603,"ĠHol":2604,"caj":2605,"ĠfariÄĿis":2606,"Ġclass":2607,"Ġguy":2608,"Ġbru":2609,"Ġsound":2610,"Ġdefin":2611,"ĠRes":2612,"Ġtrovi":2613,"ĠBar":2614,"rojn":2615,"though":2616,"ings":2617,"Ġlim":2618,"Ġkvin":2619,"Ġestr":2620,"Ġaway":2621,"Ġcri":2622,"blaj":2623,"Ġideo":2624,"ĠEternulo":2625,"kla":2626,"Ġdeli":2627,"elon":2628,"Ġfavor":2629,"ez":2630,"Ġio":2631,"Ġblan":2632,"ated":2633,"duko":2634,"uno":2635,"30":2636,"tantoj":2637,"ĠAd":2638,"ulino":2639,"ger":2640,"Ġnovan":2641,"ĠJap":2642,"Ġinternaci":2643,"olor":2644,"Ġteritor":2645,"ĠÄĿuste":2646,"mili":2647,"Ġmallong":2648,"Ġanything":2649,"Ġkutime":2650,"dan":2651,"Ġesplor":2652,"Ġna":2653,"ĠiÄĿis":2654,"ĠmanÄĿ":2655,"ĠAm":2656,"Ġbir":2657,"kap":2658,"enca":2659,"ĠalmenaÅŃ":2660,"ĠÄīam":2661,"Ġtagoj":2662,"Ġdifin":2663,"uring":2664,"Ġpatr":2665,"Ġvesper":2666,"lojn":2667,"sh":2668,"joro":2669,"Ġ11":2670,"Ġdia":2671,"ater":2672,"Ġsemajn":2673,"Ġperformance":2674,"It":2675,"gaj":2676,"usta":2677,"posed":2678,"Ġfoj":2679,"ĠBra":2680,"sed":2681,"Ġinfanoj":2682,"Ġpersonoj":2683,"Ġmalmul":2684,"Ġfound":2685,"ĠTV":2686,"Ġpere":2687,"panio":2688,"Ġbar":2689,"Ġgh":2690,"ÅĿi":2691,"Ġmiaj":2692,"ĠeÅŃro":2693,"Ġkomenci":2694,"Ġtial":2695,"iga":2696,"adoj":2697,"oney":2698,"Ġmontri":2699,"Ġunue":2700,"iks":2701,"inon":2702,"ĠMa":2703,"Ġsor":2704,"ĠJam":2705,"ĠBer":2706,"unt":2707,"TO":2708,"Ġcir":2709,"ĠSek":2710,"bert":2711,"atas":2712,"ulon":2713,"ĠWe":2714,"Ġabsol":2715,"VD":2716,"ĠFrancio":2717,"Ġler":2718,"24":2719,"Ġses":2720,"tage":2721,"ĠAnkaÅŃ":2722,"proksim":2723,"pun":2724,"Ġsimi":2725,"zas":2726,"Ġour":2727,"ĠSer":2728,"Ġmalbon":2729,"Ġfacile":2730,"Ġanka":2731,"aso":2732,"Ġfen":2733,"Por":2734,"EJ":2735,"Ġevid":2736,"Ġsequ":2737,"Ġama":2738,"Ġfino":2739,"ĠSen":2740,"Ġekzis":2741,"tono":2742,"iro":2743,"oma":2744,"tional":2745,"Ġentertain":2746,"Ġfamily":2747,"Ġsupo":2748,"pect":2749,"Ġrun":2750,"ake":2751,"Ġban":2752,"adem":2753,"ĠAk":2754,"Ġgla":2755,"lia":2756,"Ġaudi":2757,"Ġnombro":2758,"esta":2759,"aÄµon":2760,"Ġordon":2761,"Ġ100":2762,"Ġdirek":2763,"wood":2764,"enoj":2765,"Ġsho":2766,"can":2767,"ha":2768,"Ġkarak":2769,"ĠOn":2770,"lov":2771,"ĠÄĪinio":2772,"ĠGra":2773,"ĠNun":2774,"itajn":2775,"Ġtrovis":2776,"Ġmembroj":2777,"Ġnatur":2778,"Ġiliaj":2779,"ĠDav":2780,"Ġformo":2781,"Ġversion":2782,"Ġbud":2783,"ĠWil":2784,"iblio":2785,"ĠDan":2786,"aÄµojn":2787,"Al":2788,"Ġpied":2789,"mp":2790,"Ġact":2791,"bre":2792,"atura":2793,"Ġkov":2794,"Ġprezidanto":2795,"Ġkial":2796,"Ġaferoj":2797,"Ġunders":2798,"pecially":2799,"Ġwoman":2800,"Ġemo":2801,"ĠHar":2802,"Ġvidi":2803,"26":2804,"ĠQ":2805,"tant":2806,"Ġkontribu":2807,"ĠSankta":2808,"ĠTe":2809,"Ġprote":2810,"bra":2811,"ejoj":2812,"Ġkultur":2813,"Ġpropra":2814,"Ġdevis":2815,"ĠÄīefa":2816,"ĠIta":2817,"Ġmovado":2818,"Ġmontras":2819,"ping":2820,"Ã¶":2821,"Ġclo":2822,"ON":2823,"ĠGe":2824,"Ġdokum":2825,"Ġpopolo":2826,"Ġhavi":2827,"ality":2828,"Ġsure":2829,"ĠKrom":2830,"gru":2831,"landa":2832,"Ġpopula":2833,"Ġhero":2834,"Ġprobably":2835,"Ġsince":2836,"ĠaÅŃtor":2837,"Ġhappen":2838,"Ġ25":2839,"ĠTra":2840,"Ġdevus":2841,"23":2842,"tikaj":2843,"Äµon":2844,"Ġfamilio":2845,"aÄĿo":2846,"ĠKun":2847,"Ġrespek":2848,"Ġtutan":2849,"Ġrelig":2850,"ator":2851,"Ġrigar":2852,"lus":2853,"Ġregistaro":2854,"tano":2855,"fic":2856,"Ġinkluzi":2857,"Ġplace":2858,"âĢĵ":2859,"Ġparolas":2860,"Ġrather":2861,"Ġprepar":2862,"Ġdifer":2863,"Ġseks":2864,"Ġtend":2865,"ĠAt":2866,"Ġnig":2867,"Ġsende":2868,"sion":2869,"tura":2870,"ons":2871,"ither":2872,"Ġlonga":2873,"aw":2874,"ĠDVD":2875,"ĠInternacia":2876,"Ġsever":2877,"Ġaperas":2878,"ently":2879,"Ġanta":2880,"87":2881,"xt":2882,"Ġeston":2883,"Ġlian":2884,"acioj":2885,"Ġmortis":2886,"til":2887,"Ġdekla":2888,"201":2889,"Ġdialog":2890,"Ġmean":2891,"ĠÄĿoj":2892,"ley":2893,"Ġcelo":2894,"ded":2895,"Ġcourse":2896,"yle":2897,"cal":2898,"tema":2899,"ctor":2900,"Ġnome":2901,"Äīi":2902,"logi":2903,"fully":2904,"ĠFo":2905,"ĠÅĿtato":2906,"Ġoper":2907,"Ġprovin":2908,"Ġkeep":2909,"Ġtito":2910,"Ġmorto":2911,"Ġ=":2912,"aps":2913,"ĠreÄĿo":2914,"nu":2915,"oste":2916,"Ġtrying":2917,"Ġwi":2918,"Ġpoor":2919,"vanta":2920,"Ġhispan":2921,"Ġdomo":2922,"ida":2923,"vidu":2924,"els":2925,"Ġinfor":2926,"Ġarb":2927,"Ġscienc":2928,"Ġeach":2929,"Ġnian":2930,"ash":2931,"Ġarme":2932,"Ġprogramo":2933,"66":2934,"rigis":2935,"gether":2936,"Ġsing":2937,"etro":2938,"ĠKan":2939,"Ġty":2940,"ood":2941,"tire":2942,"ĠÅĿia":2943,"ĠDon":2944,"Ġtw":2945,"ork":2946,"ĠKo":2947,"Ġmalj":2948,"nam":2949,"ney":2950,"ktoj":2951,"Ġdonis":2952,"Ġpast":2953,"inter":2954,"Ġmes":2955,"Ġmaking":2956,"Ġfli":2957,"entojn":2958,"Ġbre":2959,"Ġrest":2960,"Ġworst":2961,"ĠSam":2962,"Ġsan":2963,"aton":2964,"Ġbelieve":2965,"Ġdifferent":2966,"ĠCent":2967,"Ġdecembro":2968,"Ġinte":2969,"Ġyet":2970,"ĠWhat":2971,"Ġhead":2972,"Ġkiom":2973,"Ġkos":2974,"44":2975,"Ġfeli":2976,"Ġsign":2977,"Ġuzata":2978,"enon":2979,"dita":2980,"rilo":2981,"Ġknab":2982,"line":2983,"Ġobser":2984,"poko":2985,"ĠPollando":2986,"tigo":2987,"its":2988,"Ġpru":2989,"bi":2990,"Ġtiaj":2991,"edia":2992,"iono":2993,"Ġanyone":2994,"zis":2995,"Ġamo":2996,"ĠantaÅŃe":2997,"Ġsurpris":2998,"Ġvalor":2999,"įã":3000,"Ġtalk":3001,"Ġgre":3002,"Ġdosier":3003,"socio":3004,"Ġkonduk":3005,"ĠreÄĿ":3006,"tiÄĿis":3007,"sy":3008,"pid":3009,"Ġjud":3010,"arn":3011,"ous":3012,"Ġunuan":3013,"Ġsufer":3014,"che":3015,"kvi":3016,"Ġnomon":3017,"40":3018,"ĠThat":3019,"Ġcomes":3020,"illa":3021,"Ġprogres":3022,"ences":3023,"Ĩįã":3024,"vio":3025,"ĠAmerican":3026,"ÅĿis":3027,"rus":3028,"ĠPat":3029,"ĠAle":3030,"Ġsense":3031,"cha":3032,"EN":3033,"Ġshows":3034,"Ġcli":3035,"Ġserio":3036,"!\"":3037,"Ġprefer":3038,"skrib":3039,"Ne":3040,"mor":3041,"Ġbed":3042,"ÂŃ":3043,"ĨįãĨįã":3044,"Ġvis":3045,"Ġbeauti":3046,"ston":3047,"Ġfakte":3048,"bly":3049,"Ġprinci":3050,"bu":3051,"Ġaser":3052,"Ġending":3053,"200":3054,"Ġgoes":3055,"ategor":3056,"ĠaÅŃskul":3057,"ĠpreÄĿ":3058,"sc":3059,"publiko":3060,"Ġmalgranda":3061,"Ġklo":3062,"ĠIns":3063,"Ġspo":3064,"Ġjob":3065,"tead":3066,"Ġplayed":3067,"Ġconf":3068,"Ġspecial":3069,"Ġpovos":3070,"cond":3071,"Ġstri":3072,"ĠCo":3073,"Ġvidas":3074,"ually":3075,"Ġhimself":3076,"Ġpac":3077,"ingly":3078,"emple":3079,"Ġfes":3080,"atis":3081,"Tiu":3082,"Ġmoney":3083,"foj":3084,"ju":3085,"mend":3086,"Ġlegi":3087,"intoj":3088,"Ġrec":3089,"57":3090,"kcid":3091,"umon":3092,"bri":3093,"Ġlooking":3094,"Ġduon":3095,"Ġfig":3096,"table":3097,"Ġbook":3098,"Ġviaj":3099,"ÅĿajne":3100,"Ġfollow":3101,"Ġkongreso":3102,"ĠMor":3103,"Ġkil":3104,"Ġdisap":3105,"orge":3106,"60":3107,"Ġmalsam":3108,"Ġcou":3109,"ĠÄīion":3110,"ĠaÄīe":3111,"ĠÅĿin":3112,"Ġmale":3113,"Ġene":3114,"Sed":3115,"Ġkal":3116,"ĠSur":3117,"emon":3118,"Ġfrem":3119,"Ġhaving":3120,"Ġamas":3121,"xis":3122,"Ġobjek":3123,"Ġcertain":3124,"Ġlibere":3125,"iece":3126,"ĠVin":3127,"Ġpostu":3128,"Ġforlas":3129,"que":3130,"ĠBon":3131,"Ġmono":3132,"Ġmembro":3133,"Ġapartenas":3134,"ĠLo":3135,"sa":3136,"endis":3137,"Ġinfan":3138,"Ġkru":3139,"Ġpic":3140,"Ġid":3141,"ĠBen":3142,"ĠtaÅŃ":3143,"ĠSim":3144,"Ġprak":3145,"Ġuzo":3146,"Ġdisk":3147,"Ġurb":3148,"erotika":3149,"deco":3150,"ministra":3151,"graÅŃ":3152,"Ġref":3153,"Ġsamtempe":3154,"Ġsimila":3155,"Dum":3156,"ĠSa":3157,"Ġdeziras":3158,"Ġsukcesis":3159,"Ġlooks":3160,"Ġanon":3161,"Ġindust":3162,"my":3163,"Ġkristan":3164,"ĠAntaÅŃ":3165,"Ġrele":3166,"Ġtogether":3167,"Ġvojo":3168,"Ġwasn":3169,"Post":3170,"Ð°":3171,"Ġeffects":3172,"gusto":3173,"Ġfu":3174,"ĠAng":3175,"igu":3176,"Ġplays":3177,"Esperanto":3178,"ÄĪi":3179,"ç¤¼åĮħç¤¼åĮħç¤¼åĮħç¤¼åĮħç¤¼åĮħç¤¼åĮħç¤¼åĮħç¤¼åĮħ":3180,"Ġdivid":3181,"Ġbel":3182,"59":3183,"eron":3184,"ilio":3185,"Ġlonge":3186,"rigi":3187,");":3188,"berg":3189,"permes":3190,"ĠUK":3191,"Ġtemo":3192,"ĠTH":3193,"read":3194,"ule":3195,"cept":3196,"ĠTiam":3197,"ses":3198,"tar":3199,"toli":3200,"Ġve":3201,"nom":3202,"ĠJesuo":3203,"Ġhuman":3204,"Ġey":3205,"Ġthree":3206,"Ġhalf":3207,"Ġvio":3208,"zy":3209,"Ġdisvas":3210,"89":3211,"AL":3212,"Ġsank":3213,"Ġbab":3214,"AR":3215,"Ġpent":3216,"Ġgri":3217,"Ġalven":3218,"ĠAll":3219,"cus":3220,"Ġrecom":3221,"ĠÄĪar":3222,"ÅĤ":3223,"Ġjan":3224,"ĠSch":3225,"Ġleft":3226,"iew":3227,"fine":3228,"34":3229,"Ġdank":3230,"Ġsola":3231,"Ġrif":3232,"Ġside":3233,"trum":3234,"ĠÄĿenerale":3235,"vos":3236,"Kaj":3237,"her":3238,"ĠMos":3239,"Ġtakes":3240,"Ġhttp":3241,"pleks":3242,"dap":3243,"Ġforges":3244,"kaze":3245,"ive":3246,"ism":3247,"ĠPl":3248,"araj":3249,"Ġplibon":3250,"cum":3251,"Ġlet":3252,"Ġwatched":3253,"Ġabsolute":3254,"Ġsituas":3255,"cojn":3256,"ĠpaÄĿo":3257,"trepren":3258,"Ġverko":3259,"Ġkomunik":3260,"Ġelse":3261,"parte":3262,"sek":3263,"Ġpola":3264,"ada":3265,"Ġnuna":3266,"Ð¾":3267,"rado":3268,"Ġras":3269,"Ġplenum":3270,"vet":3271,"Ġprogram":3272,"Ġrestis":3273,"ately":3274,"Ġfel":3275,"Ġpu":3276,"ors":3277,"Ġkomputi":3278,"ically":3279,"ĠvojaÄĿ":3280,"Ġkm":3281,"soj":3282,"ross":3283,"Ġ24":3284,"fici":3285,"Ġkli":3286,"Ġrekom":3287,"Ġentu":3288,"Ġlokon":3289,"Ġsomeone":3290,"Ġir":3291,"ĠbaldaÅŃ":3292,"Ġmind":3293,"Ġklopo":3294,"Ġkad":3295,"ani":3296,"sis":3297,"ĠTial":3298,"Ġespecially":3299,"AS":3300,"ĠÅĿan":3301,"Ġaudience":3302,".âĢĿ":3303,"Ġbegin":3304,"Ġapo":3305,"mos":3306,"Ġoka":3307,"yed":3308,"pare":3309,"36":3310,"sible":3311,"flanke":3312,"alon":3313,"Ġmalkov":3314,"entaj":3315,"ĠDi":3316,"ligas":3317,"lywood":3318,"Ġuse":3319,"Ġmaniero":3320,"Ġ50":3321,"Ġdecidis":3322,"Ġmid":3323,"talo":3324,"lado":3325,"Ġdisting":3326,"chool":3327,"Ġrefer":3328,"Ġceter":3329,"Ġarg":3330,"endi":3331,"bio":3332,"Ġhour":3333,"Ġia":3334,"tia":3335,"Ġhome":3336,"bas":3337,"Ġunuaj":3338,"ĠFin":3339,"Ġnight":3340,"fra":3341,"Ġkarakter":3342,".,":3343,"ĠKongreso":3344,"Ġmeto":3345,"lern":3346,"reg":3347,"spe":3348,"Ġparoli":3349,"like":3350,"leco":3351,"Ġidea":3352,"Ġcap":3353,"Ġlater":3354,"Ġfoje":3355,"lish":3356,"gen":3357,"Ġdrama":3358,"Ġgravaj":3359,"try":3360,"grafio":3361,"ando":3362,"Ġpolitik":3363,"??":3364,"ordin":3365,"Ġtrue":3366,"undo":3367,"Ġentrepren":3368,"Ġduring":3369,"ĠKristo":3370,"Ġhar":3371,"Ġperfect":3372,"Ġhomojn":3373,"tala":3374,"Ġverkoj":3375,"Ġfab":3376,"ĠBu":3377,"Ġdeven":3378,"Ġenhavas":3379,"Ġrecommend":3380,"Ġshort":3381,"ĠIsra":3382,"ĠEÅŃropa":3383,"brojn":3384,"ellent":3385,"Ġinvol":3386,"Ġ#":3387,"Ġvideo":3388,"Ġtotal":3389,"Ġpartoprenis":3390,"tivo":3391,"Ġagado":3392,"Ġ!":3393,"ĠIm":3394,"ĠBro":3395,"ĠdaÅŃre":3396,"Ġrimed":3397,"Ġpozi":3398,"Ġwife":3399,"plan":3400,"tino":3401,"Ġjarojn":3402,"06":3403,"Ġlis":3404,"Ġless":3405,"Åľ":3406,"Ġca":3407,"Ġrevolu":3408,"Ġph":3409,"Ġtas":3410,"Ġrestas":3411,"ĠTi":3412,"ĠEd":3413,"Ġfilozo":3414,"Ġdonas":3415,"Ġfaj":3416,"Ġentire":3417,"Ġtero":3418,"ĠTiel":3419,"ĠpoÅĿ":3420,"Ġeverything":3421,"lezio":3422,"Ġpur":3423,"Ġener":3424,"ream":3425,"itch":3426,"ĠÄīees":3427,"ody":3428,"IS":3429,"aÄ¥":3430,"Ġ2016":3431,"Ġrekon":3432,"Ġonce":3433,"ets":3434,"Ġobvious":3435,"55":3436,"ald":3437,"Ġpol":3438,"Ġmuzik":3439,"Ġnecesas":3440,"Ġsocio":3441,"ĠEsperanta":3442,"Ġjulio":3443,"Ġused":3444,"ĠChris":3445,"ass":3446,"Ġiris":3447,"tigita":3448,"Ġ2017":3449,"ĠKe":3450,"ekz":3451,"ĠJa":3452,"Ġvera":3453,"vu":3454,"ski":3455,"uma":3456,"KOKOKOKO":3457,"?\"":3458,"Ġtim":3459,"Ġtutmon":3460,"fice":3461,"Ġsong":3462,"eli":3463,"Ġvolis":3464,"Ġesperanta":3465,"Ġaver":3466,"laÅŃ":3467,"99":3468,"menta":3469,"ĠÄīefurbo":3470,"Ġpensas":3471,"reto":3472,"ĠCom":3473,"Ġseeing":3474,"kun":3475,"Ġrete":3476,"Ġprojekto":3477,"ĠKons":3478,"ÄĪu":3479,"Ġportra":3480,"mak":3481,"Ġshot":3482,"tron":3483,"Ġcame":3484,"perio":3485,"pov":3486,"ĠBel":3487,"ĠNew":3488,"not":3489,"Ġeveryone":3490,"Ġdemo":3491,"ĠCon":3492,"omoj":3493,"Ġvenas":3494,"Vi":3495,"ĠLia":3496,"Ġjo":3497,"Ġantik":3498,"Ġdistrikto":3499,"Ġopen":3500,"Ġenkon":3501,"Ġago":3502,"ĠKel":3503,"ĠHung":3504,"ĠChar":3505,"Ġokto":3506,"Ġkulturo":3507,"Ġkrei":3508,"ilojn":3509,"Ġface":3510,"edo":3511,"Ġyear":3512,"lli":3513,"Ġcor":3514,"21":3515,"igon":3516,"Ġinformoj":3517,"Ġdeath":3518,"uton":3519,"yn":3520,"Ġefi":3521,"Ġtor":3522,"Ġrajtas":3523,"ĠaÅŃtoro":3524,"klo":3525,"ann":3526,"nos":3527,"Pro":3528,"Äīoj":3529,"Ġattem":3530,"Ã¤":3531,"dos":3532,"Ġcal":3533,"istro":3534,"tembro":3535,"ined":3536,"Ġbela":3537,"ret":3538,"Ġstor":3539,"Ġspek":3540,"teno":3541,"EJO":3542,"Ġiun":3543,"Ġ2010":3544,"rong":3545,"Ġmarto":3546,"Ġfather":3547,"ĠDis":3548,"Ġrilate":3549,"ĠTiuj":3550,"Ġ21":3551,"ĠEng":3552,"Ġvic":3553,"Ġsuc":3554,"Ġsecond":3555,"Ġbeautiful":3556,"Ġdetru":3557,"Ġinvi":3558,"ĠSan":3559,"Ġha":3560,"ird":3561,"ĠÄĿu":3562,"Äīas":3563,"ĠPoste":3564,"ini":3565,"Ġblogo":3566,"Ġkonas":3567,"Ġhung":3568,"Â°":3569,"ĠIM":3570,"iÄĿos":3571,"Ġmir":3572,"Ġline":3573,"Ġokuloj":3574,"Ġadap":3575,"Ġnacia":3576,"Ġgajn":3577,"ĠWhen":3578,"gri":3579,"46":3580,"Ġcompletely":3581,"Ġnut":3582,"Ġpersono":3583,"Ġlow":3584,"mita":3585,"Ġfal":3586,"Ġnenion":3587,"imo":3588,"graphy":3589,"Ġaldonu":3590,"Ġexcellent":3591,"Ġbus":3592,"Ġ40":3593,"Ġjanuaro":3594,"uly":3595,"Ġcoun":3596,"Ġsimply":3597,"zer":3598,"Ġkonkur":3599,"Ġlingva":3600,"Ġroman":3601,"Hel":3602,"Ġvas":3603,"Ġkvan":3604,"Dis":3605,"88":3606,"ÄĿojn":3607,"taÄµoj":3608,"ĠÄĿenerala":3609,"Ġvivon":3610,"Ġris":3611,"Ġmajo":3612,"Kom":3613,"Ðµ":3614,"32":3615,"Ġstupid":3616,"Ġata":3617,"ĠkaÅĿ":3618,"kton":3619,"ex":3620,"ĠGre":3621,"stro":3622,"zono":3623,"estoj":3624,"tom":3625,"Ġtop":3626,"Ġfonton":3627,"Ġmalal":3628,"Ġstand":3629,"Ġvok":3630,"kato":3631,"Ġalong":3632,"Ġhoma":3633,"ased":3634,"Ġremember":3635,"ĠIa":3636,"Ġdisappo":3637,"Ġeduk":3638,"tiÄĿo":3639,"Ġfund":3640,"ibliote":3641,"Ġstart":3642,"OR":3643,"Ġboy":3644,"Ġmilionoj":3645,"Ġstr":3646,"cy":3647,"Ġplilong":3648,"Ġvortojn":3649,"ught":3650,"ĠvilaÄĿo":3651,"Ġnomata":3652,"IV":3653,"ĠSud":3654,"Ġproblemo":3655,"ĠÅĿajnas":3656,"Ġexpec":3657,"mit":3658,"tanto":3659,"Ġsmall":3660,"Ġclassic":3661,"Ġrivero":3662,"Ġeten":3663,"Ġnovembro":3664,"Ġcel":3665,"Ġeas":3666,"Ġba":3667,"Ġserious":3668,"Ġcol":3669,"ria":3670,"Ġinclu":3671,"Ġsendepen":3672,"kol":3673,"EL":3674,"taÄµo":3675,"Ġokazos":3676,"sing":3677,"ama":3678,"tata":3679,"Ġparti":3680,"kres":3681,"lito":3682,"Ġalt":3683,"af":3684,"ĠOf":3685,"Ġkatoli":3686,"Ġgrave":3687,"elf":3688,"by":3689,"mentoj":3690,"Ġamikoj":3691,"ĠDavid":3692,"Ġoktobro":3693,"Ġfut":3694,"Ġurboj":3695,"libro":3696,"Ġkomenco":3697,"Ġcouple":3698,"iÄĿon":3699,"ticular":3700,"Â».":3701,"Ġstruk":3702,"Ġskribis":3703,"Ġnaj":3704,"kompren":3705,"IL":3706,"Ġu":3707,"ĠTom":3708,"Ġviol":3709,"Ġwrong":3710,"very":3711,"Ġnepre":3712,"Ġhelpi":3713,"ĠNur":3714,"ĠRusio":3715,"kar":3716,"pir":3717,"Ġsuf":3718,"Ġland":3719,"ĠHollywood":3720,"Ġklare":3721,"Ġdol":3722,"gante":3723,"Ġnenio":3724,"epat":3725,"ĠÄµus":3726,"inde":3727,"antaro":3728,"king":3729,"ĠHel":3730,"Ġmess":3731,"Ġwomen":3732,"lantoj":3733,"ĠverÅĿajne":3734,"encoj":3735,"Ġspa":3736,"Ġmuziko":3737,"Ġjap":3738,"Ġfilmo":3739,"ĠNot":3740,"Ġflor":3741,"ĠĠĠĠĠĠĠĠ":3742,"Ġta":3743,"ement":3744,"De":3745,"Ġnice":3746,"ciante":3747,"Ġperformances":3748,"ĠPrin":3749,"Ġsinjor":3750,"Ġsituacio":3751,"Ġkomprenas":3752,"Â»,":3753,"Ġass":3754,"row":3755,"Ġekzamen":3756,"uris":3757,"Ġeither":3758,"Ġaprilo":3759,"ĠÄīes":3760,"ĠGu":3761,"Ġatingis":3762,"bel":3763,"Ġlaboron":3764,"bera":3765,"ĠaÅŃgusto":3766,"][":3767,"Ġaparte":3768,"endaj":3769,"Ġjuna":3770,"Ġdri":3771,"Ġkolon":3772,"tilo":3773,"Ġ2015":3774,"Ġvirinoj":3775,"ĠMc":3776,"Ġrekte":3777,"ĠNu":3778,"ĠOne":3779,"Ġperiodo":3780,"Ġhouse":3781,"adi":3782,"Ġvolon":3783,"ĠRom":3784,"Ġsom":3785,"77":3786,"ardo":3787,"ĠMia":3788,"Ġmalaper":3789,"haps":3790,"Ġcamera":3791,"Ġuntil":3792,"Ġwent":3793,"Ġ2018":3794,"Ġpan":3795,"Ġlaboris":3796,"Ġbi":3797,"zing":3798,"ĠHispanio":3799,"Ġsupposed":3800,"milito":3801,"Ġboring":3802,"Ġfriends":3803,"Ġgiven":3804,"Ġtrin":3805,"ĠTie":3806,"Ġpolitika":3807,"uroj":3808,"ĠnaskiÄĿis":3809,"lovak":3810,"aring":3811,"Ġseptembro":3812,"ban":3813,"port":3814,"Ġvirino":3815,"Ġcentro":3816,"Ġrespondis":3817,"Ġgepat":3818,"Ġpriva":3819,"Ġzorg":3820,"Ġcinema":3821,"kita":3822,"ef":3823,"Ġnovajn":3824,"Ġexam":3825,"Ġunderstand":3826,"Å¡":3827,"dono":3828,"ĠMy":3829,"58":3830,"redi":3831,"fortun":3832,"Ġlerni":3833,"diÄĿis":3834,"Ġfall":3835,"ĠpaÅĿ":3836,"Ġordin":3837,"Ġampleks":3838,"Ġ2000":3839,"Ġsistem":3840,"Ġsun":3841,"endo":3842,"Ġbonan":3843,"where":3844,"ĠRespubliko":3845,"Ġmont":3846,"Ġklarig":3847,"Ġimpres":3848,"hip":3849,"Ġneni":3850,"Ġopinion":3851,"Ä¥a":3852,"pite":3853,"Ġfid":3854,"Ġpaper":3855,"ils":3856,"ela":3857,"dire":3858,"Ġsud":3859,"Ġtraduko":3860,"cx":3861,"Ġcra":3862,"ciaj":3863,"Ġindividu":3864,"ĠTur":3865,"ĠTEJO":3866,"Ġatingi":3867,"Ġuzis":3868,"Ġalilingva":3869,"ablon":3870,"Ġusona":3871,"Ġmother":3872,"Ġtraduku":3873,"Ġinformojn":3874,"Ġalvo":3875,"Ġblack":3876,"Ġrapid":3877,"ĠRu":3878,"Ġlat":3879,"ĠReg":3880,"Ġinterv":3881,"Ġdisvolvita":3882,"Ġdezir":3883,"Ġpatrino":3884,"Ġschool":3885,"Ġmoment":3886,"ĠSci":3887,"Ġpower":3888,"Ġlastaj":3889,"ĠHowever":3890,"terna":3891,"Ġvali":3892,"Ġartikoloj":3893,"Ġkids":3894,"ĠKu":3895,"oris":3896,"unda":3897,"Ġitself":3898,"Ġfama":3899,"Ġfull":3900,"Ġparolis":3901,"Ġtempon":3902,"ken":3903,"Ġteor":3904,"Ġjunio":3905,"Ġdemando":3906,"Ġanali":3907,"Ġkid":3908,"Ġkredas":3909,"atojn":3910,"Ġargum":3911,"Ġdim":3912,"ãģ":3913,"ularo":3914,"II":3915,"Ġdemokra":3916,"utoj":3917,"logia":3918,"ĠÄµurn":3919,"ĠLing":3920,"Ġplilongigi":3921,"ultaj":3922,"Ġamik":3923,"Ġproksime":3924,"tiÄĿas":3925,"ĠPle":3926,"Helpu":3927,"ĠBur":3928,"blan":3929,"pojn":3930,"Ġbring":3931,"Ġeta":3932,"Ġprezentas":3933,"Ġrevuo":3934,"Ġlokoj":3935,"pag":3936,"ÄĿaj":3937,"liam":3938,"Ġgrupoj":3939,"Ġmoments":3940,"Ġkomuna":3941,"Äījo":3942,"atal":3943,"Ġwa":3944,"âĪ":3945,"Ġforte":3946,"Ġsli":3947,"Â«":3948,"Ġparticular":3949,"LaÅŃ":3950,"ÄĿos":3951,"Ġsamtema":3952,"ÅĿta":3953,"tempa":3954,"Ġ*":3955,"Ġproduction":3956,"Ġflanko":3957,"Ġofer":3958,"ĠSvis":3959,"Ġkapita":3960,"cing":3961,"Ġregist":3962,"iness":3963,"Ġstab":3964,"andid":3965,"menciante":3966,"ode":3967,"ĠEsperant":3968,"vajn":3969,"ĠEU":3970,"Ġmomento":3971,"enn":3972,"Ġrusa":3973,"Ġfron":3974,"Ġdiversajn":3975,"itely":3976,"ĠNa":3977,"pola":3978,"Ġkonsistas":3979,"Ġinstead":3980,"Ġfem":3981,"Ġedzino":3982,"ates":3983,"Ġarm":3984,"cking":3985,"Ġnext":3986,"ĠPli":3987,"Ġ(\"":3988,"Ġlev":3989,"Ek":3990,"oroj":3991,"Ġiome":3992,"Ġalpor":3993,"Ġdam":3994,"Ġege":3995,"Ġinstitu":3996,"Ġgetting":3997,"Ġsent":3998,"Ġkia":3999,"Kiam":4000,"ligis":4001,"64":4002,"ĠJer":4003,"gle":4004,"97":4005,"Ġmeze":4006,"Ġ22":4007,"Ġdeser":4008,"Ġasocio":4009,"Ġblu":4010,"ĠMr":4011,"Ġdead":4012,"cked":4013,"Ġname":4014,"Ġoc":4015,"igos":4016,"Ġfarita":4017,"vado":4018,"Ġtria":4019,"esperan":4020,"des":4021,"Ġ28":4022,"Ġvort":4023,"ĠKrome":4024,"Ġimpor":4025,"],":4026,"Ġtruly":4027,"Ġgrande":4028,"ĠGo":4029,"Ġbele":4030,"ĠSome":4031,"Ġbudget":4032,"Ġprovinco":4033,"Ġaux":4034,"ĠSal":4035,"fero":4036,"Ġoften":4037,"Ġothers":4038,"rious":4039,"akte":4040,"Ġsw":4041,"Ġexperi":4042,"\")":4043,"blo":4044,"tim":4045,"Ġpron":4046,"Ġmalnova":4047,"Ġbran":4048,"telo":4049,"Ġloka":4050,"Ġdispon":4051,"ID":4052,"bruaro":4053,"onto":4054,"Ġreligi":4055,"Ġkonsci":4056,"aks":4057,"Diskuto":4058,"ĠNen":4059,"ĠriÄī":4060,"Ġnumero":4061,"body":4062,"Ġproksimume":4063,"ried":4064,"31":4065,"vitan":4066,"ĀĀĀĀ":4067,"ajno":4068,"lav":4069,"Ġnorma":4070,"pita":4071,"arth":4072,"Ġlegan":4073,"Ġdoing":4074,"Ġbecome":4075,"Ġtrovas":4076,"lik":4077,"ĠâĢĿ":4078,"Ġslow":4079,"ĠMin":4080,"ĠÄĿiaj":4081,"Ġhowever":4082,"ĠTer":4083,"Ġpromes":4084,"ĠSi":4085,"Ġkond":4086,"If":4087,"time":4088,"Ġkonsis":4089,"his":4090,"ĠKiu":4091,"Ġelsta":4092,"kio":4093,"Ġproblem":4094,"Ġconsider":4095,"fere":4096,"Ġhope":4097,"unde":4098,"multo":4099,"Ġevol":4100,"Ġkorpo":4101,"Ġ27":4102,"Ġvivas":4103,"Ġfelt":4104,"Ġgives":4105,"ility":4106,"Ġmalan":4107,"portun":4108,"Ġterrible":4109,"Ġcase":4110,"jar":4111,"ety":4112,"98":4113,"Ġperfek":4114,"Ġkonsta":4115,"Ġ2008":4116,"Ġmodi":4117,"ĠMaria":4118,"Ġheart":4119,"ãĥ":4120,"Ġega":4121,"rill":4122,"Ġgaz":4123,"Ġfeder":4124,"ĠHen":4125,"Ġfac":4126,"Ġdevelo":4127,"Ġcredi":4128,"ĠloÄĿas":4129,"Ġpreter":4130,"but":4131,"tivaj":4132,"ĠHa":4133,"Ġeksci":4134,"Ð¸":4135,"Ġliteraturo":4136,"Ġsla":4137,"ÄĿe":4138,"ua":4139,"Ġpropran":4140,"Ġteritorio":4141,"Ġtransform":4142,"Ġepoko":4143,"aÄĿon":4144,"Ġbur":4145,"Ġawful":4146,"Ġlibroj":4147,"ĠloÄĿantoj":4148,"So":4149,"tantaj":4150,"Ġdoni":4151,"onta":4152,"):":4153,"Ġpal":4154,"Ġagnos":4155,"ush":4156,"Ġplena":4157,"ĠWell":4158,"Ġlisto":4159,"ĠÄĪiu":4160,"Ġlines":4161,"ĠJun":4162,"Ġart":4163,"',":4164,"Ġhumor":4165,"Ġ80":4166,"Ġfantas":4167,"ganiz":4168,"Ġsad":4169,"Ġviajn":4170,"ĠVir":4171,"ming":4172,"ĠUniversitato":4173,"lum":4174,"verse":4175,"Ġsort":4176,"Ġagainst":4177,"Ġ23":4178,"âĪŀ":4179,"Ġplaying":4180,"lian":4181,"56":4182,"Ġprezenti":4183,"kso":4184,"Ġdonac":4185,"ĠIsraelo":4186,"Ġlibera":4187,"Ġlum":4188,"Ġkompreni":4189,"Ġdialogue":4190,"produk":4191,"uraj":4192,"Ġbonvolu":4193,"Ġtitle":4194,"ĠTem":4195,"Ġmurder":4196,"ĠÂĸ":4197,"Ġseemed":4198,"Ġner":4199,"Ġsubstan":4200,"troj":4201,"ĠEble":4202,"Ġguess":4203,"ĠdanÄĿ":4204,"Ġverkis":4205,"Ġgrama":4206,"Ġkurac":4207,"Ġsimpla":4208,"Ġoficiala":4209,"43":4210,"press":4211,"Ġearly":4212,"mig":4213,"tting":4214,"baj":4215,"Ġverkon":4216,"Ġlok":4217,"ĠSAT":4218,"ĠÄĪiuj":4219,"Ġparla":4220,"Ġtraf":4221,"ulg":4222,"daÄµo":4223,"Ġaktiv":4224,"Ġleter":4225,"atu":4226,"Ġsoli":4227,"ĠKor":4228,"Ġwonderful":4229,"Ġgx":4230,"Ġcouldn":4231,"zed":4232,"Ġopinias":4233,"Ġkonvin":4234,"ito":4235,"Kiel":4236,"rajn":4237,"Ġcut":4238,"rila":4239,"Ġbeh":4240,"Ġentertaining":4241,"Ġinici":4242,"Ġteat":4243,"bs":4244,"OT":4245,"Ġricevi":4246,"Ġhispana":4247,"Ġforta":4248,"ĠTHE":4249,"enaÅŃ":4250,"Ġedi":4251,"ĠMuz":4252,"There":4253,"Ġartikolon":4254,"ĠLud":4255,"ulous":4256,"Ġtien":4257,"ĠLon":4258,"tima":4259,"Ġkoncep":4260,"Ġdark":4261,"Ġmalfacile":4262,"Ġpartoj":4263,"42":4264,"ĠPe":4265,"mino":4266,"Ġkoro":4267,"rans":4268,"Ġstato":4269,"selves":4270,"cle":4271,"uto":4272,"ĠÅĿatas":4273,"band":4274,"inted":4275,"Ġtagon":4276,"eless":4277,"Ġextre":4278,"Ġevi":4279,"Ġresponde":4280,"Oni":4281,"Ġliked":4282,"ition":4283,"Ġesperantisto":4284,"ists":4285,"cor":4286,"ĠMad":4287,"encon":4288,"ÅĿanÄĿ":4289,"ÅĿa":4290,"Ġdosieroj":4291,"kiel":4292,"eblaj":4293,"ĠapenaÅŃ":4294,"ejon":4295,"âĪŀâĪŀ":4296,"ĠbedaÅŃ":4297,"Ġstrong":4298,"Ġ2012":4299,"Ġiomete":4300,"ready":4301,"rench":4302,"rinde":4303,"erio":4304,"Ġblog":4305,"ĠMicha":4306,"Ġchildren":4307,"Ġkreis":4308,"sive":4309,"Ġinterpre":4310,"Äľ":4311,"Ġlive":4312,"UT":4313,"Ġadministra":4314,"Ġbat":4315,"idoj":4316,"ham":4317,"ĠEsperantis":4318,"fort":4319,"Ġkunven":4320,"ĠUS":4321,"Ġcivi":4322,"ĠJan":4323,"78":4324,"Ġpiece":4325,"rum":4326,"lubo":4327,"zaj":4328,"ughter":4329,"Ġques":4330,"Ġbio":4331,"Ġkompreneble":4332,"ĠKa":4333,"Ġbrilli":4334,"kt":4335,"ĠUnio":4336,"Ġsciis":4337,"Ġvorton":4338,"lino":4339,"Ġ0":4340,"ĠAndre":4341,"Ġmalsup":4342,"Ġepisode":4343,"Ġmaldek":4344,"Ġrelations":4345,"fil":4346,"cted":4347,"Ġtian":4348,"Ġmention":4349,"cie":4350,"iÄĿintaj":4351,"ĠBla":4352,"KU":4353,"Ġinsta":4354,"Ġrajtoj":4355,"Ġviro":4356,"Ġuson":4357,"ĠAkadem":4358,"ric":4359,"Ġstyle":4360,"Ġcelas":4361,"ĠUniversala":4362,"ĠRi":4363,"Ġjes":4364,"ange":4365,"Ġdro":4366,"Ġsx":4367,"Ġdisvolv":4368,"ĠCi":4369,"Ġgeo":4370,"zilo":4371,"Ġpreleg":4372,"Ġavi":4373,"Ġmalproksim":4374,"tek":4375,"ĠSub":4376,"Ġfunkcias":4377,"Ġara":4378,"Ġmaybe":4379,"Ġvend":4380,"ĠSinjoro":4381,"ĠEm":4382,"Ġseveral":4383,"tus":4384,"Ġmaro":4385,"ĠIz":4386,"arch":4387,"movado":4388,"ĠmalgraÅŃ":4389,"lok":4390,"dor":4391,"ari":4392,"Äīis":4393,"tulo":4394,"Ġsocial":4395,"Ġbalo":4396,"plen":4397,"ĠWilliam":4398,"Ġsocia":4399,"Ġbonaj":4400,"Ġtekstoj":4401,"Ġ26":4402,"Ġspeciala":4403,"etojn":4404,"Ġdin":4405,"Ġparton":4406,"ĠKi":4407,"Ġplene":4408,"ĠÅĿton":4409,"Ġactress":4410,"Ġiri":4411,"Ġmalri":4412,"Ġanno":4413,"Ġalready":4414,"Ġbeginning":4415,"Ġkompon":4416,"Ġnuntempe":4417,"Ġofic":4418,"toroj":4419,"omet":4420,"ker":4421,"pic":4422,"And":4423,"Ġ{":4424,"Ġmaljun":4425,"Ġerotika":4426,"ony":4427,"ĠOri":4428,"ĠTre":4429,"Ġfinan":4430,"Ġstars":4431,"ĠMat":4432,"rano":4433,"ĠTri":4434,"Ġkoncer":4435,"ĠkuÅĿ":4436,"Ġareo":4437,"ĠmalantaÅŃ":4438,"pres":4439,"ÄĿen":4440,"Ġwaste":4441,"ĠUr":4442,"zan":4443,"vable":4444,"Ġ2006":4445,"rik":4446,"Ġgaze":4447,"Ġinkluzive":4448,"olojn":4449,"alie":4450,"El":4451,"litaj":4452,"!!!":4453,"Ġgroup":4454,"sim":4455,"Ġul":4456,"Ġkred":4457,"Ġpartopreni":4458,"tuloj":4459,"ĠEkzemple":4460,"ĠJapanio":4461,"eng":4462,"Ġhoro":4463,"Ġreci":4464,"Ġdisc":4465,"Ġ2007":4466,"Ġbild":4467,"Ġtemp":4468,"Äį":4469,"strum":4470,"Ġfakto":4471,"Ġevoluo":4472,"Ġsold":4473,"ĠÃĹ":4474,"Ġpopoloj":4475,"Ġmalvar":4476,"ikan":4477,"hi":4478,"Ġ2009":4479,"Ġdefinitely":4480,"Ġsekve":4481,"Ġsy":4482,"Ġfirma":4483,"Ġworse":4484,"Ġcertainly":4485,"Ġdemandis":4486,"Ġable":4487,"Ġmalpermes":4488,"ET":4489,"Ġdou":4490,"ardek":4491,"ĠWar":4492,"Ġaktu":4493,"Ġpublika":4494,"Ġstop":4495,"ĠIS":4496,"As":4497,"Ġguys":4498,"Ġpensis":4499,"dom":4500,"tical":4501,"ĠItalio":4502,"mun":4503,"Ġhered":4504,"Ġ2011":4505,"ĠÅĿtatoj":4506,"Ġmalsan":4507,"Ġmonatoj":4508,"Ġakom":4509,"Ġpek":4510,"Ġfas":4511,"Ġabsolutely":4512,"unio":4513,"Ġride":4514,"Ġpartio":4515,"Ġbecomes":4516,"Ġev":4517,"Ġ70":4518,"Ġwritten":4519,"Ġaj":4520,"Ġwin":4521,"Ġpaco":4522,"Ġtelevid":4523,"Ġtom":4524,"cumenta":4525,"Ġkontin":4526,"Ġsab":4527,"Ġdirection":4528,"Ġwanted":4529,"punkto":4530,"Ġvek":4531,"95":4532,"ĠMichael":4533,"inaj":4534,"acion":4535,"Ġgame":4536,"friend":4537,"Ġbatalo":4538,"dle":4539,"Ġmalfacila":4540,"ĠdediÄī":4541,"Ġpala":4542,"Ġprenis":4543,"fun":4544,"aÄĿa":4545,"jare":4546,"landaj":4547,"Ġcalled":4548,"Ġestab":4549,"Ġproce":4550,"Ġrolon":4551,"Ġkonten":4552,"bb":4553,"Ġmalam":4554,"Ġlives":4555,"Re":4556,"Ġsuccess":4557,"ĠÄīiun":4558,"Jen":4559,"Ġsendi":4560,"Ġpicture":4561,"play":4562,"Ġradio":4563,"Ġnam":4564,"Ġmenso":4565,"top":4566,"ĠNord":4567,"Ġtown":4568,"Ġmonon":4569,"uba":4570,"Ġreprezen":4571,"Ġvari":4572,"Ð½":4573,"Ġbrother":4574,"Ġmalhel":4575,"pozicio":4576,"63":4577,"ky":4578,"Ġpolitiko":4579,"uron":4580,"Ã¡n":4581,"Ġnivelo":4582,"uta":4583,"Ġcas":4584,"Ġmajor":4585,"cel":4586,"fan":4587,"Ġvilla":4588,"ĠEven":4589,"ĠBritio":4590,"ĠVal":4591,"Ġkandid":4592,"ented":4593,"azar":4594,"Ġpain":4595,"Ġapro":4596,"perim":4597,"Ġteam":4598,"Ġfebruaro":4599,"Ġcontin":4600,"ĠMay":4601,"ĠTim":4602,"Ġself":4603,"Ġrelationship":4604,"ĠleÄĿo":4605,"fortunately":4606,"tismo":4607,"Ġmalb":4608,"ĠUN":4609,"ĠKris":4610,"Ġvizitis":4611,"teks":4612,"007":4613,"62":4614,"sti":4615,"antan":4616,"Ġproviz":4617,"Ġnord":4618,"istic":4619,"kcio":4620,"Ġarmeo":4621,"Ġbrilliant":4622,"ĠWor":4623,"let":4624,"Ġfrue":4625,"abe":4626,"Ġmontris":4627,"008":4628,"Ġkomence":4629,"estas":4630,"Do":4631,"ĠCol":4632,"Ġnaturo":4633,"Ġwish":4634,"Ġdese":4635,"ĠCla":4636,"Ġ2005":4637,"ĠRos":4638,"ctive":4639,"ĠPh":4640,"Ġalb":4641,"Ġakiri":4642,"iÄĿinta":4643,"Ġfans":4644,"ĠFa":4645,"Ġsole":4646,"Ġtrankvi":4647,"times":4648,"Ġmatter":4649,"ĠRobert":4650,"legi":4651,"Ġkresk":4652,"zaÄĿo":4653,"what":4654,"aking":4655,"Ġrastrum":4656,"Ġverkisto":4657,"Ġloved":4658,"tial":4659,"Ġhi":4660,"arsov":4661,"ain":4662,"ĠKial":4663,"Ġeg":4664,"ferenco":4665,"41":4666,"Ġuzado":4667,"tanoj":4668,"Ġmedio":4669,"mid":4670,"okra":4671,"Ġsec":4672,"ĠPal":4673,"Ġimperi":4674,"burgo":4675,"Ġsendis":4676,"Ġ2014":4677,"indaj":4678,"Ġspecioj":4679,"Ġroom":4680,"ĠÅĿablon":4681,"ental":4682,"Ġtotally":4683,"Ġeyes":4684,"ĠAX":4685,"Ġcho":4686,"53":4687,"ĠMem":4688,"ĠPla":4689,"Ġesperas":4690,"Ġexample":4691,"Estas":4692,"tice":4693,"Ġlost":4694,"Ġmankas":4695,"ior":4696,"Ã½":4697,"Ġsupre":4698,"iss":4699,"uk":4700,"Ġtouch":4701,"vad":4702,"Ġdays":4703,"Ġnon":4704,"!)":4705,"Ġmaster":4706,"Ch":4707,"ĠAfriko":4708,"Ġstrange":4709,"wards":4710,"ÑĢ":4711,"Ġalthough":4712,"ĠNeder":4713,"ister":4714,"Ġnumber":4715,"ĠmaÅĿ":4716,"Ġom":4717,"ÑĤ":4718,"outh":4719,"Ġhistory":4720,"Ġkonven":4721,"LE":4722,"Ġkonta":4723,"Ġprezentis":4724,"Ġbildo":4725,"ĠÄľis":4726,"Ġrastrumeroj":4727,"Ġvide":4728,"isiono":4729,"tici":4730,"ĠEkde":4731,"cious":4732,"Ġstrato":4733,"Ġdanc":4734,"Ġricevas":4735,"Ġkapo":4736,"Ġnes":4737,"ations":4738,"ĠRen":4739,"lash":4740,"uli":4741,"Ġkrome":4742,"Ġgave":4743,"ination":4744,"gy":4745,"bis":4746,"Ġfinfine":4747,"gx":4748,"Ġproblemoj":4749,"ĠFrank":4750,"gs":4751,"Ġgar":4752,"ĠRad":4753,"Ġcrap":4754,"ĠEgi":4755,"Ġkuns":4756,"lion":4757,"ikon":4758,"Ġfiks":4759,"Ġinterkons":4760,"Ġbr":4761,"ĠKvankam":4762,"ĠPra":4763,"ĠloÄĿantaro":4764,"Ġbased":4765,"Ġsankta":4766,"Ġthemselves":4767,"ĠRich":4768,"enda":4769,"ĠfiÅĿ":4770,"Ġdeal":4771,"forma":4772,"Ġflick":4773,"Ar":4774,"52":4775,"irst":4776,"Ġlaboras":4777,"Ġhelpo":4778,"Ġmanag":4779,"Ġlingvojn":4780,"Ġentute":4781,"Ġthrill":4782,"baroj":4783,"olf":4784,"ĠIndi":4785,"Ġtranspor":4786,"ĠMartin":4787,"abl":4788,"Ġ60":4789,"ĠAp":4790,"Ġkonsid":4791,"istino":4792,"Ġrevenis":4793,"Ġclose":4794,"Ġprofi":4795,"ats":4796,"Ġsaman":4797,"Ġskribi":4798,"igoj":4799,"Ġakompan":4800,"ĠÄĿian":4801,"ĠAra":4802,"Ġgravas":4803,"tikon":4804,"used":4805,"uzo":4806,"Ġ2013":4807,"Ġwants":4808,"ĠÄľener":4809,"Ġwait":4810,"Mar":4811,"ĠGranda":4812,"ining":4813,"arato":4814,"ions":4815,"pet":4816,"Ġparts":4817,"Ġrigardis":4818,"ĠFine":4819,"Ġlearn":4820,"kle":4821,"ints":4822,"54":4823,"ĠaÅŃto":4824,"Ġstuff":4825,"ĠFil":4826,"ĠelÅĿ":4827,"pend":4828,"esperanto":4829,"strio":4830,"eme":4831,"Ġhoroj":4832,"raÄµo":4833,"net":4834,"pense":4835,"ĠBal":4836,"Ġmalgrandaj":4837,"ĠeÅŃ":4838,"idanto":4839,"Ġlernejo":4840,"Ġgenre":4841,"Ġhus":4842,"Ġamiko":4843,"amp":4844,"Ġkontak":4845,"Ġmiks":4846,"Ġfair":4847,"Ġkurso":4848,"Ġthroughout":4849,"Ġsubskrib":4850,"Ġdesc":4851,"Ġsuda":4852,"Ġrid":4853,"iron":4854,"Ñģ":4855,"Ġblin":4856,"Ġokaze":4857,"Ġatmos":4858,"ĠAfter":4859,"Ġquality":4860,"Ġekzempl":4861,"ĠaÅŃdis":4862,"tag":4863,"Ġestraro":4864,"Ġwriting":4865,"ategorio":4866,"Ġcolle":4867,"using":4868,"Ġcreat":4869,"Ġcall":4870,"Ġheard":4871,"Ġtries":4872,"Ġpropag":4873,"Ġreturn":4874,"ĠLin":4875,"ball":4876,"ica":4877,"Ġkorek":4878,"Ġbibliote":4879,"Ġforma":4880,"ĠCer":4881,"ĠParizo":4882,"ĠTomo":4883,"Ġron":4884,"lante":4885,"Ġworks":4886,"Ġideoj":4887,"liz":4888,"Ġtook":4889,"ĠJames":4890,"Ġatt":4891,"Ġokul":4892,"Ho":4893,"edi":4894,"ĠJohano":4895,"longe":4896,"Ġrezulto":4897,"Ġalf":4898,"Ġlegis":4899,"Ġproponas":4900,"Ġdosiero":4901,"Ġviroj":4902,"Ġdistan":4903,"unch":4904,"ures":4905,"ĠvoÄīdon":4906,"Ġ000":4907,"Ġnekon":4908,"ĠPi":4909,"Ġcrea":4910,"ĠWith":4911,"Ġnatura":4912,"Ġlooked":4913,"seks":4914,"Ġkaz":4915,"ĠCan":4916,"Mal":4917,"amer":4918,"Ġpsy":4919,"Ġnar":4920,"Ġmark":4921,"Ġenhavo":4922,"tation":4923,"Ġpubliko":4924,"ãĤ":4925,"Ġelekti":4926,"80":4927,"ĠIKU":4928,"ĠEuro":4929,"Ġprem":4930,"Ġteen":4931,"tempo":4932,"Ġbehind":4933,"Ġfinal":4934,"Ġinteresa":4935,"ĠGod":4936,"lingvaj":4937,"Ġpoem":4938,"Ġstan":4939,"Ġrilatoj":4940,"Ġvortaro":4941,"Ġparte":4942,"Ġspor":4943,"Ġben":4944,"Ġhonor":4945,"tish":4946,"ĠSE":4947,"ĠEsperantistoj":4948,"Ġmano":4949,"ĠÄīefaj":4950,"Ġflug":4951,"Ġiras":4952,"Ġvag":4953,"ĠÅĿajne":4954,"ulis":4955,"Ġviewer":4956,"Ġinklu":4957,"fes":4958,"esper":4959,"ĠMag":4960,"Ġsubite":4961,"Ġvig":4962,"Ġmalmulte":4963,"Ġinsulo":4964,"Ġenjoyed":4965,"ĠpaÄĿoj":4966,"Ġtoday":4967,"****":4968,"done":4969,"emble":4970,"Ġripe":4971,"Ġsum":4972,"Ġmyster":4973,"Ġkilled":4974,"ev":4975,"ĠAleks":4976,"Ġ90":4977,"ĠHungario":4978,"Ġinves":4979,"Ġsekreta":4980,"Ġkav":4981,"Ġtrib":4982,"ĠantaÅŃa":4983,"ike":4984,"parto":4985,"Ġfoli":4986,"tian":4987,"Ġexpect":4988,"Ġtrak":4989,"Ġetc":4990,"ST":4991,"Ġkomprenis":4992,"Ġkarakteriz":4993,"zojn":4994,"Ġsend":4995,"Ġstarts":4996,"rika":4997,"Ġparola":4998,"ĠPetro":4999,"Ġilian":5000,"Ġtransdon":5001,"Ġkomb":5002,"Ġkron":5003,"Ġsle":5004,"ĠEks":5005,"Ġpartoprenantoj":5006,"Ġturns":5007,"Ġmanoj":5008,"Ġmalfor":5009,"ĠStu":5010,"ĠEÄī":5011,"Ġlevel":5012,"poÅĿ":5013,"ĠJack":5014,"ĠFrancis":5015,"Ġnomoj":5016,"ĠloÄĿantojn":5017,"Inter":5018,"ged":5019,"ĠThen":5020,"ĨĴ":5021,"Ġhid":5022,"Ġblood":5023,"Ġdipl":5024,"Ġdiskuto":5025,"Ġrevi":5026,"Ġlernis":5027,"rigo":5028,"Ġkonklu":5029,"emokra":5030,"Ġsoon":5031,"preneble":5032,"Ġaldoni":5033,"Ġtermin":5034,"Ġmoderna":5035,"Ġ%":5036,"Ġenkonduk":5037,"ĠEr":5038,"Ġaparta":5039,"ganta":5040,"zor":5041,"Ġeldono":5042,"Ġ31":5043,"Ġtemoj":5044,"Ġmyself":5045,"Ġinternaciaj":5046,"cla":5047,"Ġmort":5048,"tics":5049,"Ġsurpri":5050,"ĠrenkontiÄĿo":5051,"__":5052,"Ġdue":5053,"Kon":5054,"Ġminim":5055,"iled":5056,"Ġeventu":5057,"ĠPeter":5058,"ulara":5059,"Ġregis":5060,"Ġhorrible":5061,"Ġankau":5062,"fac":5063,"Ġvivis":5064,"Ġcxi":5065,"Ġhejm":5066,"Ġurbon":5067,"burg":5068,"ĠSp":5069,"Ġcele":5070,"What":5071,"Ġpros":5072,"ĠIzra":5073,"Asocio":5074,"ĠantaÅŃen":5075,"alisto":5076,"iÄĿu":5077,"ĠKol":5078,"Ġamuz":5079,"Ġnorda":5080,"ĠAsocio":5081,"ikip":5082,"ues":5083,"vange":5084,"Ġleav":5085,"Ġmun":5086,"Ġokcidenta":5087,"ĨįãĨįãĨįãĨįã":5088,"Mon":5089,"Ġforto":5090,"Ġfinally":5091,"tent":5092,"Ġlingv":5093,"Ġexact":5094,"Ġvoice":5095,"Ġlate":5096,"Ġrimark":5097,"Ġdecent":5098,"Ġ29":5099,"Ġpunkto":5100,"ĠMov":5101,").<":5102,"Ġfrato":5103,"ĠÄĪeÄ¥":5104,"Ġod":5105,"ĠÄĿard":5106,"RO":5107,"Ġdaughter":5108,"Äīon":5109,"atan":5110,"Ġchang":5111,"pes":5112,"Ġkazo":5113,"Ġorder":5114,"Ġhear":5115,"Ġask":5116,"Ġgard":5117,"ĠmonaÄ¥":5118,"Ġnovel":5119,"Ġekzistis":5120,"Ġpul":5121,"Ġmondon":5122,"Ġhu":5123,"ĠVarsov":5124,"Ġreview":5125,"hor":5126,"vision":5127,"Ġmalsamaj":5128,"lovakio":5129,"Ġnature":5130,"Ġnaciaj":5131,"prenis":5132,"lingvo":5133,"Ġkiller":5134,"Ġkanto":5135,"Ġdemon":5136,"Ġekstre":5137,"siko":5138,"Af":5139,"Ġagra":5140,"Ġinde":5141,"009":5142,"Ġeng":5143,"Ġfeeling":5144,"ÄĿu":5145,"ĠÄīina":5146,"Ġplurajn":5147,"Ġfavorite":5148,"Ġdest":5149,"Un":5150,"Ġdie":5151,"ĠPlej":5152,"Ġlandon":5153,"espon":5154,"olu":5155,"ĠHav":5156,"Ġsays":5157,"ritaj":5158,"Ġthinking":5159,"Ġhomaro":5160,"Ġhila":5161,"ĠGeorge":5162,"Ġster":5163,"pat":5164,"Ġceloj":5165,"Ġstrate":5166,"Ġhistoria":5167,"But":5168,"ches":5169,"Ġimpos":5170,"Ġaviad":5171,"mely":5172,"Ġkritik":5173,"Ġprovid":5174,"emato":5175,"Ġprakti":5176,"Ġvojon":5177,"onon":5178,"Ġtold":5179,"Ġefektive":5180,"ye":5181,"Ġpreten":5182,"Ġpay":5183,"Ġil":5184,"ĠKio":5185,"dik":5186,"Ġdudek":5187,"Ġbildoj":5188,"Ġkampo":5189,"ĠÄµe":5190,"ebl":5191,"Ġmu":5192,"ciojn":5193,"Ġuniversita":5194,"Ġlibron":5195,"ĠVan":5196,"Ġappear":5197,"ĠMosk":5198,"Ġpremis":5199,"ĠNow":5200,"ards":5201,"kin":5202,"ĠAkademio":5203,"Pri":5204,"ĠEstis":5205,"Ġridic":5206,"ĠPaul":5207,"Ġescep":5208,"Ġduono":5209,"Ġimportant":5210,"tike":5211,"Ġinterna":5212,"Ġkne":5213,"Ġrifuz":5214,"ĠIKUE":5215,"ĠIr":5216,"how":5217,"ĠEx":5218,"ĠFer":5219,"Ġnomas":5220,"79":5221,"Ġsekure":5222,"!<":5223,"Ġlokaj":5224,"formo":5225,"ĠÂ·":5226,"Ġtaken":5227,"ĠEnglish":5228,"tadon":5229,"ĠAlso":5230,"Ġaktive":5231,"Ġitala":5232,"Ġelektis":5233,"Ġkultura":5234,"ery":5235,"Ġevil":5236,"Ġamazing":5237,"rash":5238,"Ġcost":5239,"vice":5240,"feli":5241,"ĠpreÄĿejo":5242,"Ġtelefon":5243,"Ġseksa":5244,"Ġregionoj":5245,"tebla":5246,"Ġpraktik":5247,"Ġhusband":5248,"yal":5249,"Ġfervoj":5250,"cial":5251,"Ġflo":5252,"Ġhappens":5253,"Ġlight":5254,"lute":5255,"IT":5256,"Ġintel":5257,"Ġmode":5258,"Ġexperience":5259,"fik":5260,"logo":5261,"Ġperhaps":5262,"Ġpure":5263,"ç¤¼åĮħç¤¼åĮħç¤¼åĮħç¤¼åĮħç¤¼åĮħç¤¼åĮħç¤¼åĮħç¤¼åĮħç¤¼åĮħç¤¼åĮħç¤¼åĮħç¤¼åĮħç¤¼åĮħç¤¼åĮħç¤¼åĮħç¤¼åĮħ":5264,"Ġnordo":5265,"Ġpotenco":5266,"Ġinfano":5267,"Ġ+":5268,"ĠJon":5269,"Ġpaf":5270,"Ġbestoj":5271,"Ġmalp":5272,"AntaÅŃ":5273,"Ġfur":5274,"iru":5275,"void":5276,"Ġinteralie":5277,"lekto":5278,"emaj":5279,"ĠDom":5280,"minist":5281,"Ġsupren":5282,"Ġlack":5283,"Ġliver":5284,"Ġajna":5285,"Ġscii":5286,"Ġtype":5287,"ovo":5288,"bal":5289,"Ġrespond":5290,"ED":5291,"etoj":5292,"umb":5293,"ĠBrazilo":5294,"ĠRa":5295,"nas":5296,"Ġfight":5297,"oogle":5298,"Ġhappened":5299,"Ġgun":5300,"Ã³n":5301,"Ġefektiv":5302,"Ġreve":5303,"Ġmeta":5304,"ĠkomenciÄĿis":5305,"ĠMac":5306,"ĠHam":5307,"nask":5308,"pical":5309,"Ġatend":5310,"ĠâĨĴ":5311,"eso":5312,"Ġmortin":5313,"ĠPola":5314,"Ġmalli":5315,"Ġknown":5316,"igante":5317,"Ġleave":5318,"Ġhavos":5319,"Äľi":5320,"ject":5321,"ira":5322,"taga":5323,"Ġcivitan":5324,"Ġsens":5325,"Ġoffer":5326,"loÄĿ":5327,"ĠNacia":5328,"Ġdisku":5329,"xoj":5330,"ĠOkcid":5331,"Ġfilozof":5332,"iojn":5333,"anÄĿoj":5334,"Ġalvenis":5335,"Ġuniversitato":5336,"lim":5337,"Ġfing":5338,"'.":5339,"ĠFre":5340,"Ġstaris":5341,"ffic":5342,"Ġful":5343,"amoj":5344,"Ġsenco":5345,"Ġorienta":5346,"Ġpostulas":5347,"kite":5348,"Ġpaci":5349,"Ġsinjoro":5350,"ajo":5351,"ĠâĢĺ":5352,"anton":5353,"Ġwhite":5354,"Ġartis":5355,"Ġpetas":5356,"Ġtraj":5357,"Ġekzemplo":5358,"ĠVo":5359,"Ġmondmilito":5360,"Ġkiaj":5361,"ĠWhy":5362,"side":5363,"vole":5364,"lic":5365,"diÄĿas":5366,"Ġideon":5367,"Ġfri":5368,"IA":5369,"ESTO":5370,"ĠKelkaj":5371,"Ã¨":5372,"Ġski":5373,"Ġstaras":5374,"Ġkapablas":5375,"Ġwalk":5376,"ension":5377,"ÅĿan":5378,"Ġtitolo":5379,"oh":5380,"Ġtatu":5381,"Ġkoncent":5382,"kopo":5383,"Ġpastro":5384,"ĠCor":5385,"61":5386,"porno":5387,"Ġsekvis":5388,"Ġviolence":5389,"Ġmalof":5390,"Ġquick":5391,"Ġhilarious":5392,"Ġinvolved":5393,"ĠUz":5394,"Äīaj":5395,"ĠÄ¥":5396,"Ġfojon":5397,"komun":5398,"Ġpetis":5399,"ĠSov":5400,"Ġreto":5401,"kata":5402,"Ġkonataj":5403,"Ġreligio":5404,"Ġbul":5405,"ĠMultaj":5406,"estis":5407,"ĠFrench":5408,"ĠneÅŃ":5409,"Ġfond":5410,"ĠSc":5411,"Ġcannot":5412,"Ġmeti":5413,"Ġmedic":5414,"Ġappro":5415,"Ġnear":5416,"Ġdirected":5417,"data":5418,"Ġattempt":5419,"loke":5420,"Ġtravi":5421,"Ġgepatroj":5422,"Ġstories":5423,"ĠKore":5424,"Ġtech":5425,"90":5426,"uck":5427,"Ġrema":5428,"Ġtrejn":5429,"ova":5430,"Ġlumo":5431,"Ġsendu":5432,"aniere":5433,"Ġgravan":5434,"ĠJapan":5435,"ius":5436,"Ġmarbor":5437,"ĠÄīap":5438,"Ġplejparte":5439,"Ġdocumenta":5440,"Ġroles":5441,"Ġsimbo":5442,"ĠQu":5443,"Ġkompare":5444,"Ġcoming":5445,"Ġtalent":5446,"Ġadres":5447,"arto":5448,"pose":5449,"inojn":5450,"Ġallow":5451,"astro":5452,"aco":5453,"Ġatta":5454,"Ġweak":5455,"Ġincredi":5456,"Ġniajn":5457,"For":5458,"Ġelekto":5459,"Ġconvin":5460,"reco":5461,"ĠaÅŃtom":5462,"Ġgirls":5463,"Ġbazo":5464,"tecon":5465,"Ġcla":5466,"Ġridiculous":5467,"Ġnomita":5468,"ander":5469,"tivoj":5470,"Ġkontrol":5471,"Ġ2004":5472,"Per":5473,"Ġdezi":5474,"Ġteamo":5475,"loro":5476,"bara":5477,"Ġexpla":5478,"Ġmallonga":5479,"Ġmiajn":5480,"head":5481,"Ġmalferm":5482,"Ġextremely":5483,"ĠÄīie":5484,"Ġkvanto":5485,"Ġrelative":5486,"Ġeto":5487,"Ġatendas":5488,"Ġfour":5489,"ĠGoogle":5490,"atema":5491,"Ġkompar":5492,"iews":5493,"Ġhours":5494,"Ġesperant":5495,"Ġdecido":5496,"Ġdream":5497,"ĠRob":5498,"Ġdeter":5499,"tiga":5500,"Ġupon":5501,"Ġpripens":5502,"Ġsentas":5503,"meo":5504,"Ġcool":5505,"ĠSil":5506,"dies":5507,"Ġhomaj":5508,"Ġekonomia":5509,"ĠLat":5510,"Ġvan":5511,"Ġeniris":5512,"aux":5513,"ieron":5514,"Ġfonto":5515,"lanta":5516,"Ġservo":5517,"Ġpet":5518,"Ġmonto":5519,"ĠWhile":5520,"Ġformoj":5521,"ima":5522,"igx":5523,"Ġdio":5524,"rich":5525,"Ġhos":5526,"ĸĳ":5527,"Ġdemand":5528,"kte":5529,"Ġsignifo":5530,"ING":5531,"mem":5532,"ĠDek":5533,"Ġacross":5534,"Ġscore":5535,"Ġhit":5536,"Ġevidente":5537,"Ġresta":5538,"esti":5539,"Ġeksplo":5540,"Unu":5541,"Ġgeed":5542,"Ġprovis":5543,"Ġstabila":5544,"key":5545,"Ġripo":5546,"Ġdesegn":5547,"Ġsekva":5548,"kribo":5549,"ĠRed":5550,"ĠPas":5551,"Nun":5552,"Ġisla":5553,"Ġbirdoj":5554,"Ġsimilaj":5555,"Ġword":5556,"Ġwouldn":5557,"Ġpho":5558,"Ġvidu":5559,"ÄĪe":5560,"ĠVla":5561,"Ġtrag":5562,"Ġnomis":5563,"Ġkonfli":5564,"Ġeklezio":5565,"Ġstatu":5566,"Ġspeciale":5567,"thy":5568,"Ġsuno":5569,"arki":5570,"Ġign":5571,"ĠII":5572,"Ġchance":5573,"Ġdistribu":5574,"ĠHor":5575,"Ð¾Ð":5576,"Ġrecipro":5577,"tigitaj":5578,"ĠPIV":5579,"70":5580,"enty":5581,"Ġhonest":5582,"Ġmalrap":5583,"85":5584,"ĠYork":5585,"ĠnomiÄĿas":5586,"Ġsimile":5587,"Ġbonven":5588,"sub":5589,"75":5590,"Ġrilatas":5591,"Ġturned":5592,"eld":5593,"Ġmalbona":5594,"Ġ)":5595,"ĠÄĿen":5596,"Ġjus":5597,"ĠGar":5598,"Ġplez":5599,"Ġdeb":5600,"ĠFESTO":5601,"Ġmaterial":5602,"Ġair":5603,"aja":5604,"Ġveter":5605,"Ġarto":5606,"Ġprotes":5607,"Ġakceptis":5608,"ĠNia":5609,"lego":5610,"Ġcerta":5611,"Ġcentra":5612,"mir":5613,"logy":5614,"zia":5615,"Ġrecent":5616,"Ġcinemato":5617,"Ġproduktoj":5618,"Ġpolice":5619,"Ġkonfir":5620,"ury":5621,"uman":5622,"Ġnigra":5623,"kre":5624,"ĠÄīielo":5625,"dulo":5626,"kurso":5627,"ilip":5628,"ĠBa":5629,"Ġfigh":5630,"ĠEvery":5631,"Ġpil":5632,"konstru":5633,"Ġoriginala":5634,"Ġkalk":5635,"Ġbody":5636,"Ġ2001":5637,"etere":5638,"ĠÄ¤":5639,"Ġvorta":5640,"ĠaÅŃd":5641,"Ġcountry":5642,"ĠTa":5643,"ĠBern":5644,"Ġmanko":5645,"ĠÄīambro":5646,"stron":5647,"Ġreta":5648,"poli":5649,"Ġappar":5650,"Ġcareer":5651,"Ġslo":5652,"edoj":5653,"preci":5654,"Ġatten":5655,"Ġlabori":5656,"Ġpossible":5657,"rigas":5658,"Ġgang":5659,"Ġtekston":5660,"Ġmetis":5661,"Ġkaste":5662,"Ġproksima":5663,"Ġsudo":5664,"Ġfaros":5665,"Ġkunveno":5666,"Ġapart":5667,"ĠAzio":5668,"plena":5669,"UN":5670,"Ġmilita":5671,"Ġpronon":5672,"ligo":5673,"ĠFe":5674,"rip":5675,"die":5676,"len":5677,"ĠÅĿablonoj":5678,"Ġknew":5679,"Ġdrin":5680,"Ġswe":5681,"amento":5682,"oles":5683,"Ġpardon":5684,"Ġexci":5685,"tically":5686,"Ġsentis":5687,"ĠKanado":5688,"No":5689,"ribo":5690,"Ġdeep":5691,"ĠvizaÄĿo":5692,"ĠFar":5693,"cin":5694,"Ġplimulto":5695,"Ġpolitikaj":5696,"estern":5697,"Ġfren":5698,"ordo":5699,"Ġaten":5700,"Ġsekvan":5701,"Ġasocioj":5702,"estroj":5703,"Ġpredic":5704,"ford":5705,"Ġerar":5706,"XX":5707,"ished":5708,"Ġdemandoj":5709,"torio":5710,"ĠMaro":5711,"ismaj":5712,"Ġshown":5713,"Ġstilo":5714,"Ġcomplete":5715,"fiko":5716,"paÄĿo":5717,"utter":5718,"ĠPres":5719,"ĠÄ´":5720,"Ġtemper":5721,"Ġordo":5722,"gar":5723,"ude":5724,"Ġequ":5725,"ĠJust":5726,"Ġwords":5727,"Ġcheap":5728,"han":5729,"Ġexplo":5730,"Ġsaying":5731,"Ġannoying":5732,"tein":5733,"loko":5734,"Ġrimarkis":5735,"KOKOKOKOKOKOKOKO":5736,"Ġsometimes":5737,"Ġpersone":5738,"Ġkompli":5739,"Ġscienco":5740,"dra":5741,"igado":5742,"RE":5743,"ĠRichard":5744,"now":5745,"ĠâĢ¦":5746,"Ġfenom":5747,"tera":5748,"sci":5749,"Ġaro":5750,"baze":5751,"ĠEklezio":5752,"Ġdevenas":5753,"fita":5754,"Ġkapon":5755,"Ġcul":5756,"Ġiel":5757,"ĠMer":5758,"acks":5759,"Ġjok":5760,"Ġblanka":5761,"ĠDua":5762,"noj":5763,"ines":5764,"Ġfeature":5765,"ls":5766,"Ġantikva":5767,"ics":5768,"Ġkonstitu":5769,"Ġkilomet":5770,"Ġ$":5771,"Ġadd":5772,"grand":5773,"Ġhaven":5774,"Ġalie":5775,"tenas":5776,"ĠPlone":5777,"ĠÄľia":5778,"Ġfinanc":5779,"Ġobviously":5780,"Ġpick":5781,"Ġminutoj":5782,"lub":5783,"Ġorganizo":5784,"adas":5785,"Ġusually":5786,"Ġfondita":5787,"Ġekle":5788,"ĠUkra":5789,"ĠBritish":5790,"Ġdoub":5791,"Ġuzantoj":5792,"ĠMeks":5793,"Ġplibonigi":5794,"Ġage":5795,"Ġkro":5796,"ĠMas":5797,"ĠPaÅŃ":5798,"ĠloÄĿis":5799,"uel":5800,"onge":5801,"ĠVen":5802,"which":5803,"Ġhands":5804,"AM":5805,"Ġnone":5806,"ĠAb":5807,"yond":5808,"ĠWal":5809,"Ġgazeto":5810,"Ġmalmultaj":5811,"Ġimpress":5812,"Ġwhe":5813,"kulturo":5814,"Ġuzataj":5815,"Ġyourself":5816,"ĠPan":5817,"Ġatribu":5818,"hon":5819,"Ġnokto":5820,"grafi":5821,"Ġexactly":5822,"tie":5823,"Ġgxi":5824,"Ġfesto":5825,"Le":5826,"Ġalone":5827,"ablono":5828,"urs":5829,"ĠSm":5830,"Ġfoto":5831,"laro":5832,"Ġends":5833,"ground":5834,"ĠGad":5835,"ĠNederlando":5836,"ral":5837,"Ġplus":5838,"Ġsave":5839,"Ġsemajno":5840,"fono":5841,"Ġlinio":5842,"Ġsov":5843,"ĠAc":5844,"Ġcomed":5845,"Ġtrovos":5846,"jun":5847,"fran":5848,"nik":5849,"wing":5850,"Ġado":5851,"Ġdel":5852,"endoj":5853,"Ġakuz":5854,"ĠpaÄĿon":5855,"Ġimpli":5856,"92":5857,"ĠvoÄīo":5858,"itive":5859,"Ġchange":5860,"icio":5861,"ĠSco":5862,"Ġopening":5863,"Ġminac":5864,"CH":5865,"rez":5866,"olis":5867,"Ġhighly":5868,"Ġdiplom":5869,"Ġamong":5870,"chÃ©":5871,"Ġprofund":5872,"Ġjudoj":5873,"Ġspaco":5874,"Ġattention":5875,"Ġ1980":5876,"Ġparticularly":5877,"Ġdepar":5878,"Ġsuppor":5879,"Ġles":5880,"gent":5881,"Ġwhose":5882,"Ġjaron":5883,"ĠnaÅŃ":5884,"Ġvivi":5885,"wise":5886,"ĠAN":5887,"...<":5888,"ĠÅĿanÄĿi":5889,"wri":5890,"ĠKul":5891,"gia":5892,"Ġmeet":5893,"Ġusual":5894,"Ġprecize":5895,"Ġpordo":5896,"Ġsingle":5897,"Ġrekla":5898,"Ġaren":5899,"ĠJud":5900,"Ġmilit":5901,"Ġmatema":5902,"Ġwriter":5903,"ingo":5904,"Ġkampar":5905,"ĠAÅŃstra":5906,"tato":5907,"ĠLiber":5908,"Ġaferojn":5909,"ĠIMG":5910,"Ġforget":5911,"work":5912,"Ġfigure":5913,"Ġjardek":5914,"Ġdog":5915,"Ġfilino":5916,"Ġtaking":5917,"Tio":5918,"ÄĿan":5919,"Ġsociaj":5920,"pira":5921,"Ġafi":5922,"Ġdru":5923,"ĠKing":5924,"Ġstarted":5925,"ĠÅĿip":5926,"Ġfocus":5927,"Ġ1990":5928,"Ġjarcentoj":5929,"Ġgaran":5930,"Ġliving":5931,"Ġmanif":5932,"Ġproponis":5933,"Ġbov":5934,"Ġeviti":5935,"Ġalte":5936,"etnam":5937,"igni":5938,"ĠPrez":5939,"Ġnega":5940,"Ġpermesas":5941,"Ġmig":5942,"Ġfacila":5943,"Ġsignifon":5944,"Ġelektita":5945,"Ġembar":5946,"bus":5947,"met":5948,"pero":5949,"Ġkreita":5950,"Ġankaux":5951,"Ġones":5952,"non":5953,"Ġinstrum":5954,"Ġrunning":5955,"Ġprefere":5956,"Ġfaru":5957,"Ġalterna":5958,"ÅĿto":5959,"Ġens":5960,"Ġgore":5961,"Ġquestion":5962,"ĠaÄĿo":5963,"Ġsuspense":5964,"jan":5965,"lier":5966,"Ġforlasis":5967,"Ġtekni":5968,"pped":5969,"Ġsurvi":5970,"Ġhelpas":5971,"Ġstraight":5972,"Ġfinds":5973,"ĠGi":5974,"ĠBab":5975,"Ĩĳ":5976,"Ġtagojn":5977,"Ġdevos":5978,"Ġprofesoro":5979,"Ġtasko":5980,"Ġavanta":5981,"Ġprovo":5982,"Ġidenti":5983,"leks":5984,"ĠDire":5985,"Ġkomita":5986,"Ġvizitan":5987,"Ġfemale":5988,"Ġkonsideras":5989,"ĠSank":5990,"bers":5991,"Ġesprimo":5992,"ĠSvislando":5993,"RA":5994,"NU":5995,"Ġreality":5996,"anda":5997,"Ġsomewhat":5998,"bata":5999,"Ġproduktado":6000,"ĠVor":6001,"ÄĿaro":6002,"Ġhistori":6003,"Ġskribas":6004,"ya":6005,"Ġlocal":6006,"cher":6007,"Ġcxiuj":6008,"84":6009,"Ġkonfes":6010,"dajn":6011,"Ġkondu":6012,"amb":6013,"faj":6014,"94":6015,"Ġtrom":6016,"cation":6017,"Ġfeatur":6018,"ligita":6019,"ĠorganizaÄµo":6020,"Ġ_":6021,"uoj":6022,"ĠDa":6023,"Ġrevolucio":6024,"Ġromano":6025,"Ġdocumentary":6026,"Ġvent":6027,"elling":6028,"Ġclear":6029,"ĠStan":6030,"ĠSved":6031,"Ġmetodo":6032,"ĠKion":6033,"Ġvidpunkto":6034,"Ġsimilar":6035,"isi":6036,"odes":6037,"Ġreleased":6038,"Ġpersona":6039,"Ġcontro":6040,"Ġspecio":6041,"ĠJean":6042,"Ġdisappointed":6043,"He":6044,"ÅĻ":6045,"ĠSuper":6046,"Ġjokes":6047,"51":6048,"Ġ1970":6049,"ben":6050,"kes":6051,"Ġmonda":6052,"Ġmap":6053,"Ġperdis":6054,"gita":6055,"ĠDes":6056,"Ġsubtenas":6057,"ĠKongres":6058,"ĠÅĿar":6059,"Ġornam":6060,"ched":6061,"Ġfilmmak":6062,"Äīam":6063,"Ġmiddle":6064,"Ġtun":6065,"ory":6066,"ĠFra":6067,"ession":6068,"Ġhistorion":6069,"Ġdevelop":6070,"Ġokazo":6071,"rigard":6072,"Ġrajton":6073,"86":6074,"Ġinformo":6075,"ned":6076,"ĠeÅŃropa":6077,"ĠCentra":6078,"Tamen":6079,"Ġrilato":6080,"ĠWorld":6081,"ĠTok":6082,"Ġekkon":6083,"wor":6084,"zorg":6085,"Ġanglan":6086,"Ġpropraj":6087,"Ġneder":6088,"Ġduan":6089,"UTC":6090,"ults":6091,"ĠTut":6092,"ĠVil":6093,"Ġknows":6094,"grupo":6095,"Ġbomb":6096,"Ġcover":6097,"ĠKos":6098,"Ġiliajn":6099,"Ġsekvas":6100,"Ġfederacia":6101,"ĠTro":6102,"ĠVa":6103,"ĠLou":6104,"Ġservoj":6105,"ĠFakte":6106,"Ġels":6107,"ĠÄīas":6108,"ismon":6109,"Ġintro":6110,"cra":6111,"vata":6112,"Ġsilly":6113,"prem":6114,"ĠSoci":6115,"Ġakiris":6116,"Ġphoto":6117,"ĠFeder":6118,"Ġskla":6119,"rino":6120,"ralo":6121,"Ġspeco":6122,"IM":6123,"ĠEsperantujo":6124,"Ġjunaj":6125,"ĠAmerica":6126,"Ġartikolojn":6127,"kodo":6128,"Ġsit":6129,"ieroj":6130,"more":6131,"76":6132,"Ġreag":6133,"ganto":6134,"Ġproblems":6135,"Ġstruktur":6136,"?)":6137,"who":6138,"Ġkler":6139,"undoj":6140,"Jes":6141,"Ġproblemojn":6142,"Ġkvali":6143,"Ġshots":6144,"gos":6145,"iti":6146,"Ġpap":6147,"Ġrigardi":6148,"ĠDist":6149,"Ġdeklaris":6150,"ketoj":6151,"Ġevents":6152,"âĨĳ":6153,"Ġkomencas":6154,"meti":6155,"Ġgrandajn":6156,"Ġpoeto":6157,"Ġpromen":6158,"tiri":6159,"Ġsak":6160,"Ġinstan":6161,"ĠStar":6162,"Ġaltaj":6163,"Ġcinematography":6164,"ele":6165,"Ġkolor":6166,"ĠSpiri":6167,"Ġfondis":6168,"ĠSt":6169,"ĠÄĿusta":6170,"Ġtradu":6171,"Ġaferon":6172,"pra":6173,"iction":6174,"ksa":6175,"Ġdespite":6176,"ĠeÅŃropaj":6177,"ĠLudov":6178,"Ġtalking":6179,"Ġhungara":6180,"Ġreala":6181,"uty":6182,"ĠAÅŃstrio":6183,"Ġekzer":6184,"ojo":6185,"Ġmix":6186,"cs":6187,"pel":6188,"ĠKompreneble":6189,"ĠVia":6190,"well":6191,"oni":6192,"Ġfree":6193,"Ġbank":6194,"ĠÅĿtu":6195,"lingve":6196,"konstan":6197,"Ġtiajn":6198,"vano":6199,"Ġvenos":6200,"Ġhuge":6201,"Ġadminist":6202,"Ġvenon":6203,"Ġapartenis":6204,"braj":6205,"Ġespl":6206,"Ġkomunikado":6207,"ÅĦ":6208,"Ġaero":6209,"ĠAnton":6210,"kado":6211,"Ġsove":6212,"overn":6213,"Ġexcept":6214,"Ġservis":6215,"ĠvizaÄĿ":6216,"Ġlibrojn":6217,"Ġrenkontis":6218,"Ġfundamen":6219,"ĠGadget":6220,"Ġprezenta":6221,"kva":6222,"urt":6223,"ĠEo":6224,"fied":6225,"Ġoportun":6226,"Ġkondam":6227,"Ġeko":6228,"Ġdiffic":6229,"ump":6230,"Ġarbo":6231,"Ġminor":6232,"ĠSom":6233,"Ġmonato":6234,"Ġmemsta":6235,"eman":6236,"Ġpatrolita":6237,"cen":6238,"ĠretpoÅĿ":6239,"Ġveturi":6240,"Ġsimilas":6241,"progra":6242,"Ġorigina":6243,"ĠIJ":6244,"zias":6245,"Ġjapana":6246,"rejo":6247,"ĠclichÃ©":6248,"ĠUnuiÄĿintaj":6249,"Ġincluding":6250,"ĠDr":6251,"Ġkonstruita":6252,"];":6253,"aza":6254,"Ġabove":6255,"Ġofice":6256,"kable":6257,"ÅľanÄĿoj":6258,"Ġgig":6259,"Ġ2002":6260,"ĠTero":6261,"ĠCam":6262,"gantoj":6263,"Ġdatumoj":6264,"Fran":6265,"Äµe":6266,"Ġeffort":6267,"Ġattemp":6268,"ĠKro":6269,"Ġsequel":6270,"Ä¥o":6271,"Ġdependas":6272,"Ġmaterialo":6273,"Ġocc":6274,"Ġlito":6275,"beto":6276,"dition":6277,"naci":6278,"ible":6279,"iÄĿanta":6280,"Ġ35":6281,"Ġrakonto":6282,"Ġmunici":6283,"96":6284,"Ġindikas":6285,"Ġkontrolendaj":6286,"Ġadop":6287,"ĠAg":6288,"Ġhappy":6289,"anon":6290,"Ġlingvis":6291,"ĠTar":6292,"Ġklin":6293,"Ġpopulara":6294,"iroj":6295,"Ġakcepti":6296,"kosmo":6297,"Ġfuture":6298,"ĠOh":6299,"ĠBy":6300,"Ġanimo":6301,"post":6302,"kro":6303,"Ġprevious":6304,"tly":6305,"Ġheav":6306,"tivalo":6307,"zen":6308,"ĠJos":6309,"Ġpossi":6310,"Ġeventoj":6311,"umado":6312,"Ġtrakta":6313,"ĠÅĿanÄĿoj":6314,"Ġkomerc":6315,"Ġliteratur":6316,"plu":6317,"ĠtuÅĿ":6318,"Ġfajro":6319,"Ġcur":6320,"Ġebligas":6321,"Ġporn":6322,"You":6323,"ĠDra":6324,"Ġrating":6325,"Ġsoldatoj":6326,"diÄĿo":6327,"ĠkaÅŃz":6328,"Ġsupoz":6329,"iso":6330,"ĠsaÄĿ":6331,"Ġkorespon":6332,"Ġbuild":6333,"Ġkreas":6334,"ava":6335,"Ġrepe":6336,"tures":6337,"Ġtermino":6338,"ierre":6339,"Ġneniel":6340,"ĠKonsilio":6341,"Ġfide":6342,"Esperan":6343,"vely":6344,"Ġduo":6345,"ĠEgip":6346,"Ġear":6347,"kolo":6348,"Ġrent":6349,"Ġscienca":6350,"ĠLee":6351,"Ġinstruis":6352,"Ġkalku":6353,"Ġkas":6354,"Ġhell":6355,"uts":6356,"hu":6357,"ĠTor":6358,"tively":6359,"Ġtells":6360,"Ġproces":6361,"ĠGer":6362,"Ġkonfuz":6363,"74":6364,"Ġklaso":6365,"Ġprobable":6366,"edaÅŃ":6367,"Ġdezer":6368,"ĠFund":6369,"Ġsets":6370,"Ġatmosph":6371,"Ġlerno":6372,"DE":6373,"mm":6374,"ette":6375,"vante":6376,"Ġspend":6377,"logiaj":6378,"ared":6379,"Ġfort":6380,"Ġjunuloj":6381,"ĠVarsovio":6382,"kiu":6383,"ĠAliaj":6384,"hetic":6385,"Ġtaks":6386,"econ":6387,"ĠÅĿajnis":6388,"win":6389,"ĠNacioj":6390,"umojn":6391,"ĠPartio":6392,"Ġappears":6393,"Ġkara":6394,"umis":6395,"Ġstudentoj":6396,"Ġgeneral":6397,"ĠHon":6398,"Ġeksperim":6399,"83":6400,"osto":6401,"Ġuzita":6402,"==":6403,"ĠInf":6404,"ĠAleksand":6405,"Ġreduk":6406,"Ġneniun":6407,"Ġpleas":6408,"Ġpublikigis":6409,"Ã¢":6410,"Ġtablo":6411,"vit":6412,"rey":6413,"Ġposedas":6414,"Ġurba":6415,"Ġokulojn":6416,"Ġsequence":6417,"hib":6418,"mb":6419,"ĠÅĿul":6420,"Ġintellig":6421,"IC":6422,"jec":6423,"72":6424,"ilkosmo":6425,"Ġstate":6426,"ĠÅĿipo":6427,"Ġgiving":6428,"mat":6429,"Ġregu":6430,"Don":6431,"ĠsufiÄī":6432,"My":6433,"ï»":6434,"Ġthin":6435,"Ġbox":6436,"Ġhelpis":6437,"Ġtradicia":6438,"Ġhold":6439,"Ġedukado":6440,"ĠÄľenerala":6441,"Ġtutmonda":6442,"Ġreguloj":6443,"ĠSovet":6444,"ĠÅĿat":6445,"Ġnomi":6446,"nabo":6447,"On":6448,"Ġblank":6449,"?âĢĿ":6450,"vitaj":6451,"Ġpoe":6452,"pole":6453,"resh":6454,"Ġkantoj":6455,"Ġord":6456,"Ġkore":6457,"Ġbeyond":6458,"Ġfoo":6459,"Ġint":6460,"cian":6461,"track":6462,"Ġmanon":6463,"Ġfrazo":6464,"ĠnaskiÄĿ":6465,"rew":6466,"Ġhate":6467,"Ġbrought":6468,"ï»¿":6469,"Ġreform":6470,"ĠGermana":6471,"ĠLito":6472,"Ġkomunumoj":6473,"Ġkredo":6474,"Ġprezento":6475,"Ġlimo":6476,"feroj":6477,"ĠImperio":6478,"Ġregado":6479,"Ġviziti":6480,"Ġans":6481,"Ġoficiale":6482,"Ġrobo":6483,"Ġopinio":6484,"landoj":6485,"Ġclearly":6486,"Ġevento":6487,"dia":6488,"ĠfariÄĿas":6489,"muz":6490,"Ġkonsek":6491,"ĠThom":6492,"Ġtatuaj":6493,"Ġdoubt":6494,"Ġrub":6495,"ģ£":6496,"ĠvojaÄĿo":6497,"Ġacc":6498,"Ġtried":6499,"sian":6500,"Ġkontroli":6501,"Ġlatina":6502,"ÅĿe":6503,"Kun":6504,"dado":6505,"Ġeasily":6506,"ĠKubo":6507,"Ġree":6508,"cape":6509,"manÄĿo":6510,"Ġ2003":6511,"emp":6512,"ĠNova":6513,"ĠKam":6514,"Ġkept":6515,"OL":6516,"ĠPatro":6517,"pire":6518,"Ġinstruado":6519,"ship":6520,"Ġestonteco":6521,"Ġindustri":6522,"kaÄµo":6523,"Ġpensi":6524,"Ġrezer":6525,"kura":6526,"Ġperform":6527,"OM":6528,"Ġvero":6529,"Ġrare":6530,"Ġtaj":6531,"gni":6532,"Ġlaboristoj":6533,"mu":6534,"Ġsurbaze":6535,"Ġparents":6536,"Ġchi":6537,"Ġmostly":6538,"Ġmeans":6539,"Ġlegas":6540,"Ġtransi":6541,"Ġspirito":6542,"eston":6543,"Ġfalis":6544,"ĠNiko":6545,"ĠUnue":6546,"ĠHispan":6547,"omun":6548,"Ġanti":6549,"ĠLand":6550,"Ġviki":6551,"ĠOsc":6552,"Ġmelo":6553,"EK":6554,"EF":6555,"uras":6556,"ĠJose":6557,"Ġbusiness":6558,"vidis":6559,"Ġband":6560,"Ġremind":6561,"cated":6562,"ĠPoli":6563,"Ġian":6564,"omen":6565,"apor":6566,"Ġlernejoj":6567,"anaj":6568,"tiÄĿ":6569,"Ġslight":6570,"Ġmira":6571,"Ġways":6572,"Ġwithin":6573,"Ġherself":6574,"ills":6575,"Ġaer":6576,"ĠtroviÄĿis":6577,"ï¼":6578,"Ġterri":6579,"Ġvespero":6580,"Ġscary":6581,"Ġnarra":6582,"Ġreproduk":6583,"Ġcivitanoj":6584,"with":6585,"Ġfast":6586,"Ġmalaperis":6587,"rid":6588,"akes":6589,"Ġeasy":6590,"Ġsved":6591,"ĠneÅŃtra":6592,"Ġsekcio":6593,"Ġkunlaboro":6594,"Ġkra":6595,"Ġrestor":6596,"Ġinstruisto":6597,"traj":6598,"Ġformon":6599,"berto":6600,"ĠBre":6601,"Ġedzo":6602,"ĠaÅŃtorita":6603,"Ġ500":6604,"ĠFinn":6605,"ĠLibera":6606,"faco":6607,"uon":6608,"Ġcirkonstan":6609,"Ġkampan":6610,"Ġseriously":6611,"Ġsuffer":6612,"bl":6613,"ison":6614,"Ġpsiko":6615,"Ġsupra":6616,"Ġcarto":6617,"Ġekonomio":6618,"Ġera":6619,"ktas":6620,"ĠÄīiutage":6621,"kresk":6622,"Ġekvi":6623,"ĠUnua":6624,"Ġkadre":6625,"Ġkab":6626,"cei":6627,"Ġmalfru":6628,"Ġrigardas":6629,"tana":6630,"Ġcomic":6631,"traÅŃ":6632,"ĠBr":6633,"Ġesprimi":6634,"vino":6635,"Ġcxe":6636,"Ġdull":6637,"ĠBlan":6638,"ĠDen":6639,"ĠFond":6640,"ĠAny":6641,"Ġstereo":6642,"Ãº":6643,"ovi":6644,"aling":6645,"ĠMark":6646,"ĠLudoviko":6647,"ĠVic":6648,"onojn":6649,"ulp":6650,"Ġcomb":6651,"aked":6652,"Ġexpress":6653,"Ġdirante":6654,"Ġligita":6655,"Ġsurprised":6656,"ĠMoskvo":6657,"Ġstoryline":6658,"gion":6659,"Ġtrove":6660,"Ġludo":6661,"hol":6662,"Ġkelkfoje":6663,"93":6664,"Ġkonstrui":6665,"cu":6666,"xon":6667,"Ġfos":6668,"Ġpritra":6669,"Ġpredictable":6670,"Ġmeri":6671,"usale":6672,"Ġarkite":6673,"Ġkem":6674,"ilis":6675,"Ġlernej":6676,"Ġzomb":6677,"tivan":6678,"Ġsilent":6679,"Ġenjoyable":6680,"Ġcen":6681,"ĠFlor":6682,"Ġbrita":6683,"Ġmalnovaj":6684,"Ġsango":6685,"angle":6686,"Ġentuzias":6687,"ska":6688,"Ġares":6689,"ĠLA":6690,"ĠLas":6691,"ĀĀĀĀĀĀĀĀ":6692,"ĠaranÄĿo":6693,"Ġakvon":6694,"tituto":6695,"Ġelements":6696,"Ġbreak":6697,"SP":6698,"ĠBil":6699,"Ġekzisto":6700,"enojn":6701,"ĠAus":6702,"encaj":6703,"Ġero":6704,"73":6705,"Ġglor":6706,"ĠTrans":6707,"ĠmalÅĿ":6708,"stojn":6709,"----":6710,"yer":6711,"raÄµoj":6712,"emis":6713,"Ġmask":6714,"ĠkaÅŃzis":6715,"Ġkurs":6716,"Ġepisodes":6717,"uran":6718,"ĠLabor":6719,"When":6720,"Ðº":6721,"Ġvikti":6722,"nova":6723,"Ġtelevision":6724,"Ġdanke":6725,"Ġlog":6726,"Ġmodelo":6727,"Ġhazar":6728,"Ġbunch":6729,"Ġceremon":6730,"Ġâģ£":6731,"avo":6732,"Ġlogi":6733,"Ġsamaj":6734,"Ġpropono":6735,"ĠKarlo":6736,"Ġtekno":6737,"Ġmessage":6738,"Ġromantic":6739,"ukces":6740,"Ġantaux":6741,"UR":6742,"Ġlasi":6743,"lingvan":6744,"keto":6745,"diskuto":6746,"Ġfalls":6747,"Ġhy":6748,"ĠEÅŃ":6749,"this":6750,"ĠSlovakio":6751,"SC":6752,"Ġeksk":6753,"Ġsetting":6754,"Ġgreka":6755,"Ġghi":6756,"vido":6757,"Ġsoldi":6758,"Ġmemoras":6759,"Ġfrua":6760,"Ġimper":6761,"ĠHan":6762,"!!!!":6763,"Åľi":6764,"rop":6765,"Ġperiod":6766,"Ġtruth":6767,"Ġtheme":6768,"ĠJim":6769,"ised":6770,"Ġkonstruado":6771,"Ġpreni":6772,"Ġnura":6773,"Ġnamed":6774,"Ġped":6775,"oman":6776,"Ġbare":6777,"ĠBad":6778,"Ġutila":6779,"Ġcolor":6780,"Ġcompan":6781,"Ġelementoj":6782,"ĉĊ":6783,"Ġprogramon":6784,"Ġsukceso":6785,"came":6786,"Ġaktiva":6787,"belie":6788,"Â´":6789,"Ġobe":6790,"Ġrimedoj":6791,"ĠNeniu":6792,"ĠBonvolu":6793,"Be":6794,"lano":6795,"Je":6796,"ss":6797,"umas":6798,"lying":6799,"Ġpoints":6800,"Ġludas":6801,"ĠRadio":6802,"ĠOK":6803,"Ġneeds":6804,"Ġmusical":6805,"ĠKre":6806,"ĠkonstruaÄµo":6807,"ĠÅĿtata":6808,"ĠKaz":6809,"Ġebl":6810,"Ġliteroj":6811,"iere":6812,"Ġinven":6813,"aÅŃg":6814,"Ġdecided":6815,"ĠSti":6816,"Ġceteraj":6817,"Ġkern":6818,"Ġunuop":6819,"ĠserÄīi":6820,"Ġeye":6821,"Ġpremi":6822,"ĠHal":6823,"Ġkonvers":6824,"ĠWood":6825,"wa":6826,"Ġsperto":6827,"Ġvasta":6828,"Ġsudden":6829,"Ġevange":6830,"Ġcxar":6831,"ĠTion":6832,"Ġkoordin":6833,"Ġshowing":6834,"Ġpersek":6835,"ĠKal":6836,"ige":6837,"Ġmembr":6838,"Ġliajn":6839,"Ġworking":6840,"german":6841,"Po":6842,"ĠMur":6843,"TT":6844,"igxis":6845,"Ġludis":6846,"Ġstrang":6847,"Ġordonis":6848,"Ġauth":6849,"izi":6850,"Ġtheat":6851,"ajnas":6852,"liÄĿis":6853,"Ġbegins":6854,"Ġsongs":6855,"Ġmalsupren":6856,"akis":6857,"Ġthriller":6858,"Ġdig":6859,"book":6860,"ĠkuraÄĿ":6861,"Ġdomon":6862,"Ġsca":6863,"rono":6864,"Ġprojektoj":6865,"Ġportu":6866,"Ġsidis":6867,"ministro":6868,"Ġsoundtrack":6869,"Ġkonek":6870,"ĠAmeriko":6871,"IG":6872,"Ġlatin":6873,"Ġprison":6874,"ĠJerusale":6875,"Ġhejmo":6876,"Ġfront":6877,"Ġdiss":6878,"Ġentertainment":6879,"alio":6880,"Ġbiz":6881,"Ġsupozas":6882,"kapab":6883,"entan":6884,"ĠRomo":6885,"ieraÅŃ":6886,"ficejo":6887,"iler":6888,"ices":6889,"ican":6890,"Ġintrodu":6891,"Ġkreskis":6892,"Ġcommun":6893,"ĠKomitato":6894,"Ġtypical":6895,"anojn":6896,"Ġflash":6897,"ĠAdam":6898,"Ġasertas":6899,"Ġrelease":6900,"ĠVirg":6901,"Ġprogramoj":6902,"dejo":6903,"Ġdiman":6904,"Ġrab":6905,"Ġlingvaj":6906,"ujon":6907,"Ġfortoj":6908,"uses":6909,"Ġelement":6910,"ĠBos":6911,"Ġrealistic":6912,"Ġsac":6913,"Ġstudi":6914,"âĢľ.":6915,"Ġsistemon":6916,"US":6917,"ðŁ":6918,"tele":6919,"Ġleads":6920,"Ġdescrib":6921,"ging":6922,"ĠKra":6923,"pared":6924,"Ġdirektoro":6925,"Ġdiscover":6926,"Ġvaria":6927,"TV":6928,"tuno":6929,"PL":6930,"Ĥ¬":6931,"Ġlernado":6932,"Ġseason":6933,"Â²":6934,"Ġmoving":6935,"Ġplenumi":6936,"Ġfeels":6937,"Ġpreferas":6938,"Ro":6939,"Ġmuzeo":6940,"Äīu":6941,"Ġmove":6942,"Ġteach":6943,"Ġcity":6944,"Ġforigi":6945,"Ġarbaro":6946,"Ġkatolika":6947,"ĠAÅŃstralio":6948,"Ġgajnis":6949,"Ã§":6950,"atever":6951,"Ġpriskribo":6952,"Ġprezidento":6953,"ikipedia":6954,"Sh":6955,"Ġmonum":6956,"Ġsubject":6957,"Ġwww":6958,"viÄī":6959,"Ġvaloro":6960,"tagme":6961,"Ġfiz":6962,".:":6963,"ace":6964,"Ġreak":6965,"Ġgenu":6966,"Ġserv":6967,"Ġgaranti":6968,"Ġnearly":6969,"Ġmalalta":6970,"Ġhospita":6971,"?<":6972,"Sur":6973,"Ġsang":6974,"ĠOs":6975,"ĠÅĿiaj":6976,"Ġinformon":6977,"ĠCharles":6978,"ĠTemas":6979,"right":6980,"ĠMary":6981,"Ġsupporting":6982,"Ä´":6983,"Ġknabo":6984,"Ġproced":6985,"ĠVol":6986,"Ġspeak":6987,"lanto":6988,"dato":6989,"Ġfilmed":6990,"Ġgay":6991,"Ġrakontis":6992,"erous":6993,"ĠjuÄĿ":6994,"Ġmanojn":6995,"Ġgrav":6996,"Ġpopol":6997,"Ġsubteni":6998,"gilo":6999,"Ã¸":7000,"ĠTaj":7001,"Ġklara":7002,"Ġmalbone":7003,"Ġvizito":7004,"Ġidio":7005,"Ġconc":7006,"illing":7007,"Ġestro":7008,"ĠUkrainio":7009,"Ġastron":7010,"Ġned":7011,"Ġrememor":7012,"ĠPalest":7013,"teto":7014,"ĠGNU":7015,"Ġcomments":7016,"Ġviewers":7017,"Ġkvalito":7018,"set":7019,"Ġcru":7020,"BC":7021,"wski":7022,"ĠMond":7023,"pern":7024,"Ġlernantoj":7025,"antino":7026,"Amer":7027,"Ġwhether":7028,"estojn":7029,"belo":7030,"ako":7031,"ĠÎ":7032,"grafia":7033,"Ġrolo":7034,"ational":7035,"ĠEsperantista":7036,"ÃĤ":7037,"Ġbecame":7038,"Ġavoid":7039,"Ġfaritaj":7040,"Ġpovu":7041,"Ġpagi":7042,"ĠSekve":7043,"ĠChrist":7044,"lem":7045,"Ġnecesa":7046,"Ġvarme":7047,"Ġmad":7048,"jojn":7049,"war":7050,"Ġverda":7051,"Ġrakontas":7052,"Ð»":7053,"Ġder":7054,"Ġita":7055,"Ġproblemon":7056,"uble":7057,"Ġeventuale":7058,"Ġadmit":7059,"ĠPaÅŃlo":7060,"Ġdiru":7061,"Ġusing":7062,"Ġkod":7063,"Ġbuy":7064,"tm":7065,"turb":7066,"Ġesprim":7067,"Ġperd":7068,"teksto":7069,"Ġexpected":7070,"lue":7071,"Ġideojn":7072,"ides":7073,"Ġ1960":7074,"Ġcontain":7075,"Ġdatre":7076,"Ġkamar":7077,"bir":7078,"Ġgermanaj":7079,"Ġpresent":7080,"Ġviewing":7081,"Ġbildon":7082,"entita":7083,"ĠBud":7084,"Ġdemandon":7085,"Ġprav":7086,"Ġfive":7087,"Ġcrime":7088,"Ġlago":7089,"Ġresult":7090,"Ġsekso":7091,"Ġteo":7092,"Ġsalaj":7093,"vat":7094,"AC":7095,"Ġelspe":7096,"Ġobjekto":7097,"Ġill":7098,"Ġattra":7099,"Âħ":7100,"entu":7101,"Ġnacioj":7102,"91":7103,"Ġsekre":7104,"okaze":7105,"Ġbelaj":7106,"ĠNOT":7107,"pping":7108,"Ġdiverse":7109,"Ġgone":7110,"itro":7111,"Ġderi":7112,"ĠPet":7113,"ĠSuda":7114,"Â®":7115,"Ġkastelo":7116,"imedia":7117,"Ġetoso":7118,"Ġcry":7119,"Ġbordo":7120,"Ġmalfeli":7121,"oso":7122,"Ġintelek":7123,"Ġutter":7124,"ĠParla":7125,"fam":7126,"Sal":7127,"ired":7128,"Ġresti":7129,"ube":7130,"unk":7131,"ĠEarth":7132,"Ġ1950":7133,"Ġklarigi":7134,"Ġgrun":7135,"ĠOrganiz":7136,"ĠaÄīeti":7137,"Ġdetermin":7138,"Ġ45":7139,"Ġwood":7140,"Ġsubjek":7141,"Ġextra":7142,"Ġarte":7143,"tiÄī":7144,"Ġwhom":7145,"Ġreco":7146,"Ġforpas":7147,"ĠDia":7148,"ĠRam":7149,"rigu":7150,"Ġsequences":7151,"tles":7152,"iny":7153,"Ġglo":7154,"Ġdifino":7155,"Ġteorio":7156,"Ġkongru":7157,"ĠRod":7158,"Ġkredi":7159,"Ġpenso":7160,"dez":7161,"Ġmaltran":7162,"Ġkunme":7163,"ĠRon":7164,"Ġshoo":7165,"Ġkursoj":7166,"Ġdefend":7167,"dity":7168,"Ġkapti":7169,"domo":7170,"Ġporno":7171,"Ġfilmoj":7172,"Ġlangu":7173,"Ġreviews":7174,"bru":7175,"Ġsube":7176,"Ġexec":7177,"ĠÅĿtat":7178,"istojn":7179,"estr":7180,"tago":7181,"Ġjuste":7182,"kaÄµoj":7183,"Ġfamous":7184,"Ġnukle":7185,"intan":7186,"tataj":7187,"Ġunun":7188,"Ġcreep":7189,"ĠNorda":7190,"Ġnajbar":7191,"Ġtale":7192,"Ġoverall":7193,"Ġstatis":7194,"varo":7195,"Ġlist":7196,"Ġbelievable":7197,"ĠBan":7198,"Ġaldonis":7199,"irka":7200,"Ġversi":7201,"todo":7202,"zioj":7203,"Ġgrandega":7204,"igaj":7205,"Ġprokla":7206,"82":7207,"Ġeliris":7208,"pio":7209,"Ġcop":7210,"Ġchees":7211,"ĠLingvo":7212,"Ġmetro":7213,"Ġscio":7214,"terd":7215,"Ġrekta":7216,"vito":7217,"Ġretro":7218,"Ġsister":7219,"pornografio":7220,"Ġabsur":7221,"Ġvirtu":7222,"Ġfizi":7223,"Nu":7224,"Ġprilabor":7225,"Ġtradicio":7226,"Ġkonsideri":7227,"ĠOscar":7228,"Ġconstan":7229,"esome":7230,"tiÄĿi":7231,"Ġkonsentas":7232,"Ġfratoj":7233,"Ġfremd":7234,"Ġprofunde":7235,"embleo":7236,"igra":7237,"ĠChe":7238,"media":7239,"Ġdifficult":7240,"ĠSovetunio":7241,"Ġtask":7242,"Ġagri":7243,"Ġactual":7244,"Ġpartopreno":7245,"Ġpremise":7246,"tigon":7247,"ĠArgent":7248,"ĠAnna":7249,"Ġexcep":7250,"Ġbackground":7251,"Ġmista":7252,"Ġizo":7253,"ĠBas":7254,"elojn":7255,"ĠIra":7256,"Ġgermanoj":7257,"ĠFolio":7258,"Ġbattle":7259,"VAL":7260,"ubile":7261,"Ġkomputilo":7262,"encas":7263,"Ġproduc":7264,"Ġie":7265,"cky":7266,"granda":7267,"erojn":7268,"ĠEst":7269,"ĠFrom":7270,"Ġsemajnoj":7271,"Ġstrukturo":7272,",âĢĿ":7273,"ĠBelgio":7274,"Ali":7275,"back":7276,"Ġvento":7277,"maniere":7278,"Ġsenti":7279,"Ġtrapas":7280,"ĠÅĿian":7281,"Ġforced":7282,"Ġcomment":7283,"Ġraporto":7284,"ai":7285,"kongres":7286,"Ġkonsiderata":7287,"Ġediting":7288,"ĠSem":7289,"Ġstay":7290,"ĠĠĠĠĠĠĠĠĠĠĠĠĠĠĠĠ":7291,"ĠleÄĿ":7292,"Ġlongaj":7293,"ĠCas":7294,"ĠKap":7295,"face":7296,"Ġmeaning":7297,"Ġsurprise":7298,"Ġsituation":7299,"yd":7300,"ĠBah":7301,"...)":7302,"Ġharmon":7303,"Ġinterreto":7304,"ĠaÅŃskulti":7305,"adojn":7306,"Ġfunkcio":7307,"zonoj":7308,"Ġgvidis":7309,"Ġkonsul":7310,"piece":7311,"Ġbother":7312,"Ġludi":7313,"One":7314,"Ġ---":7315,"Ġregule":7316,"Ġtoler":7317,"Ġ`":7318,"unu":7319,"ĠJoe":7320,"Ġfire":7321,"Ġkazoj":7322,"Ġcatch":7323,"ĠiÄĿas":7324,"Ġelektron":7325,"Ġlernas":7326,"Ġlasis":7327,"Ġbasically":7328,"verall":7329,"Ġimpro":7330,"indan":7331,"Ġpeti":7332,"Ġmetroj":7333,"ĠmesaÄĿ":7334,"ĠÅĿanÄĿo":7335,"Ġfiloj":7336,"ĠKomisiono":7337,"edaÅŃrinde":7338,"chie":7339,"Ġinfluo":7340,"\").":7341,"glute":7342,"Ġpeto":7343,"Ġindustrio":7344,"Ġfinis":7345,"sur":7346,"Ġletero":7347,"Ġkilling":7348,"Ġdens":7349,"Ġdolor":7350,"Ġligh":7351,"ths":7352,"ĠMonda":7353,"nun":7354,"leo":7355,"ĠCra":7356,"Ġunuafoje":7357,"konduk":7358,"Ġstudis":7359,"esa":7360,"ĠSun":7361,"Ġrep":7362,"ĠWho":7363,"Ġpasis":7364,"Ġpublic":7365,"ÃŃn":7366,"sto":7367,"Ġinternacian":7368,"}}":7369,"aÄĿe":7370,"Ġgli":7371,"ĠÅĿlos":7372,"Ġcig":7373,"VALID":7374,"To":7375,"Ġproj":7376,"Ġsenp":7377,"Ġsolvo":7378,"âĢľ,":7379,"ĠserÄīas":7380,"ĠSlo":7381,"Ġkomerco":7382,"âĪŀâĪŀâĪŀâĪŀ":7383,"ĠBor":7384,"Ġmalsano":7385,"keco":7386,"Ġrich":7387,"IO":7388,"Ġfals":7389,"Ġdeziris":7390,"ĠaranÄĿ":7391,"Krom":7392,"kn":7393,"zes":7394,"Ġteror":7395,"vorte":7396,"Ġaspekto":7397,"Ġlibereco":7398,"Ili":7399,"ĠBarato":7400,"light":7401,"Ġneat":7402,"via":7403,"Ġekskur":7404,"Ġdeliver":7405,"mame":7406,"tiÄīismo":7407,"Ġkondukis":7408,"pers":7409,"ime":7410,"Ġatmosphere":7411,"Ġenergio":7412,"liter":7413,"ĠMus":7414,"Ġnacio":7415,"vineo":7416,"tempaj":7417,"LY":7418,"Ġdepen":7419,"tionally":7420,"rigita":7421,"ĠBlack":7422,"Ġdokumentoj":7423,"ĠEurope":7424,"fy":7425,"fying":7426,"Ġpura":7427,"Ġclever":7428,"Ġanarki":7429,"Ġhair":7430,"ought":7431,"ĠsufiÄīas":7432,"Ġwater":7433,"Ġlegantoj":7434,"ktojn":7435,"Ġwit":7436,"Ġ/>\"":7437,"ĠCetere":7438,"nive":7439,"Ġfail":7440,"sues":7441,"Ġleaves":7442,"Ġfilozofio":7443,"Ġpace":7444,"Ġrenov":7445,"Ġkreskas":7446,"Ġtempoj":7447,"Ġindivid":7448,"Ġorganizado":7449,"ĠCentro":7450,"IR":7451,"Ġspecialan":7452,"Ġaltan":7453,"ĠMed":7454,"ĠMaybe":7455,"Ġstage":7456,"ĠLis":7457,"Ġtraduki":7458,"Ġspac":7459,"Ġcrew":7460,"Gran":7461,"tagon":7462,"Äīuro":7463,"Ġmall":7464,"Ġkoti":7465,"AnkaÅŃ":7466,"Ġredaktoro":7467,"Ġiama":7468,"nia":7469,"osa":7470,"Ġvolo":7471,"Ġsociety":7472,"Ġlots":7473,"Ġsistemoj":7474,"Ġtheater":7475,"Ġiron":7476,"ĠriÄīa":7477,"Ġgreatest":7478,"Ġebla":7479,"maniero":7480,"Ġpsycho":7481,"71":7482,"ĠEkzistas":7483,"ÄīiÄīo":7484,"tadis":7485,"vojo":7486,"Ġkomitato":7487,"amikoj":7488,"Ġrespondo":7489,"ĠBerlino":7490,"Ġsekretario":7491,"ĠFinnlando":7492,"skij":7493,"Ġusonaj":7494,"OO":7495,"Ġprocezo":7496,"ĠIN":7497,"nio":7498,"ĠBir":7499,"Ġatendis":7500,"Ġdomoj":7501,"fte":7502,"peto":7503,"fid":7504,"kturo":7505,"tastro":7506,"Ġatenton":7507,"Ġfirmao":7508,"Ġminute":7509,"tikan":7510,"Ġvul":7511,"Ġpercep":7512,"Ekz":7513,"Ġstrugg":7514,"Ġaccent":7515,"Ġvaste":7516,"ĠBru":7517,"Ġpapo":7518,"ĠfraÅŃ":7519,"Ġkresko":7520,"Jam":7521,"Ġministro":7522,"Ġsekvaj":7523,"ÅĿoj":7524,"Ġquickly":7525,"Ġyes":7526,"parolo":7527,"leto":7528,"ĠKato":7529,"Ġrajtojn":7530,"Ġfantastic":7531,"Ġsolid":7532,"Ġsendube":7533,"!âĢĿ":7534,"Ġsude":7535,"Ġprivata":7536,"Ġultima":7537,"tch":7538,"lev":7539,"ĠFeli":7540,"ĠUnfortunately":7541,"Ġspace":7542,"Tra":7543,"naÅŃ":7544,"Ġkonati":7545,"avice":7546,"Ġkoncerna":7547,"Ġpoorly":7548,"Ġignor":7549,"nor":7550,"askomun":7551,"Ġefik":7552,"Ġapparently":7553,"Ġfamilioj":7554,"bil":7555,"Ġ1930":7556,"iajn":7557,"ranta":7558,"enteco":7559,"Ġkonkre":7560,"Ekde":7561,"Ġfeatures":7562,"centro":7563,"jetnam":7564,"Ġton":7565,"andon":7566,"ĠSz":7567,"eko":7568,"Ġkonservi":7569,"Ġestrar":7570,"ĠSmith":7571,"gajn":7572,"Ġamike":7573,"ĠSw":7574,"Ġsinsek":7575,"Ġbored":7576,"ĠGri":7577,"Ġeffect":7578,"ĠLen":7579,"kejo":7580,"Ġekstera":7581,"antajn":7582,"Ġgovern":7583,"that":7584,"ĠRum":7585,"Ġconne":7586,"Ġlame":7587,"Ġtipo":7588,"Ġnep":7589,"ĠMala":7590,"ĠLondon":7591,"Ġbonajn":7592,"Ġaverage":7593,"daÄµoj":7594,"ĠaliÄĿ":7595,"ĠLondono":7596,"ĠDos":7597,"ĠÄīiujare":7598,"Ġfotoj":7599,"prezidanto":7600,"Ġinterested":7601,"Ġhejmen":7602,"fluti":7603,"ĠSto":7604,"Ġproc":7605,"veloj":7606,"omon":7607,"lling":7608,"Ġrespondi":7609,"Ġklubo":7610,"pelo":7611,"Ġing":7612,"Ġmatch":7613,"Ġhelpon":7614,"Ġdun":7615,"ĠLes":7616,"123":7617,"Ġhun":7618,"urojn":7619,"ĠOl":7620,"Ġuzante":7621,"Ġplantoj":7622,"Äīer":7623,"Ġparko":7624,"Ġpersonal":7625,"ĠpoÅĿt":7626,"ĠDar":7627,"venon":7628,"faci":7629,"Ġdang":7630,"Ġlaw":7631,"iÄĿoj":7632,"Ġpass":7633,"Ġthird":7634,"Ġreen":7635,"tone":7636,"hard":7637,"aster":7638,"ĠÄĿisda":7639,"Ġsuspek":7640,"Ġmuro":7641,"Ġhomon":7642,"Ġkr":7643,"Ġcommon":7644,"Ġfier":7645,"ĠStra":7646,"ĠSame":7647,"Ġsuges":7648,"Ġforiris":7649,"gebla":7650,"Ġakadem":7651,"andy":7652,"Ġhot":7653,"Ġsocialis":7654,"Ġpublikigita":7655,"Ġbaza":7656,"vuo":7657,"ĠKri":7658,"Ġkonver":7659,"xe":7660,"ĠâĢķ":7661,"Ġtiama":7662,"kultura":7663,"ĠBill":7664,"Ġfontoj":7665,"pernity":7666,"cap":7667,"Ġpolico":7668,"Ġreading":7669,"How":7670,"ĠPortu":7671,"ĠVinilkosmo":7672,"Ġtranslok":7673,"Ġrapida":7674,"Ġakceptas":7675,"INVALID":7676,"inten":7677,"Ġanimation":7678,"ĠMaj":7679,"Ġzor":7680,"Ġfik":7681,"Ġlarge":7682,"kuti":7683,"ĠStre":7684,"Ġpolaj":7685,"ĠOb":7686,"landanoj":7687,"riÄĿis":7688,"Ġdress":7689,"ĠGood":7690,"Ġcopy":7691,"ĠSvedio":7692,"ĠKen":7693,"Ġforward":7694,"Ġplifor":7695,"Ġkodo":7696,"Ġbazita":7697,"Ġkoncepto":7698,"ĠBet":7699,"Ġweek":7700,"lec":7701,"Ġfina":7702,"Ġeldonita":7703,"Ġmalhe":7704,"Ġdialek":7705,"Ġkombin":7706,"ĠIrlando":7707,"ongo":7708,"ĠAlthough":7709,"while":7710,"ville":7711,"Ġprincipo":7712,"Ġkatal":7713,"Ġkialoj":7714,"Ġfootage":7715,"Mia":7716,"lao":7717,"Ġstranga":7718,"ĠVene":7719,"panoj":7720,"ĠfiniÄĿis":7721,"Joh":7722,"Ġvivan":7723,"Ġregas":7724,"bility":7725,"Ġneeded":7726,"olds":7727,"Ġreligia":7728,"gno":7729,"inan":7730,"Ġstereoty":7731,"Ġbiblioteko":7732,"Ġrifu":7733,"Ġmystery":7734,"atro":7735,"ques":7736,"Ġteg":7737,"AP":7738,"Ġgras":7739,"Ġfortika":7740,"Ġpliaj":7741,"antaÅŃ":7742,"All":7743,"nie":7744,"Ġanoj":7745,"Ġgam":7746,"Ġuzon":7747,"naj":7748,"ound":7749,"irejo":7750,"ĠTia":7751,"Ġtradukoj":7752,"har":7753,"Ġvon":7754,"mato":7755,"Ġarboj":7756,"Ġnombron":7757,"Ġsuperb":7758,"Ġpartioj":7759,"Ġdub":7760,"ĠCerte":7761,"elonge":7762,"Ġatingas":7763,"Ġkontakto":7764,"nomo":7765,"Ġstun":7766,"ghav":7767,"Ġsento":7768,"Ġdirekto":7769,"81":7770,"gojn":7771,"\"),":7772,"Ġregno":7773,"Ġtridek":7774,"ÄĪar":7775,"Ġvarious":7776,"Ġmemorable":7777,"iet":7778,"Ġadvent":7779,"Ġdiferenco":7780,"tz":7781,"Ġtowards":7782,"instru":7783,"Ġsemin":7784,"OV":7785,"Ġimperiestro":7786,"agra":7787,"lock":7788,"ĠDie":7789,"ĠÄĪio":7790,"ĠantaÅŃaj":7791,"formoj":7792,"Ġkompanio":7793,"Ġnote":7794,"ĠOrienta":7795,"Ġring":7796,"Ġworked":7797,"look":7798,"igata":7799,"Ġverkita":7800,"Ġearlier":7801,"Ġdumb":7802,"hood":7803,"Ġdete":7804,"adra":7805,"Ġhavu":7806,"ĠIzrael":7807,"ĠKie":7808,"Ġintereso":7809,"Ġinforma":7810,"Ġserioze":7811,"mante":7812,"Ġtrouble":7813,"Ġsexual":7814,"NM":7815,"Ġmiloj":7816,"kajn":7817,"lika":7818,"ÄĪiu":7819,"Ġsick":7820,"Ġpartojn":7821,"Ġdisde":7822,"Ġconcern":7823,"pin":7824,"sess":7825,"Ġshame":7826,"ĠbaziÄĿas":7827,"Ġmalofte":7828,"Ġpowerful":7829,"Ġmalrapide":7830,"Ġlaux":7831,"Ġweird":7832,"Ġmiss":7833,"Ġmarbordo":7834,"ĠLern":7835,"Ġperfectly":7836,"ĠDisney":7837,"Ġvenonta":7838,"Ġcredits":7839,"coun":7840,"keo":7841,"ĠIMD":7842,"ĠPierre":7843,"zila":7844,"ĠÄĿus":7845,"Ġpon":7846,"Ġemin":7847,"Ġatak":7848,"fla":7849,"valo":7850,"Ã±":7851,"Ġprofunda":7852,"Ġiru":7853,"Ġsubteno":7854,"ĠMel":7855,"Ġarbaroj":7856,"ĠaÅŃtoroj":7857,"Ġcetere":7858,"ĠLitovio":7859,"metis":7860,"Ġmaksim":7861,"Ġwrite":7862,"Ġodd":7863,"Ġnorde":7864,"ciklo":7865,"ect":7866,"ÄĪiuj":7867,"BI":7868,"Ġenspe":7869,"Ġkategor":7870,"Ġkoncerne":7871,"Ġemotional":7872,"Ġship":7873,"Ġkonstante":7874,"ĠThese":7875,"pher":7876,"Ġkatastro":7877,"Ġmulti":7878,"ĠdaÅŃris":7879,"Ġlaughs":7880,"tara":7881,"ĠMost":7882,"Bon":7883,"utis":7884,"ĠhaÅŃ":7885,"ĠOli":7886,"Ġromp":7887,"Ġjardekoj":7888,"Ġgim":7889,"ĠHom":7890,"Ġappreci":7891,"Ġnecess":7892,"ĠaÅŃt":7893,"ĠaliÄĿis":7894,"Ġsomehow":7895,"ĠCa":7896,"Ġdiskut":7897,"Ġmaltrankvi":7898,"ias":7899,"Ġtreat":7900,"AD":7901,"Å¾":7902,"Ġfro":7903,"Ġreach":7904,"ĠYes":7905,"Ġkeeps":7906,"Ko":7907,"sal":7908,"ĠmanÄĿi":7909,"temento":7910,"Ġsigno":7911,"Ġcheesy":7912,"Ġpej":7913,"Ġiujn":7914,"Ġmonster":7915,"ĠEsperantisto":7916,"Ġvenkis":7917,"ajxo":7918,"Ġrepres":7919,"Ġamaskomun":7920,"ĠruÄĿa":7921,"Libera":7922,"Ġoccas":7923,"Ġkomerca":7924,"Ġdoctor":7925,"Ġagree":7926,"Ġsukcese":7927,"naskiÄĿis":7928,"Ġ300":7929,"chi":7930,"tual":7931,"Ġdisturb":7932,"ĠTele":7933,"Ġvege":7934,"Ġimagine":7935,"Ġprovas":7936,"...]":7937,"Ġgirlfriend":7938,"Mo":7939,"Ġneg":7940,"upra":7941,"mons":7942,"Ġrealize":7943,"Ġpilo":7944,"Ġokazinta":7945,"Ġparlamento":7946,"Ġpossibly":7947,"pedio":7948,"ĠAlex":7949,"Ġmalsukces":7950,"Ġlau":7951,"ĠIts":7952,"Ġfenestro":7953,"ĠFes":7954,"Ġkoler":7955,"Ġdifinita":7956,"Dan":7957,"Ġricev":7958,"glo":7959,"amet":7960,"ĠIJK":7961,"ĠFon":7962,"Ġsinc":7963,"ille":7964,"Ġokazi":7965,"rote":7966,"Ġservi":7967,"Ġkopi":7968,"Ġhipo":7969,"Ġgej":7970,"Ġtradukado":7971,"laÄī":7972,"Ġprezo":7973,"Ġpilgri":7974,"kitaj":7975,"Ġligo":7976,"Ġlongan":7977,"Ġolder":7978,"ĠMis":7979,"Ġintelig":7980,"Ġsendepende":7981,"ĠâĤ¬":7982,"Ġmatene":7983,"ĠRaj":7984,"come":7985,"Ġparolantoj":7986,"Ġpopular":7987,"Ġpin":7988,"Ġmild":7989,"Ġ1999":7990,"Ġflat":7991,"elle":7992,"Ġformer":7993,"sono":7994,"ziaj":7995,"farita":7996,"iller":7997,"tious":7998,"Ġemer":7999,"Ġarri":8000,"preni":8001,"Ġsolvi":8002,"Ġscreenplay":8003,"ĠHenry":8004,"Ġsleep":8005,"Ġbes":8006,"ĠBran":8007,"Ġkonferenco":8008,"456":8009,"EE":8010,"ianoj":8011,"organiz":8012,"ĠOkcidenta":8013,"alojn":8014,"Ġkonis":8015,"Ġsoft":8016,"Ġekzist":8017,"rede":8018,"Ġkutima":8019,"Ġjuda":8020,"Ġsvis":8021,"cido":8022,"iganta":8023,"ĠaÅŃton":8024,"ĠJar":8025,"Ġapartaj":8026,"Ġkuracisto":8027,"oss":8028,"gano":8029,"Ġemas":8030,"tured":8031,"Ġromance":8032,"tnas":8033,"Ġimperio":8034,"Ġkonsekven":8035,"ĠHu":8036,"Ġdomin":8037,"Ġporde":8038,"lusion":8039,"Ġfloroj":8040,"tivis":8041,"ĠRig":8042,"Ġ1920":8043,"Ġdekstra":8044,"Ġdevelopment":8045,"vanto":8046,"Ġstul":8047,"Ġkvartalo":8048,"pto":8049,"Ġpartner":8050,"Ġkulturoj":8051,"æľ":8052,"rick":8053,"Ġekstere":8054,"Ġnews":8055,"dape":8056,"Ġplanedo":8057,"Ġaspektas":8058,"Ġblind":8059,"ekzemple":8060,"kras":8061,"Ġorganizoj":8062,"ĠCity":8063,"Ġanyway":8064,"Ġinno":8065,"logical":8066,"ager":8067,"Ġkonstruis":8068,"Ġkoncernas":8069,"klas":8070,"takto":8071,"Ġsekv":8072,"Ġekzemp":8073,"Ġpiedoj":8074,"Ġbl":8075,"Ġformas":8076,"Ġunique":8077,"ameriko":8078,"ĠThomas":8079,"forme":8080,"ĠGener":8081,"Ġakv":8082,"pects":8083,"Ġwriters":8084,"ĠAnglio":8085,"ðŁĺ":8086,"ĠSk":8087,"ĠGro":8088,"Ġdonita":8089,"Ġfirm":8090,"ĠKir":8091,"Ġinstitucioj":8092,"Ġaktuala":8093,"soci":8094,"Ġtradukis":8095,"hal":8096,"Ġlastan":8097,"ries":8098,"Ġgaj":8099,"Ġnego":8100,"Ġbadly":8101,"Ġvund":8102,"ĠÄīeval":8103,"Ġkialo":8104,"ĠLor":8105,"mart":8106,"Ġprun":8107,"tigu":8108,"ĠpaÅŃ":8109,"Ġremar":8110,"ĠTag":8111,"Ġplease":8112,"Ġvidos":8113,"Ġpolitical":8114,"uelo":8115,"ĠGor":8116,"Ġpretas":8117,"Ġproponi":8118,"fos":8119,"Ġfremdaj":8120,"Ġvenko":8121,"Ġaliflanke":8122,"fair":8123,"Ġske":8124,"tations":8125,"Ġplain":8126,"ĠÅĿatus":8127,"ĠKatal":8128,"ĠMil":8129,"hr":8130,"Ġdokumento":8131,"ĠbedaÅŃrinde":8132,"dge":8133,"piro":8134,"Ġagoj":8135,"Ġapero":8136,"Ġreasons":8137,"lara":8138,"Ġsenpag":8139,"Ġmeets":8140,"lingvis":8141,"Ġreprezentas":8142,"ĠKategorio":8143,"Ġparty":8144,"taÄµojn":8145,"Ġfit":8146,"ĠAL":8147,"Ġatenti":8148,"teni":8149,"ĠÄĪina":8150,"Ġligno":8151,"ident":8152,"ĠGreat":8153,"alifor":8154,"Ġstudio":8155,"eds":8156,"Ġdankas":8157,"Ġspirit":8158,"ĠMuzeo":8159,"Ġgravajn":8160,"parolantoj":8161,"ĠRobin":8162,"Ġdestro":8163,"esko":8164,"Ġjour":8165,"ĠBat":8166,"aciaj":8167,"Ġmaten":8168,"Ġrecen":8169,"Ġneo":8170,"Ġtekstojn":8171,"Ġflanke":8172,"Ġliston":8173,"Par":8174,"ĠTago":8175,"Ġspec":8176,"Ġdirect":8177,"Ġbrings":8178,"UL":8179,"nap":8180,"Ġpie":8181,"kcioj":8182,"Ġx":8183,"Ġpolic":8184,"Ġfamiliar":8185,"Ġrilatojn":8186,"Ġvolonte":8187,"dika":8188,"Ġelpens":8189,"Montri":8190,"vir":8191,"Ġhelpos":8192,"malpli":8193,"Ġfairly":8194,"ĠParis":8195,"Ġkantis":8196,"Ġgxin":8197,"Ġgeedz":8198,"ĠÄīeestis":8199,"Ġdance":8200,"ĠCap":8201,"gaÅŃ":8202,"ĠDemokra":8203,"ĠAfri":8204,"ĠaÄīetis":8205,"ãĢ":8206,"Ġprinco":8207,"Lo":8208,"lation":8209,"INVALIDINVALID":8210,"sendo":8211,"ited":8212,"Ġdisdon":8213,"Ġpovo":8214,"Ġacted":8215,"Ġveni":8216,"Ġricevos":8217,"ĠinaÅŃg":8218,"Ġskulp":8219,"Ġklasika":8220,"eda":8221,"Ġmeant":8222,"Ġkampoj":8223,"Ġkristana":8224,"ĠÅĿanÄĿis":8225,"Ġscience":8226,"ĠkonstruaÄµoj":8227,"Trans":8228,"Ġtimo":8229,"Ġcontrol":8230,"Ġedu":8231,"ÅĤaw":8232,"Ġdemokratio":8233,"Ġmedi":8234,"Pre":8235,"idaj":8236,"Ġmaljuna":8237,"Ġdevo":8238,"Ġalproksim":8239,"ages":8240,"Ġcheck":8241,"Ġkonflikto":8242,"Ġavent":8243,"Ġkompet":8244,"Ġbatal":8245,"Kvankam":8246,"Ġbici":8247,"aki":8248,"oriento":8249,"Ġdecide":8250,"Ġprizorg":8251,"Ġdifek":8252,"Ġcita":8253,"Ġmezo":8254,"zeble":8255,"Ġleading":8256,"Ġmalkon":8257,"Ġscipov":8258,"bejo":8259,"Ġvarm":8260,"Ġdistingi":8261,"proble":8262,"Ġ1995":8263,"Ø§":8264,"oraj":8265,"Ġrequ":8266,"ĠOficejo":8267,"Ġkoleg":8268,"ĠMeksiko":8269,"gala":8270,"xu":8271,"Ġkver":8272,"ples":8273,"Ġideas":8274,"Ġsekureco":8275,"ĠJapanese":8276,"fal":8277,"ĠLike":8278,"Ġterura":8279,"Ġadmi":8280,"Ġespero":8281,"Ġetern":8282,"ĠBob":8283,"vero":8284,"Ġmasterpiece":8285,"ĠinterÅĿanÄĿ":8286,"Ġmalak":8287,"ĠrenkontiÄĿoj":8288,"kultur":8289,"igan":8290,"idon":8291,"Ġintervju":8292,"Ġhund":8293,"Ġprotek":8294,"Ġaccid":8295,"Ġ1992":8296,"ĠDok":8297,"Ġuzu":8298,"Ġclaim":8299,"Ġpend":8300,"Ġaccom":8301,"Ġinsul":8302,"Ġinfanojn":8303,"ĠLiaj":8304,"Ġdemandojn":8305,"Ġmalkovris":8306,"insulo":8307,"Ġverkojn":8308,"AÅŃ":8309,"liko":8310,"Ġrezultoj":8311,"Ġuzanto":8312,"Ġdirecting":8313,"orienta":8314,"Ġmanages":8315,"ĠÄīeÄ¥a":8316,"ĠHarry":8317,"EM":8318,"Ġentenas":8319,"Ġdramatic":8320,"lity":8321,"omio":8322,"ekan":8323,"action":8324,"Ġinteresaj":8325,"Ġperspek":8326,"iston":8327,"arre":8328,"ĠSon":8329,"Ġagadon":8330,"Ġspent":8331,"Ġeniri":8332,"cip":8333,"Ġinside":8334,"Ġsituacion":8335,"Ġdung":8336,"Ġoutside":8337,"Ġpalest":8338,"Ġkok":8339,"ĠAnjo":8340,"Ġmemoro":8341,"Ġoriente":8342,"rante":8343,"Ġpraktiko":8344,"ĠÅĿer":8345,"ĠkaÅŃzo":8346,"Ġlaughing":8347,"âĢ¦]":8348,"ĠVe":8349,"Ġsimb":8350,"kolor":8351,"Ġeventually":8352,"Ġklarigas":8353,"Ġess":8354,"Ġplia":8355,"Ġprofe":8356,"ĠDou":8357,"Ġhejme":8358,"dem":8359,"Ġalbumo":8360,"baro":8361,"Ġfore":8362,"Ġkredis":8363,"ĠLeon":8364,"ĠRay":8365,"TM":8366,"ÄĽ":8367,"Ġkvara":8368,"ĠHind":8369,"Ġlisten":8370,"Ġincredibly":8371,"We":8372,"ĠaÄī":8373,"ĠFilo":8374,"ĠÃª":8375,"ĠMez":8376,"rad":8377,"Ġmalfrue":8378,"Ġradikoj":8379,"Ġindeed":8380,"Ġhazarde":8381,"ÅĿon":8382,"cele":8383,"Ġmuzika":8384,"OS":8385,"bran":8386,"Ġsearch":8387,"Ġatendi":8388,"ĠleÄĿoj":8389,"Ġcreate":8390,"Ġclos":8391,"ĠIrano":8392,"Ġmalka":8393,"ĠHit":8394,"Ġreprezentantoj":8395,"Ġgal":8396,"Ġelmon":8397,"ĠTan":8398,"ĠAma":8399,"Ġbezonis":8400,"Ġrock":8401,"Ġkvadra":8402,"Ġpermesis":8403,"board":8404,"fika":8405,"Ġsymp":8406,"Ġkontras":8407,"lande":8408,"Ġfails":8409,"ĠFirst":8410,"ligitaj":8411,"Ġamaskomunik":8412,"Ġ1998":8413,"Ġmens":8414,"ĠruÄĿ":8415,"pac":8416,"Ġtimas":8417,"Ġentreprenoj":8418,"Ġrespondas":8419,"oms":8420,"tered":8421,"Ġsidejo":8422,"Ġdistanco":8423,"Ġcreated":8424,"ĠScott":8425,"-)":8426,"Ġcount":8427,"Ġposta":8428,"Ġcaught":8429,"ĠLiter":8430,"rido":8431,"Ġtelling":8432,"ĠtaÅŃga":8433,"Well":8434,"gest":8435,"ĠBrun":8436,"Ġkomand":8437,"Ġdonos":8438,"Ã¡r":8439,"Ġportas":8440,"Ġkated":8441,"Ġdesper":8442,"Ġsul":8443,"Ġcelon":8444,"Ġdesign":8445,"Ġzono":8446,"Ġmagaz":8447,"ĠPap":8448,"ĠmalÄĿ":8449,"Ġpreta":8450,"ĠReÄĿ":8451,"Ġoriginalo":8452,"even":8453,"Ġbesto":8454,"Ġrespektive":8455,"Ġvespere":8456,"Ġdeserves":8457,"eraj":8458,"terne":8459,"Ġfighting":8460,"ising":8461,"ĠBona":8462,"Ġdiskon":8463,"Ġplo":8464,"Ġsepar":8465,"Ġwasted":8466,"Ġstacid":8467,"Ġmalgrandan":8468,"Ġsounds":8469,"Ġcompar":8470,"Ġkvie":8471,"idu":8472,"Ġexpecting":8473,"Ġvillain":8474,"Äĩ":8475,"libroj":8476,"ĠOF":8477,"Ġpublike":8478,"Ġruin":8479,"Man":8480,"hed":8481,"Ġkaptis":8482,"Ġproprajn":8483,"Ġapproach":8484,"Ġsugg":8485,"ystem":8486,"Ġsuggest":8487,"Ġnokt":8488,"aiko":8489,"ĠMedia":8490,"voje":8491,"Ġdisponebla":8492,"ĠHodiaÅŃ":8493,"Ġcm":8494,"trino":8495,"Ġsorry":8496,"Ġportrayed":8497,"ĠIMDb":8498,"urado":8499,"Ġalportis":8500,"itz":8501,"Ġsoul":8502,"rojekto":8503,"ĠÄīia":8504,"igno":8505,"Ġmissing":8506,"Ġknabino":8507,"sistemo":8508,"Ġjoke":8509,"Ġsimbolo":8510,"Gra":8511,"eren":8512,"Ġflankoj":8513,"Ġpull":8514,"Ġfad":8515,"Ġgvidanto":8516,"lang":8517,"Ġcomp":8518,"Ġimmedia":8519,"Ġkomunan":8520,"Ġrecord":8521,"faz":8522,"Ġstudo":8523,"Ġsmo":8524,"Ġrestos":8525,"ĠkaÅŃzas":8526,"Ġkondukas":8527,"clap":8528,"Ġlanguage":8529,"Ġkanton":8530,"Ġmulto":8531,"ĠBulg":8532,"Ġstarigis":8533,"Ġservas":8534,"Ġmuzikon":8535,"Ġsecret":8536,"Bo":8537,"ao":8538,"Ġinvitas":8539,"Ġlandli":8540,"Ġsomero":8541,"Ġdoor":8542,"administra":8543,"Ġnomojn":8544,"Ġjena":8545,"Ġmembers":8546,"monda":8547,"Ġpriskribas":8548,"abeto":8549,"Ġ1991":8550,"Ġpraktike":8551,"ui":8552,"Ġteritorioj":8553,"Ġfali":8554,"Ġsendependa":8555,"pol":8556,"Ġwhatever":8557,"ĠWin":8558,"Ġador":8559,"Ġmarried":8560,"Ġ1993":8561,"TH":8562,"ĠKontakto":8563,"Ġmenciita":8564,"Ġcartoon":8565,"Ġ32":8566,"Ġvojoj":8567,"ĠTiun":8568,"Ġsag":8569,"ĠGab":8570,"mata":8571,"inal":8572,"Ġsciencistoj":8573,"Ġtwist":8574,"Ġfrenez":8575,"Ġkanta":8576,"Ġunre":8577,"plej":8578,"ights":8579,"ĨįãĨįãĨįãĨįãĨįãĨįãĨįãĨįã":8580,"Ġrelie":8581,"ĠBul":8582,"Ġprofesia":8583,"Ġopiniis":8584,"Ġbrun":8585,"Ġbeat":8586,"Ġended":8587,"Ġdemandi":8588,"Sek":8589,"Ġtrash":8590,"Ġhang":8591,"Ġinkluzivas":8592,"Ġcreepy":8593,"car":8594,"Ġrepu":8595,"ÄĿejo":8596,"ĠSing":8597,"Ġbelan":8598,"Ġterror":8599,"Ġrezign":8600,"ĠDay":8601,"Ġanoncis":8602,"Ġescape":8603,"Ġmeza":8604,"ĠMilito":8605,"Ġsate":8606,"Ġnav":8607,"style":8608,"Ġplenty":8609,"Ġfrazoj":8610,"Ġarki":8611,"Ġfamaj":8612,"Ġkapital":8613,"Ġeksterlandaj":8614,"Ġremake":8615,"ĠBudape":8616,"Ġfurther":8617,"fr":8618,"Ġava":8619,"arko":8620,"Ġmalfermis":8621,"Ġlibr":8622,"Ġferm":8623,"Ġforgesis":8624,"endaro":8625,"parolis":8626,"Ġvarma":8627,"Ġnormala":8628,"Ġpasinta":8629,"Ġvalue":8630,"Ġech":8631,"Ġbag":8632,"Ġsamide":8633,"Ġnuntempa":8634,"ĠvilaÄĿ":8635,"ĠPrince":8636,"ĠÄĪeÄ¥io":8637,"Ġdeziro":8638,"tula":8639,"Ġdikta":8640,"vena":8641,"Ġsat":8642,"ief":8643,"phy":8644,"Ġdirectors":8645,"Pli":8646,"ĠMul":8647,"Ġunuo":8648,"Ġesperantista":8649,"ĠSpirito":8650,"rup":8651,"Ġorganizis":8652,"Ġeldonis":8653,"Ġhardly":8654,"Ġokcidente":8655,"Ġdemandas":8656,"Ġvam":8657,"inting":8658,"Ġkonsentis":8659,"Ġenhavon":8660,"Ġpup":8661,"Ġpotential":8662,"Ġkoncerto":8663,"pired":8664,"Ġpasinte":8665,"ĠFilm":8666,"ĠBj":8667,"Ġvetur":8668,"Ġbirdo":8669,"sequ":8670,"penh":8671,"Ġmach":8672,"ĠSor":8673,"ĠÂ©":8674,"Ġplano":8675,"Ġsix":8676,"Ġvalidas":8677,"Ġcirkonstancoj":8678,"ĠJane":8679,"ĠmorgaÅŃ":8680,"ĠMax":8681,"ules":8682,"Ġminis":8683,"skribo":8684,"Ġoffic":8685,"Ġkuir":8686,"Äīita":8687,"amik":8688,"ranto":8689,"Ġligitaj":8690,"Ġstratoj":8691,"Ġkondamn":8692,"GlaÄī":8693,"aper":8694,"vy":8695,"Ġsatis":8696,"itation":8697,"Ġlonger":8698,"Ġentrepreno":8699,"Ġsinjorino":8700,"Ġsuddenly":8701,"âĢŀ":8702,"Ġinkludas":8703,"rated":8704,"Ġinstrui":8705,"rÃ©":8706,"Ġoce":8707,"Ġskribita":8708,"Ġsukcesa":8709,"ĠWest":8710,"Ġfollowing":8711,"Ġeblecon":8712,"Ġhistoriaj":8713,"Ġnecese":8714,"Ġrecogni":8715,"ĠMalgraÅŃ":8716,"Ġdelonge":8717,"Ġkonson":8718,"cker":8719,"Ġphys":8720,"ĠHelpo":8721,"Ġwaiting":8722,"Ġinsuloj":8723,"ĠMarta":8724,"Ġattempts":8725,"Ġwrote":8726,"Ġkonker":8727,"fu":8728,"Ã¹":8729,"Ġhip":8730,"ĠRevolu":8731,"Ġentirely":8732,"Ġreligiaj":8733,"ç¤¼åĮħç¤¼åĮħç¤¼åĮħç¤¼åĮħç¤¼åĮħç¤¼åĮħç¤¼åĮħç¤¼åĮħç¤¼åĮħç¤¼åĮħç¤¼åĮħç¤¼åĮħç¤¼åĮħç¤¼åĮħç¤¼åĮħç¤¼åĮħç¤¼åĮħç¤¼åĮħç¤¼åĮħç¤¼åĮħç¤¼åĮħç¤¼åĮħç¤¼åĮħç¤¼åĮħç¤¼åĮħç¤¼åĮħç¤¼åĮħç¤¼åĮħç¤¼åĮħç¤¼åĮħç¤¼åĮħç¤¼åĮħ":8734,"cita":8735,"Ġeltro":8736,"Ġdetale":8737,"Ġprodukti":8738,"Ġkontakti":8739,"Ġversioj":8740,"ĠEstr":8741,"Ad":8742,"Ġimage":8743,"Ġfilmmakers":8744,"ĠFu":8745,"Ġprelego":8746,"Ġregard":8747,"Ġilo":8748,"verso":8749,"meto":8750,"field":8751,"Ġabund":8752,"Ġnaz":8753,"Ġkien":8754,"ĠHere":8755,"ĠdaÅŃras":8756,"hibicio":8757,"Ġkate":8758,"Ġembarras":8759,"pus":8760,"Ġbalan":8761,"urch":8762,"Ġ(=":8763,"Ġkolekto":8764,"Ġoperaci":8765,"Kel":8766,"ä¸":8767,"isti":8768,"Ġklarigis":8769,"ĠÄĿardeno":8770,"Ġforce":8771,"Ġforgo":8772,"ĠInterna":8773,"Ġegale":8774,"umes":8775,"Ġverbo":8776,"Ġrajto":8777,"Ġpredi":8778,"ĠOther":8779,"Ġcute":8780,"ĠSav":8781,"mond":8782,"fino":8783,"Ġlady":8784,"ĠMen":8785,"Ġgvidantoj":8786,"Ġfranc":8787,"ked":8788,"zajn":8789,"ĠRem":8790,"Ġtrajn":8791,"iros":8792,"Nov":8793,"bone":8794,"sem":8795,"laroj":8796,"ĠItalian":8797,"astio":8798,"ĠEli":8799,"Ġangle":8800,"kl":8801,"Ġreale":8802,"Ġtravel":8803,"Ġsubtle":8804,"ĠDanio":8805,"Ġachie":8806,"paco":8807,"Ġobjektoj":8808,"radi":8809,"ĠsenÄī":8810,"logion":8811,"Ġplenan":8812,"Ġkrizo":8813,"Ġbrain":8814,"Ġnee":8815,"Ġeksteraj":8816,"ĠAlia":8817,"ĠFak":8818,"Ġmerkato":8819,"ĠBak":8820,"ĠFla":8821,"vaka":8822,"ĠNE":8823,"Ġsekvi":8824,"Ġbrief":8825,"wers":8826,"Ġent":8827,"Ġseg":8828,"Ġcivita":8829,"Ġkonserv":8830,"Ġiros":8831,"ĠParlamento":8832,"Ġsch":8833,"Ġvalo":8834,"ĠPala":8835,"Ġmembrojn":8836,"ĠÄīiutaga":8837,"Ġprodukto":8838,"Ġtradiciaj":8839,"ĠSand":8840,"Ġbeauty":8841,"ĠAmb":8842,"Ġmarks":8843,"tista":8844,"Ġmiz":8845,"iujn":8846,"Ġlimigita":8847,"ĠArgentino":8848,"Ġekzemploj":8849,"ĠÅĿir":8850,"boy":8851,"Ġpopola":8852,"Ġbap":8853,"Ġpropri":8854,"ĠvizaÄĿon":8855,"Ġoccasion":8856,"Ġinv":8857,"ĠIuj":8858,"ĠDSC":8859,"Ġurbeto":8860,"istaro":8861,"Ġmetodoj":8862,"Ġmodif":8863,"Ġpoemoj":8864,"cento":8865,"anco":8866,"Ġinstruistoj":8867,"Ġgenro":8868,"Ġnormal":8869,"Ġlic":8870,"Ġsimpa":8871,"Ġcause":8872,"Ġslightly":8873,"Ġgeamikoj":8874,"imi":8875,"ĠDam":8876,"Ġrespubliko":8877,"Ġpartoprenas":8878,"esperanta":8879,"Ġmetas":8880,"ĠKas":8881,"Ġokupis":8882,"Ġcrazy":8883,"Or":8884,"Ġfanta":8885,"ĠEston":8886,"ĠWik":8887,"Ġeksplu":8888,"izon":8889,"Ġprinc":8890,"Ġmanip":8891,"Ġtalented":8892,"Ġmalliber":8893,"ubern":8894,"Ġpostulis":8895,"Ġteron":8896,"ashion":8897,"Ġanswer":8898,"ĠGru":8899,"cate":8900,"Ġnudity":8901,"hy":8902,"Ġellabor":8903,"Ġsimplaj":8904,"Ġpse":8905,"Ġwestern":8906,"Ġgem":8907,"kel":8908,"vorto":8909,"Ġkompleta":8910,"ĠInstituto":8911,"Ġpropor":8912,"ĠDE":8913,"Ġinterne":8914,"Ġdepend":8915,"Ġmodernaj":8916,"zumo":8917,"ĠPu":8918,"Ġanalizo":8919,"xas":8920,"Ġrespect":8921,"Ġkreado":8922,"Ġvolus":8923,"Ġdecidi":8924,"juo":8925,"Ġ1945":8926,"Ġvaloron":8927,"osta":8928,"Ġuses":8929,"ĠDion":8930,"Ġsubti":8931,"Ġ1997":8932,"ĠfeliÄī":8933,"itra":8934,"Ġaperos":8935,"GlaÄīero":8936,"?!":8937,"atajn":8938,"mod":8939,"Ġ1994":8940,"Ġregistrita":8941,"Ki":8942,"pera":8943,"Ġportis":8944,"Ġretejon":8945,"ĠVar":8946,"Ġmentioned":8947,"known":8948,"KK":8949,"gus":8950,"Ġsano":8951,"Ġrezolu":8952,"ĠÄīesis":8953,"Ġhavus":8954,"Ġekspli":8955,"Ġnenia":8956,"Ġpublikaj":8957,"____":8958,"col":8959,"Ãª":8960,"âĸĳ":8961,"urb":8962,"Ġamon":8963,"ĠVieno":8964,"atio":8965,"Ġboys":8966,"deknaÅŃ":8967,"ĠÄµurnal":8968,"iva":8969,"utas":8970,"koraÅŃ":8971,"Ġstore":8972,"cre":8973,"ĠRy":8974,"Ġdied":8975,"Ġ33":8976,"Ġfear":8977,"Ġpersonojn":8978,"viz":8979,"sky":8980,"ĠJones":8981,"Ġprov":8982,"Ġradiko":8983,"Ġrecently":8984,"Ġfenomeno":8985,"ĠWatch":8986,"Ġintense":8987,"kum":8988,"Saluton":8989,"At":8990,"Ġplas":8991,"Ġpastroj":8992,"akon":8993,"hem":8994,"Ġjare":8995,"Ġstat":8996,"Ġalko":8997,"Ġplor":8998,"lingvoj":8999,"lantaj":9000,"ĠKongo":9001,"ĠInstead":9002,"blajn":9003,"ardoj":9004,"Ġ150":9005,"Ġfollows":9006,"Ġkristanoj":9007,"Ġbildojn":9008,"taloj":9009,"ĠLigo":9010,"Ġmontr":9011,"komp":9012,"Ġgazetoj":9013,"cz":9014,"Äģ":9015,"liber":9016,"usly":9017,"Ġesprimas":9018,"Ġgovernment":9019,"ĠmalÄĿoj":9020,"***":9021,"Ġejo":9022,"Ġfruaj":9023,"Ġkrue":9024,"ĠÄīeÄ¥":9025,"lernejo":9026,"deknaÅŃi":9027,".âĢľ":9028,"Ġgrado":9029,"Ġprogramer":9030,"123456":9031,"Ġamount":9032,"ency":9033,"ĠinteresiÄĿas":9034,"Ġkoloro":9035,"gue":9036,"Ġkonkurso":9037,"Ġaraba":9038,"ĠNight":9039,"Ġcertigi":9040,"ĠÅĿata":9041,"Ġdispla":9042,"Ġplenkresk":9043,"Ġklar":9044,"Ġkaraktero":9045,"Ġleteron":9046,"Ġtension":9047,"ÅĿas":9048,"ĠBol":9049,"ĠaÅŃdi":9050,"num":9051,"Ġsxi":9052,"ĠDankon":9053,"ĠfariÄĿi":9054,"Ġdankon":9055,"Ġblankaj":9056,"Ġdiskuti":9057,"annel":9058,"TA":9059,"Ġ×":9060,"Ġpinto":9061,"ĠJako":9062,"Ġefiko":9063,"Ġkapablo":9064,"ĠKonstitu":9065,"Ġmalproksime":9066,"ĠMod":9067,"Ġprior":9068,"Ġorganizi":9069,"Ġtaskon":9070,"Ġkunsido":9071,"ji":9072,"tiloj":9073,"Ġpointless":9074,"Ġdatreveno":9075,"ĠÂĹ":9076,"Ġfrukto":9077,"Ġsorto":9078,"Ġpraktika":9079,"ffer":9080,"ĠÅĿpar":9081,"galio":9082,"Ġukra":9083,"Ġkis":9084,"tigos":9085,"Ġlegend":9086,"Ġepisko":9087,"cula":9088,"kloj":9089,"ĠinÄĿen":9090,"Ġesprimis":9091,"kvil":9092,"Ġcompu":9093,"ĠDead":9094,"ielo":9095,"ĠÄĿojo":9096,"Ġchoice":9097,"Ġtaste":9098,"ĠJord":9099,"star":9100,"Ġrekonstru":9101,"Ġcredit":9102,"ĠChristian":9103,"Ġretejoj":9104,"Ġklu":9105,"Ġmiliton":9106,"ismoj":9107,"Ġdecides":9108,"Ġprac":9109,"Ġepo":9110,"Ġekkri":9111,"Ġ36":9112,"Ġplum":9113,"some":9114,"ĠmanÄĿas":9115,"Ġ[...]":9116,"dat":9117,"Ġjubile":9118,"Ġporna":9119,"ugos":9120,"ĠIvan":9121,"Ġ1940":9122,"...\"":9123,"Ġcertaj":9124,"TE":9125,"Ġetaj":9126,"usa":9127,"ĠNorve":9128,"Ġoficejo":9129,"Ġkonsi":9130,"Ġcasting":9131,"rian":9132,"Ġlecion":9133,"Ġregula":9134,"ured":9135,"Ġproduced":9136,"OW":9137,"Ġkost":9138,"ĠKata":9139,"Ġintencas":9140,"tologio":9141,"Ġfunni":9142,"ĠMoseo":9143,"uling":9144,"Ġunbelie":9145,"ĠFilip":9146,"Ġabon":9147,"Ġmaterialoj":9148,"Ġrigardo":9149,"ĠAmbaÅŃ":9150,"Ġtrafis":9151,"Ġokazoj":9152,"Ġmirinda":9153,"Ġcompany":9154,"tagmeze":9155,"Ġconcept":9156,"cons":9157,"Ġgratu":9158,"Ġeksterordin":9159,"Ġspektak":9160,"Ġviolent":9161,"Ġcert":9162,"Ġdepartemento":9163,"Wiki":9164,"ĠSpa":9165,"iling":9166,"pected":9167,"Ġprenas":9168,"Ġ1989":9169,"Ġprojekton":9170,"bab":9171,"tance":9172,"Ġsweet":9173,"Ling":9174,"Ġepi":9175,"ĠLibro":9176,"Ġroad":9177,"kante":9178,"rect":9179,"Ġproper":9180,"ĠÄīefministro":9181,"vortoj":9182,"Ġkomfor":9183,"Ġspertis":9184,"ĠtaÅŃgas":9185,"ĠNapole":9186,"Ġrifuzis":9187,"Ġportrayal":9188,"Ġearth":9189,"Ġgrandeco":9190,"ĠantaÅŃvid":9191,"Ġekspozicio":9192,"ĠFranca":9193,"Ġpromo":9194,"Ġeffective":9195,"Ġproto":9196,"Ġgrup":9197,"Ġquestions":9198,"Ġleganto":9199,"Ġegal":9200,"turn":9201,"wi":9202,"ĠPow":9203,"Ġcomplex":9204,"Ġotherwise":9205,"Ġfake":9206,"Ġrakontoj":9207,"Ġprincipoj":9208,"Ġexciting":9209,"ĠPalestino":9210,"Kore":9211,"prof":9212,"angla":9213,"ĠÄīambr":9214,"Ġviva":9215,"lata":9216,"gal":9217,"Ð²":9218,"Ġsencon":9219,"Ġmankis":9220,"Ġebleco":9221,"Ġvizitantoj":9222,"taks":9223,"Ġenk":9224,"Ġareoj":9225,"Ġfavore":9226,"ington":9227,"ĠreÄĿis":9228,"Ġjuro":9229,"ĠPakis":9230,"ĠnovaÄµoj":9231,"ĠZe":9232,"Ġsituations":9233,"Ġconvincing":9234,"ĠNik":9235,"Ġtree":9236,"Ġsukcesas":9237,"ceived":9238,"pal":9239,"ardu":9240,"Ġprotagon":9241,"ĠÅł":9242,"Me":9243,"Ġcat":9244,"ĠÅľablono":9245,"aÄĿis":9246,"Ġlam":9247,"Ġprotekti":9248,"Ġcivili":9249,"Ġappreciate":9250,"eca":9251,"gulo":9252,"Ġdisappoint":9253,"Ġkutim":9254,"Ġade":9255,"Ġdeg":9256,"ĠHigh":9257,"ĠPopola":9258,"kuris":9259,"Ġrimedojn":9260,"Ġasked":9261,"Ġted":9262,"ĠÄīer":9263,"ĠGal":9264,"Ġmanner":9265,"Ġglad":9266,"Ġkulturaj":9267,"Ġekip":9268,"Ġsees":9269,"Ġ48":9270,"Ġunderstan":9271,"htm":9272,"avi":9273,"Ġplurfoje":9274,"Ġsavi":9275,"off":9276,"ĠSpeci":9277,"Ġrespondon":9278,"Ġflughav":9279,"ĠShow":9280,"Ġkonduto":9281,"riage":9282,"Ġcold":9283,"olfo":9284,"Ġlimoj":9285,"ĠLong":9286,"ĠWill":9287,"Ġdestin":9288,"ilt":9289,"Ġhezi":9290,"prin":9291,"Ġtum":9292,"ĠLang":9293,"Ġparale":9294,"Ġagi":9295,"see":9296,"ĠorganizaÄµoj":9297,"Ġludoj":9298,"Ġrate":9299,"ĠSol":9300,"Ġadreso":9301,"Ġliteratura":9302,"Ġordinara":9303,"ĠaÅŃtomate":9304,"france":9305,"Ġground":9306,"teroj":9307,"Ġmortigi":9308,"ĠZam":9309,"Some":9310,"rent":9311,"Ġalud":9312,"ĠKomunejo":9313,"Ġque":9314,"ĠÄĪeÄ¥a":9315,"Ġchanged":9316,"Ñĥ":9317,"Ġmoves":9318,"Ġkomencantoj":9319,"ĠdaÅŃrigis":9320,"ĠJunulara":9321,"ĠDistribu":9322,"ĠAleksandro":9323,"Ġnud":9324,"Ġekvidis":9325,"ĠeÅŃroj":9326,"ĠRumanio":9327,"Ġspite":9328,"Ġmaldekstra":9329,"fre":9330,"tives":9331,"Ġscream":9332,"Ġkamp":9333,"Ġsuferis":9334,"Ġopportun":9335,"Ġsuccessful":9336,"ĠFrancisko":9337,"Ġintelligent":9338,"teur":9339,"ĠTw":9340,"ĠSinjor":9341,"wikipedia":9342,"Ġfilled":9343,"Ġmissed":9344,"libron":9345,"ĠBiblio":9346,"Ġatente":9347,"Ġpatron":9348,"Ġinstruas":9349,"Ġlukto":9350,"Ġstel":9351,"Ġlokojn":9352,"After":9353,"Ġmontoj":9354,"Ġagadoj":9355,"Ġspecifa":9356,"ĠSy":9357,"Ġâĸĳ":9358,"Ġpozicio":9359,"Ġâĸĳâĸĳ":9360,"bad":9361,"ghts":9362,"Ġ1996":9363,"bita":9364,"emy":9365,"Ġmallar":9366,"Ġkoron":9367,"Ġshowed":9368,"Ġmalfermita":9369,"ĠaranÄĿoj":9370,"Ġsinteno":9371,"ĠkuÅĿas":9372,"gori":9373,"Ġmali":9374,"Ġnere":9375,"ĠUl":9376,"Ġkomplete":9377,"ĠaliÄĿi":9378,"Ġdorm":9379,"ĠFred":9380,"ĠÂ».":9381,"Ġdefinition":9382,"ĠkomenciÄĿas":9383,"Ġenkonduko":9384,"His":9385,"ering":9386,"Ġwall":9387,"Ġpovi":9388,"Ġbreat":9389,"ghten":9390,"Ġamusing":9391,"part":9392,"paroj":9393,"encojn":9394,"lanoj":9395,"grade":9396,"Ġunus":9397,"Ġhavebla":9398,"Ġturnis":9399,"atorio":9400,"Ġvokis":9401,"Ġpatrin":9402,",[":9403,"Ġtemon":9404,"Ġtekn":9405,"Ġparlamen":9406,"este":9407,"indek":9408,"Ġculture":9409,"AJ":9410,"ĠKim":9411,"Ġekhav":9412,"Ġrikol":9413,"elli":9414,"ĠParto":9415,"nombraj":9416,"gers":9417,"tenon":9418,"Ġtrain":9419,"Ġfratino":9420,"tere":9421,"mann":9422,"Ġteatro":9423,"tina":9424,"Ġbegan":9425,"ĠSove":9426,"umita":9427,"ĠKolomb":9428,"ktaj":9429,"ÂĹ":9430,"Ġ02":9431,"Ġtough":9432,"Ġnomataj":9433,"ech":9434,"Ġvivanta":9435,"Ġkompan":9436,"Ġadded":9437,"Ġspertoj":9438,"Ġvisual":9439,"ĠVjetnam":9440,"menio":9441,"ERS":9442,"Ġ~":9443,"Ġverki":9444,"ilable":9445,"Ġcompla":9446,"Ġekspozi":9447,"Ġajnan":9448,"ÅĿtatoj":9449,"ÄĻ":9450,"entado":9451,"sekso":9452,"Ġtemperaturo":9453,"ĠBedaÅŃrinde":9454,"Ġatako":9455,"Ġfinanca":9456,"Ġbizarre":9457,"Ġsqu":9458,"Ġekestis":9459,"bud":9460,"Ġtel":9461,"ĠÄĿojas":9462,"Ġkat":9463,"rage":9464,"Ġced":9465,"ĠAlb":9466,"ĠmesaÄĿo":9467,"ĠLove":9468,"ÅĿuti":9469,"omob":9470,"Ġdirekti":9471,"Ġhorojn":9472,"ĠRuÄĿa":9473,"Ġimpossible":9474,"Ġkonci":9475,"ades":9476,"Ġforton":9477,"ĠlarÄĿa":9478,"ĠfeliÄīa":9479,"Ġallog":9480,"Ġnotice":9481,"Äīeco":9482,"ĠKantono":9483,"Su":9484,"ises":9485,"Ġfresh":9486,"ĠÄīeesto":9487,"Ġangulo":9488,"ĠhodiaÅŃa":9489,"ĠNob":9490,"Ġunless":9491,"Ġfojo":9492,"ĠBlo":9493,"Ġprelegoj":9494,"Äīambro":9495,"Ġaccep":9496,"EU":9497,"gantaj":9498,"Ġunika":9499,"cock":9500,"ĠTeks":9501,"ĠstaÄĿo":9502,"aÄĿoj":9503,"Ġmencio":9504,"Ġkonstruo":9505,"ĠGrekio":9506,"istaj":9507,"ols":9508,"max":9509,"Ġ34":9510,"iblioteko":9511,"terdamo":9512,"ĠDosiero":9513,"Ġfl":9514,"ĠSouth":9515,"Ġbonfar":9516,"Ġadjek":9517,"ĠkontraÅŃsta":9518,"Ġstudent":9519,"Ġgenius":9520,"Ġmedia":9521,"AY":9522,"Ġfrancaj":9523,"Ġreveni":9524,"down":9525,"ĠFree":9526,"Ġokcidento":9527,"Ġnederlanda":9528,"ĠMik":9529,"Ġripro":9530,"Ġdiros":9531,"Ġapartan":9532,"Ġpresence":9533,"Ġyounger":9534,"tov":9535,"Ġvico":9536,"ĠFern":9537,"Ġadvan":9538,"tival":9539,"ĠBrita":9540,"Ġemfaz":9541,"Ġpurpose":9542,"Ġengag":9543,"Ġwild":9544,"ribly":9545,"Ġ:)":9546,"indas":9547,"Ġhotelo":9548,"Nia":9549,"ouri":9550,"apar":9551,"icz":9552,"Ġtradukon":9553,"ĠÅĿa":9554,"tantan":9555,"ferm":9556,"Ġimagi":9557,"Ġfantasy":9558,"Ġmallibere":9559,"Ġcarry":9560,"alistic":9561,"luzive":9562,"Ġuniversala":9563,"emoj":9564,"Ġantikvaj":9565,"Ġtribun":9566,"fen":9567,"ĠTu":9568,"inated":9569,"Ġorganizita":9570,"ĠvoÄīoj":9571,"GI":9572,"Ġoffice":9573,"ĠMcC":9574,"enced":9575,"Ġnorm":9576,"KOKOKOKOKOKOKOKOKOKOKOKOKOKOKOKO":9577,"ĠsovaÄĿ":9578,"emi":9579,"Ġnenian":9580,"ÃŃa":9581,"Ġsocialismo":9582,"Ñı":9583,"ĠHitch":9584,"Ġaldonas":9585,"ĠDaniel":9586,"ĠStill":9587,"Ġbooks":9588,"ĠIT":9589,"ĠGil":9590,"Ġprogramaro":9591,"ÅĿanÄĿo":9592,"vic":9593,"ĠPek":9594,"niko":9595,"Ġpositive":9596,"ĠJoan":9597,"Ġvizit":9598,"ĠVortaro":9599,"Ġartistoj":9600,"ĠYe":9601,"Ġepiskopo":9602,"ĠMondmilito":9603,"Ġate":9604,"Ġtap":9605,"Ġfinish":9606,"Ġokazon":9607,"ÅĿipo":9608,"Ġvideblas":9609,"toria":9610,"ĠInc":9611,"overs":9612,"ĠFri":9613,"traduk":9614,"ola":9615,"ĠTTT":9616,"Ġtemplo":9617,"Ġesperantaj":9618,"Ġpenet":9619,"Ġneither":9620,"Ġrealigi":9621,"Ġsolida":9622,"bage":9623,"ĠSP":9624,"ĠMals":9625,"Ġkonstanta":9626,"gram":9627,"logoj":9628,"Ġbonega":9629,"Ġkategorio":9630,"dona":9631,"Ġkorpon":9632,"ĠnaskiÄĿo":9633,"Ġtelevido":9634,"RI":9635,"iÄĿante":9636,"ĠvilaÄĿoj":9637,"Ġnaturaj":9638,"lam":9639,"tiaj":9640,"ĠCe":9641,"standing":9642,"Ġverkistoj":9643,"Ġbiggest":9644,"ĠVerda":9645,"Ġinvolving":9646,"Ġkriter":9647,"ĠdaÅŃr":9648,"ĠdisvolviÄĿo":9649,"ĠPrezidanto":9650,"Ġproducers":9651,"geno":9652,"Ġponto":9653,"Ġpensoj":9654,"Ġstandard":9655,"Ġmunicipo":9656,"Äīip":9657,"Ġiden":9658,"Ġparamet":9659,"Ġcollege":9660,"Ġburn":9661,"veni":9662,"urate":9663,"ĠRuss":9664,"ÅĿt":9665,"ĠPers":9666,"dim":9667,"ĠBig":9668,"ĠFondumo":9669,"Ġmortigis":9670,"fia":9671,"Ġenga":9672,"thes":9673,"ĠMir":9674,"Ġinsek":9675,"Ġlitero":9676,"Ġfurio":9677,"balo":9678,"istemo":9679,"kate":9680,"vali":9681,"ĠtranÄī":9682,"Ġfako":9683,"emistry":9684,"Ġplanas":9685,"Äľis":9686,"Ġmalamikoj":9687,"Ġkilometrojn":9688,"Ġdise":9689,"ĠarÄĿ":9690,"Ġpalaco":9691,"menton":9692,"ĠPapo":9693,"ĠKroatio":9694,"eni":9695,"Ġgod":9696,"Ġloud":9697,"metas":9698,"Ġfoot":9699,"Ġnordokcid":9700,"Ġspon":9701,"Ġhumour":9702,"Ġaut":9703,"Ġ55":9704,"Ġretpa":9705,"Ġdepth":9706,"Ġdepic":9707,"ĠTurkio":9708,"Ġcontinu":9709,"ĠestiÄĿis":9710,"formaj":9711,"isted":9712,"Ġfortan":9713,"Ġcrimin":9714,"Ġfascin":9715,"Ġblow":9716,"ĠLet":9717,"tors":9718,"ĠÅĿanÄĿojn":9719,"ĠAfgan":9720,"Ġantau":9721,"ĠSep":9722,"ĠFace":9723,"Kong":9724,"Ġunfortunately":9725,"Ġfrancan":9726,"Ġperfekta":9727,"ĠMediaWiki":9728,"Ġimmediately":9729,"Ġmapo":9730,"Ġappearance":9731,"Ġisland":9732,"Ġdioj":9733,"Ġmanifesta":9734,"real":9735,"rie":9736,"Ġoficialaj":9737,"ĠCharlie":9738,"Ġsoldiers":9739,"Ġexecu":9740,"enaj":9741,"asko":9742,"ulinoj":9743,"Ġlevis":9744,"ĠMich":9745,"Ġkompreno":9746,"movie":9747,"ardi":9748,"ĠGPL":9749,"Ġpoezio":9750,"Ġtes":9751,"Ġkurson":9752,"Ġelstara":9753,"Ver":9754,"Ġveran":9755,"ĠNep":9756,"Ġround":9757,"Ġmood":9758,"ĠGrand":9759,"ĠSankt":9760,"ikso":9761,"Ġpathetic":9762,"Ġtutmonde":9763,"ĠMovie":9764,"ires":9765,"house":9766,"Ġcelis":9767,"indi":9768,"ĠIII":9769,"ĠKonstan":9770,"ĠÄĿui":9771,"Ġkavali":9772,"teo":9773,"Ġ1910":9774,"Ġlikes":9775,"ĠHispana":9776,".'":9777,"Ġplue":9778,"Ġtenis":9779,"Ġpriskribi":9780,"ĠRoman":9781,"Ġdrug":9782,"gin":9783,"ĠKru":9784,"peti":9785,"ĠmanÄĿo":9786,"Ġvidebla":9787,"Ġpasigis":9788,"Ġfailed":9789,"Ġsonor":9790,"Ġgeneralo":9791,"Ġconsidered":9792,"allow":9793,"ĠPrago":9794,"Ġleaving":9795,"Ġthreat":9796,"Ġjusteco":9797,"ĠnaÄĿ":9798,"manoj":9799,"Ġefika":9800,"ĠKat":9801,"ĠVers":9802,"sey":9803,"linio":9804,"Ġkulp":9805,"Ġsveda":9806,"Ġdeveno":9807,"ĠLam":9808,"agren":9809,"Ġdistra":9810,"feron":9811,"Ġcompared":9812,"Ġbaby":9813,"Ġincredible":9814,"Ð´":9815,"Ġbuti":9816,"Ġkir":9817,"Ġkomentoj":9818,"iza":9819,"grafiaj":9820,"gov":9821,"wart":9822,"Ġsmart":9823,"Ġformula":9824,"Ġampleksa":9825,"drama":9826,"Ġnombroj":9827,"AG":9828,"Ġmizer":9829,"endita":9830,"Ġgren":9831,"Ġmob":9832,"ĠLew":9833,"Ġproduktas":9834,"ĠSaint":9835,"ĠIndian":9836,"Ġrekomendas":9837,"Tre":9838,"pere":9839,"Ġrol":9840,"Ġvalues":9841,"Ġpira":9842,"Ġsimilan":9843,"ĠUzanto":9844,"Oh":9845,"ĠHouse":9846,"Ġpotencon":9847,"Ġregistaroj":9848,"Ġruns":9849,"ĠreÄĿimo":9850,"gvid":9851,"Ġecx":9852,"etti":9853,"enstein":9854,"ĠserÄīo":9855,"Ġghost":9856,"Ġsenpage":9857,"Ġissues":9858,"Ġunex":9859,"Ġtrakti":9860,"Ġrespubli":9861,"ĠPrivata":9862,"Ġkilometroj":9863,"Ġweren":9864,"ereco":9865,"ized":9866,"Ġjunulo":9867,"Ġkolekti":9868,"Cent":9869,"Ġfleks":9870,"uss":9871,"ĠElek":9872,"Ġmilitoj":9873,"Ġkata":9874,"Ġmysterious":9875,"Ġnokte":9876,"kosta":9877,"Ġthinks":9878,"Ġbrak":9879,"Ġindividuoj":9880,"Ġgramatiko":9881,"Ġvaloroj":9882,"Ple":9883,"bojn":9884,"Ġgene":9885,"Ġveron":9886,"Ġperforto":9887,"Ġimpressive":9888,"ĠFundamento":9889,"mano":9890,"Ġkongresoj":9891,"ĠWikimedia":9892,"Ġmoral":9893,"Ġtable":9894,"Ġblon":9895,"ĠDun":9896,"mail":9897,"Ġlun":9898,"Ġimages":9899,"ĠFili":9900,"That":9901,"ĠArmeo":9902,"Ġshooting":9903,"bul":9904,"gel":9905,"Ġbehav":9906,"yster":9907,"Ġprofession":9908,"ĠÄµetis":9909,"Sin":9910,"ĠÄĿuis":9911,"Ġpromesis":9912,"Ġsn":9913,"ĠGvineo":9914,"permesilo":9915,"natur":9916,"Ġiloj":9917,"Ġfian":9918,"ĠHitler":9919,"gie":9920,"âĹ":9921,"think":9922,"ĠPlan":9923,"Ġekzek":9924,"avio":9925,"temoj":9926,"Ġkrim":9927,"Ġfunkciis":9928,"Ġtar":9929,"ĠWay":9930,"ĠOce":9931,"Ġemp":9932,"VER":9933,"Ġrandom":9934,"Ġsitting":9935,"OJ":9936,"Ġinterre":9937,"Ġarbar":9938,"ubernio":9939,"cast":9940,"Ġsono":9941,"Ġrede":9942,"ĠMari":9943,"Ġprezentita":9944,"Ġstreet":9945,"Ġarmiloj":9946,"Ġaffair":9947,"vajo":9948,"krimin":9949,"Ġoro":9950,"Ġadmir":9951,"ĠUsona":9952,"ĠKopenh":9953,"Ġmalakcep":9954,"EC":9955,"Ġnivel":9956,"Ġunufoje":9957,"Ġsupera":9958,"Ġpeza":9959,"Ġbasic":9960,"OIL":9961,"Ġagrabla":9962,"kins":9963,"Ġregulo":9964,"Ġgeneracioj":9965,"Ġexplain":9966,"Ġstacidomo":9967,"orig":9968,"ikisto":9969,"Ġpersonaj":9970,"Ġfirme":9971,"kolora":9972,"city":9973,"Ġrepor":9974,"ĠSara":9975,"Ġarmy":9976,"Ġmetrojn":9977,"ficial":9978,"Ġregistri":9979,"entally":9980,"Ġchanges":9981,"Kial":9982,"eria":9983,"thur":9984,"Ġfaktoj":9985,"Ġpartn":9986,"Ġlif":9987,"tonoj":9988,"ikajn":9989,"pecaj":9990,"Ġnigraj":9991,"Fine":9992,"nan":9993,"Ġ37":9994,"ĠadiaÅŃ":9995,"006":9996,"Ġinteresoj":9997,"Ġchemistry":9998,"Ġstatus":9999,"Ġpacon":10000,"Ġheavy":10001,"Ġbought":10002,"Ġtrajtoj":10003,"Ġkuba":10004,"lip":10005,"ĠHard":10006,"Ġrit":10007,"ĠpaÅĿo":10008,"Ġklopodis":10009,"Ġblua":10010,"ĠEgiptio":10011,"uja":10012,"Ġconclusion":10013,"sters":10014,"Ġelektas":10015,"Ġrezultojn":10016,"Ġaviadilo":10017,"Ġcross":10018,"Ġofta":10019,"Ġpasintaj":10020,"Ġkontribuis":10021,"ĠÄĮ":10022,"Ġmuze":10023,"you":10024,"ella":10025,"Ġpoemo":10026,"Ġsubven":10027,"Ġstudoj":10028,"Ġstep":10029,"ĠBarbara":10030,"ĠHum":10031,"Ġ42":10032,"Ġmencias":10033,"vadoro":10034,"ĠPaci":10035,"Ġeld":10036,"ĠlaÅŃle":10037,"Ġbarely":10038,"BN":10039,"Ġalteco":10040,"ĠLib":10041,"Ġenhavadministra":10042,"Ġmam":10043,"Ġtrio":10044,"Ġpush":10045,"diÄĿ":10046,"ĠFi":10047,"lasher":10048,"Ġadult":10049,"Not":10050,"Ins":10051,"Ġmastrum":10052,"Äīar":10053,"ĠÃ¦":10054,"Ġrimedo":10055,"hoj":10056,"Ġlit":10057,"Ġkomis":10058,"Ġspecialaj":10059,"ĠAndrew":10060,"funkci":10061,"isten":10062,"ĠÅĿatis":10063,"athy":10064,"Ġununura":10065,"nes":10066,"enberg":10067,"ĠKomence":10068,"reative":10069,"Ġmilionojn":10070,"Ġability":10071,"Ġgrupon":10072,"Ġsubtenon":10073,"Ġalti":10074,"ĠTek":10075,"Ġduob":10076,"Ġrilaton":10077,"sor":10078,"Ġmontra":10079,"ĠdaÅŃrigi":10080,"Ġhaltis":10081,"gard":10082,"Ġcommit":10083,"Ġtradukita":10084,"ont":10085,"Ġmok":10086,"ttom":10087,"Ġpremo":10088,"menko":10089,"Ġflaw":10090,"Ġprepari":10091,"Ġinformi":10092,"ĠAsembleo":10093,"Ġsucce":10094,"Ġkonsistigas":10095,"LEI":10096,"Ġkoordinatoj":10097,"bono":10098,"ivo":10099,"Ġjur":10100,"Ġgrundo":10101,"mez":10102,"stata":10103,"ĠSteph":10104,"Ġfabrik":10105,"ĠiÄĿi":10106,"Ġdoktor":10107,"Ġmalamiko":10108,"ady":10109,"kot":10110,"ĠdisÄīip":10111,"Ġcha":10112,"Ġsubpre":10113,"Ġmotor":10114,"Ġdepress":10115,"Ġtitolon":10116,"ĠAntonio":10117,"cting":10118,"mals":10119,"Ġtone":10120,"heim":10121,"Ġsteloj":10122,"gro":10123,"Ġgita":10124,"ĠBest":10125,"ĠVoj":10126,"004":10127,"Ġfarm":10128,"Ġtombo":10129,"Ġjum":10130,"ĠDistribuata":10131,"Ġesence":10132,"ĠSpe":10133,"ĠAug":10134,"Ġplaces":10135,"Ġdenas":10136,"ĠInterreto":10137,"isterio":10138,"Ġstarigi":10139,"Ġregulojn":10140,"Ġtrajno":10141,"Ġpolitikan":10142,"ĠPortugalio":10143,"Ġdisturbing":10144,"ĠJoze":10145,"Ġinformis":10146,"ĠBruce":10147,".).":10148,"OK":10149,"porto":10150,"servo":10151,"Ġnatural":10152,"ĠBjalisto":10153,"Ġsurround":10154,"tikajn":10155,"Ġadver":10156,"Ġnormale":10157,"Sen":10158,"Ãł":10159,"è¡":10160,"Ġredon":10161,"Ġdolaroj":10162,"Ġeraro":10163,"Ġgeneracio":10164,"TER":10165,"Ġawesome":10166,"ĠMuzaiko":10167,"dante":10168,"Ġkub":10169,"Ġglu":10170,"ĠNatur":10171,"Ġamaso":10172,"ĠhieraÅŃ":10173,"rata":10174,"Ġterms":10175,"Ġoriento":10176,"Ġunuopaj":10177,"Ġproponon":10178,"ĠRussian":10179,"Ġvel":10180,"rest":10181,"Ġtrium":10182,"Ġmilitary":10183,"ĠLouis":10184,"teblaj":10185,"ĠEsperantaj":10186,"Ġdelight":10187,"Ġkovri":10188,"Ġsalono":10189,"Ġpord":10190,"Ġvidpun":10191,"ĠKvin":10192,"vant":10193,"Ġcamp":10194,"ĠAllen":10195,"Ġinnocent":10196,"Kio":10197,"oron":10198,"ĠBoris":10199,"Ġstacio":10200,"ĠNuntempe":10201,"ĠOfte":10202,"ĠAtlan":10203,"eth":10204,"Ġenmig":10205,"Äīan":10206,"ĠLegu":10207,"ĠÅĿanÄĿiÄĿis":10208,"Ġbelega":10209,"Ġflago":10210,"Ġkills":10211,"Ġposedanto":10212,"Ġlikely":10213,"alt":10214,"Ġgold":10215,"Ġlanda":10216,"Ġpassion":10217,"Ġfrag":10218,"fak":10219,"âĢ²":10220,"Ġmontaro":10221,"Ġfotojn":10222,"ĠChristo":10223,"Ġteni":10224,"ĠIMGP":10225,"Ġavailable":10226,"Ġbak":10227,"aa":10228,"ĠILEI":10229,"gramo":10230,"Ġsuferas":10231,"Ġvetero":10232,"Ġmovadon":10233,"ĠRevuo":10234,"ield":10235,"Ġflank":10236,"Ġestonta":10237,"Ġkonstatis":10238,"Ġmalvarma":10239,"Of":10240,"ombo":10241,"Ġplat":10242,"ĠÅĿancon":10243,"Ġgarbage":10244,"ĠDirector":10245,"German":10246,"Ġhan":10247,"Ġniveloj":10248,"ĠRenkon":10249,"Ġcult":10250,"ĠSamtempe":10251,"ĠKoreio":10252,"tto":10253,"Ġneigh":10254,"veco":10255,"ĠKatalunio":10256,"fig":10257,"lecon":10258,"Ġkunord":10259,"Ġalive":10260,"allen":10261,"redak":10262,"Ġbezono":10263,"Ġelektro":10264,"Ġconsidering":10265,"Ġcomputer":10266,"pajn":10267,"Ġfashion":10268,"Ġprocess":10269,"Ġmonta":10270,"ĠMike":10271,"Ġtemis":10272,"utime":10273,"Ġeksped":10274,"ĠCommons":10275,"Ġtrip":10276,"Ġproject":10277,"ĠListo":10278,"Ġshar":10279,"Ġlaboroj":10280,"Ġspot":10281,"ĠKatolika":10282,"ĠKolombio":10283,"Ġpoloj":10284,"Ã¡s":10285,"Ġredakti":10286,"Ã¼r":10287,"NA":10288,"zu":10289,"Ã£":10290,"igitan":10291,"Ge":10292,"Ġindas":10293,"Ġgxis":10294,"Ġprivi":10295,"Ġparolado":10296,"Ġpordon":10297,"ĠNiÄĿ":10298,"Ġeblis":10299,"Ġkontrolo":10300,"Ġmerk":10301,"Ġraporton":10302,"Ġkontinento":10303,"ĠÄĪeÄ¥os":10304,"zion":10305,"Ġkian":10306,"Ġaspect":10307,"chen":10308,"dow":10309,"tute":10310,"stin":10311,"Ġtiutempe":10312,"ĠÂ»,":10313,"Ġpasinteco":10314,"stri":10315,"Ġ38":10316,"Ġos":10317,"ÅĿajn":10318,"Ġmulton":10319,"Ġdefendi":10320,"Ġsinging":10321,"ĠetendiÄĿas":10322,"aluz":10323,"Ġelekton":10324,"Ġorigine":10325,"grupoj":10326,"500":10327,"Now":10328,"Ġenor":10329,"Ġfortaj":10330,"kore":10331,"Ġvikiped":10332,"Ġcro":10333,"Ġeblon":10334,"ĠMondo":10335,"Ġgastoj":10336,"Ġsupozeble":10337,"Ġserioza":10338,"Ġpak":10339,"ildo":10340,"Ġhotel":10341,"Ġ600":10342,"Ġsamseks":10343,"Ġsty":10344,"Ġ400":10345,"Ġalveno":10346,"ĠLar":10347,"Ġakcid":10348,"Ġraportis":10349,"ĠmesaÄĿon":10350,"edon":10351,"012":10352,"Ġcommer":10353,"ĠbuÅĿo":10354,"Ġsignoj":10355,"rilaj":10356,"ĠEDE":10357,"Ġkomisiono":10358,"ĠDer":10359,"cket":10360,"hero":10361,"Ġmalven":10362,"ardin":10363,"ĠlaÅŃlonge":10364,"ential":10365,"Ġshoot":10366,"ĠSirio":10367,"Ġbreath":10368,"Ġcik":10369,"poka":10370,"Ġthrown":10371,"Ġbezonoj":10372,"Ġsexy":10373,"Ġreligion":10374,"fir":10375,"Ġeksta":10376,"ĠCivito":10377,"Ġsystem":10378,"Ġinterrila":10379,"ĠAnt":10380,"erne":10381,"Ġekonomiaj":10382,"ANTO":10383,"Ġ||":10384,"Ġpedago":10385,"vag":10386,"iÄĿantaj":10387,"vok":10388,"Ġevidenti":10389,"Ġkategori":10390,"ĠNobel":10391,"Sub":10392,"Ġesta":10393,"ĠRim":10394,"iting":10395,"ancy":10396,"Ġ1987":10397,"Ġplenumas":10398,"Ġeraroj":10399,"Ġredeem":10400,"oko":10401,"Ġnegative":10402,"Ġkontraux":10403,"????":10404,"stu":10405,"Ġmouth":10406,"Ġdiscus":10407,"ureco":10408,"Ġflugo":10409,"Kar":10410,"sign":10411,"Ġham":10412,".....":10413,"ĠFrance":10414,"ĠNovjor":10415,"Ġmanaged":10416,"Ġaz":10417,"ĠGlo":10418,"ĠrifuÄĿ":10419,"ĠFam":10420,"Ġskin":10421,"100":10422,"ware":10423,"Ġkorte":10424,"Fin":10425,"pion":10426,"Ġsuk":10427,"fection":10428,"Ġcxiu":10429,"Ġfremda":10430,"sam":10431,"landon":10432,"uboj":10433,"ĠstreÄī":10434,"LA":10435,"Ġestante":10436,"Ġdume":10437,"Ġagas":10438,"Ġriveroj":10439,"Ġspirita":10440,"Ġtaskoj":10441,"Ġigis":10442,"chan":10443,"Ġultimately":10444,"ĠInternational":10445,"tejoj":10446,"Ġdoktoro":10447,"Ġmekan":10448,"ĠEliz":10449,"ĠÄĿenti":10450,"Ġrum":10451,"Ġspecoj":10452,"mark":10453,"ipon":10454,"Ġfido":10455,"uskri":10456,"ites":10457,"Ġeben":10458,"igxas":10459,"Ġbuilding":10460,"ĠChristmas":10461,"ĠKla":10462,"Ġsug":10463,"iÄĿinte":10464,"Ġfolioj":10465,"ĠSus":10466,"lyn":10467,"cations":10468,"ĠloÄĿejo":10469,"Ġasertis":10470,"tivon":10471,"Ġforigo":10472,"Ġapliki":10473,"Ġsidas":10474,"peris":10475,"Ġplimul":10476,"ĠBrown":10477,"Am":10478,"making":10479,"Ġoccur":10480,"irs":10481,"ĠWi":10482,"tenis":10483,"Ġhab":10484,"ĠCO":10485,"ĠModulo":10486,"Ġpolitikistoj":10487,"Ġimpression":10488,"ilers":10489,"Ġbono":10490,"Ġinterkonsento":10491,"ĠKer":10492,"Ġkostas":10493,"ĠIrako":10494,"listo":10495,"stran":10496,"Ġgag":10497,"theless":10498,"ĠDoug":10499,"iÄĿus":10500,"ledge":10501,"Ġcxu":10502,"Ġsciencaj":10503,"pil":10504,"wiki":10505,"ĠUnesko":10506,"Ġkontribui":10507,"Ġ{\\":10508,"Ġforvet":10509,"laÄµoj":10510,"Ġpion":10511,"Ġhistorical":10512,"ĠserÄīis":10513,"ĠelÅĿuti":10514,"nomb":10515,"teloj":10516,"ĠEK":10517,"vaÄµoj":10518,"ĠPerhaps":10519,"ĠStates":10520,"mentary":10521,"ĠÅĿn":10522,"Ġarti":10523,"Ġgraph":10524,"Ġrevenge":10525,"Ġdefendo":10526,"Ġaudiences":10527,"ĠSocieto":10528,"ĠJoseph":10529,"Ġnelonge":10530,"Ġveraj":10531,"Ġpravas":10532,"Ã¼n":10533,"Ġescepte":10534,"Ġkampanjo":10535,"ĠGold":10536,"ĠGaza":10537,"plenaj":10538,"Ġkalkuli":10539,"hom":10540,"Ġmuroj":10541,"Ġinvent":10542,"Ġunlike":10543,"Ġinterrom":10544,"Ġstelo":10545,"Ġkandidatoj":10546,"pru":10547,"Ġgenerally":10548,"ĠAustra":10549,"Ġkup":10550,"Ġaktivuloj":10551,"Ġpastr":10552,"PS":10553,"Ġjunulara":10554,"ĠBudapeÅĿto":10555,"æľĪ":10556,"fina":10557,"aled":10558,"Ġproksimaj":10559,"Ġakceptita":10560,"Ġjenaj":10561,"Ġtwists":10562,"ĠVladi":10563,"ĠAla":10564,"ÅĿip":10565,"ĠNaz":10566,"Ġates":10567,"Ġturo":10568,"Ġskribo":10569,"Ġopinioj":10570,"Ġmalferma":10571,"ĠÄīa":10572,"Ġtiele":10573,"Nen":10574,"itoj":10575,"mus":10576,"Ġsumo":10577,"ĠLos":10578,"Ġsurfaco":10579,"Ġmank":10580,"Ġserp":10581,"Ġindiki":10582,"Ġkovras":10583,"adaj":10584,"ĠÄīiel":10585,"hum":10586,"ĠBi":10587,"Ġsuver":10588,"esting":10589,"Ġfabri":10590,"Ġleng":10591,"Ã³w":10592,"Ġeksciis":10593,"Ġtroveblas":10594,"Multaj":10595,"eblan":10596,"Ġasoci":10597,"Ã¶r":10598,".-":10599,"orn":10600,"Ġretiri":10601,"âĢī":10602,"Ġund":10603,"ĠTutmonda":10604,"inf":10605,"Ġkoni":10606,"ĠFord":10607,"acy":10608,"Ġattack":10609,"dataj":10610,"Ġdetails":10611,"ĠTony":10612,"ĠUsti":10613,"Ġintrigu":10614,"Ġamaskomunikiloj":10615,"zz":10616,"Ã©s":10617,"Ġefike":10618,"ĠKopenhago":10619,"idis":10620,"Ġnunaj":10621,"Ġkomuniki":10622,"Ġpereis":10623,"Ġwitness":10624,"Ti":10625,"Ġdefi":10626,"ĠÄĿiajn":10627,"Ġsuppose":10628,"Ġklasoj":10629,"Ġkvindek":10630,"Ġceremonio":10631,"Ġnulo":10632,"Ġremains":10633,"Ġutterly":10634,"bek":10635,"ankaÅŃ":10636,"person":10637,"acian":10638,"ells":10639,"Ġsubskribis":10640,"Ġphotography":10641,"Ġantici":10642,"ĠÄµet":10643,"ĠNorth":10644,"ennis":10645,"cular":10646,"Ġeterna":10647,"Ġappeal":10648,"Ġvictim":10649,"Ġnekonata":10650,"laÄµo":10651,"adio":10652,"Ġ39":10653,"Ġidoj":10654,"Ġlinioj":10655,"ĠEgipt":10656,"Ġmapoj":10657,"ĠUnited":10658,"ĠSteve":10659,"Ġcrow":10660,"Ġpati":10661,"Ġutilas":10662,"Ġbol":10663,"âĢİ":10664,"Ġkey":10665,"ĠVere":10666,"ĠTob":10667,"ĠHay":10668,"Ġdisko":10669,"ksem":10670,"Ġescap":10671,"ĠMedi":10672,"Ġloves":10673,"Ġsamkiel":10674,"Ġkulturon":10675,"gust":10676,"ĠDol":10677,"vey":10678,"Ġaspekton":10679,"Ġbazaj":10680,"Ġforlasi":10681,"cipe":10682,"lina":10683,"turoj":10684,"Ġklopodas":10685,"Ġslasher":10686,"Ġokay":10687,"Ġslowly":10688,"Ġcomedies":10689,"ĠAbra":10690,"ĠDid":10691,"Ġnowhere":10692,"tona":10693,"Ġsupport":10694,"Ġnigr":10695,"Ġnutra":10696,"ĠÅĿuld":10697,"Ġdonu":10698,"Ġkelke":10699,"Ġorgano":10700,"lioj":10701,"igus":10702,"Ġghin":10703,"Ġhttps":10704,"Ġpainful":10705,"John":10706,"Ġrond":10707,"Ġplaco":10708,"Ġcentury":10709,"ĠOrig":10710,"Ġterrific":10711,"night":10712,"Ġpresented":10713,"038":10714,"Ġlegado":10715,"Ġrigardon":10716,"ĠMadrido":10717,"ĠdaÅŃri":10718,"Î±":10719,"ĠST":10720,"noma":10721,"ĠSad":10722,"ĠLeo":10723,"ĠSteven":10724,"Ġdrive":10725,"Ġconstantly":10726,"ĠMes":10727,"Ġesperantan":10728,"Ġinformas":10729,"Ġboyfriend":10730,"ĠtaÄī":10731,"ĠFederacio":10732,"Ġkapitalismo":10733,"azo":10734,"bach":10735,"just":10736,"Ġscener":10737,"Ġalfron":10738,"ĠEdu":10739,"Ġforgesu":10740,"Ġdancing":10741,"Ġabr":10742,"room":10743,"Ġigas":10744,"ĠFacebook":10745,"ĠYoung":10746,"Ġimpreson":10747,"Ġadventure":10748,"Ġdato":10749,"ÇĶ":10750,"ĠEkon":10751,"Ġelemento":10752,"ĠmontriÄĿis":10753,"ĠTrakta":10754,"Ġpunktoj":10755,"Ġprovizi":10756,"Ġclimax":10757,"Ġkadro":10758,"sue":10759,"Ġhundo":10760,"ales":10761,"Ġgor":10762,"ĠCez":10763,"Ġstarring":10764,"Ġkompat":10765,"\";":10766,"entist":10767,"Ġminimume":10768,"oviÄī":10769,"005":10770,"Ġesperante":10771,"ĠFranc":10772,"Ģè":10773,"Ġdrun":10774,"Ġliberaj":10775,"lima":10776,"Ġcu":10777,"ĠHans":10778,"upre":10779,"asty":10780,"Ġdekli":10781,"ĠGreen":10782,"Ġrace":10783,"Ġemotion":10784,"Ġdiskutoj":10785,"ĠIu":10786,"ĠRet":10787,"romo":10788,"Ġrakont":10789,"lejo":10790,"Ġarta":10791,"Ġdezerto":10792,"ĠAmi":10793,"Ġprole":10794,"Ġpliajn":10795,"thern":10796,"Ġcinematic":10797,"Ġstunning":10798,"ĠPakistano":10799,"Eble":10800,"life":10801,"uns":10802,"utojn":10803,"ĠteÄ¥":10804,"Ġaperi":10805,"cts":10806,"Ġprokras":10807,"Ġsubtenis":10808,"Ġfojojn":10809,"fiki":10810,"orus":10811,"ĠKD":10812,"tho":10813,"Ġsomewhere":10814,"Ġhumoro":10815,"ĠMid":10816,"Ġpopo":10817,"Is":10818,"Ġkompa":10819,"Ġconvers":10820,"Ġorganizas":10821,"Ġkompleks":10822,"duloj":10823,"eper":10824,"Ġforumo":10825,"ize":10826,"titude":10827,"ĠGeorg":10828,"Ġreligioj":10829,"Con":10830,"First":10831,"Ġfilon":10832,"Ġled":10833,"Ġcomman":10834,"Ġ44":10835,"ĠmaÅĿino":10836,"HodiaÅŃ":10837,"jam":10838,"lla":10839,"ĠÄīagren":10840,"Ġpara":10841,"Ġ1000":10842,"Ġmontran":10843,"Ġvestoj":10844,"Ġfully":10845,"Ġspecta":10846,"Ġdecis":10847,"Ġble":10848,"ital":10849,"Ġeksa":10850,"ĠsorÄī":10851,"\".<":10852,"bado":10853,"ĠÅĿte":10854,"ganizo":10855,"Ġfrat":10856,"Ġamikojn":10857,"Ġdiverseco":10858,"Ġbezonata":10859,"Ġvarias":10860,"ineto":10861,"tigoj":10862,"Ġfaith":10863,"Ġteknologio":10864,"ĠVenez":10865,"Koreio":10866,"Ġliterally":10867,"Ġlaborista":10868,"Ġnames":10869,"yes":10870,"Ġchiuj":10871,"Ġroz":10872,"Ġkonvink":10873,"Ġmonatojn":10874,"Ġintended":10875,"Ġamateur":10876,"ficiala":10877,"Ġpolitikisto":10878,"Ġpom":10879,"Ġmos":10880,"Ġano":10881,"Ġpopolon":10882,"Ġradika":10883,"ĠOnly":10884,"Ġcontem":10885,"ulado":10886,"Ġlastatempe":10887,"Ġtrupoj":10888,"Ġportugala":10889,"Ġvenk":10890,"Ġterur":10891,"Ġknowing":10892,"ĠÄīambron":10893,"Ġshock":10894,"Ġemotions":10895,"ĠSimon":10896,"tiz":10897,"Ġbile":10898,"venis":10899,"Ġlandaj":10900,"Ġtereno":10901,"Ġsituanta":10902,"ĠUrbo":10903,"irante":10904,"Ġcompli":10905,"Ġsudokcid":10906,"Kiu":10907,"tikoj":10908,"Ġpotenca":10909,"Ġfestivalo":10910,"Bra":10911,"nab":10912,"Ġkunteksto":10913,"Ġmarriage":10914,"Ġdisappointing":10915,"ackson":10916,"Ð¼":10917,"ĠNeces":10918,"ĠChin":10919,"Ġanimated":10920,"Ġindepend":10921,"Ġkonstitucio":10922,"Ġesploro":10923,"-,":10924,"ĠMah":10925,"ĠokupiÄĿas":10926,"Ġkosmo":10927,"Ġfellow":10928,"Ġtouching":10929,"Ġseven":10930,"Ġbrusto":10931,"ĠBulgario":10932,"Ġrelief":10933,"gitaj":10934,"kal":10935,"ĠneÄĿo":10936,"ĠBand":10937,"Ġmenciis":10938,"Ġesploroj":10939,"Ġesplorado":10940,"ĠNorvegio":10941,"mag":10942,"ĠMale":10943,"trans":10944,"fis":10945,"Ġwound":10946,"ĠAIS":10947,"ĠBron":10948,"Ġsila":10949,"vaÄµo":10950,"fektive":10951,"Ġsincere":10952,"CE":10953,"Ġ01":10954,"Ġferi":10955,"Ġ1939":10956,"Ġhelpe":10957,"ĠKonferenco":10958,"087":10959,"Ġkonsideris":10960,"Ġviktimoj":10961,"enz":10962,"ĠCin":10963,"ĠCal":10964,"Ġscar":10965,"Ġinfana":10966,"Ġokupas":10967,"Ġhaun":10968,"!).":10969,"ĠBone":10970,"Ġkvanton":10971,"ĠEstraro":10972,"Ġmemstare":10973,"Ġhaz":10974,"ĠMore":10975,"ĠBus":10976,"respon":10977,"Ġcharming":10978,"Ġfeelings":10979,"Ġveturis":10980,"Ġbene":10981,"Ġtrack":10982,"Ġcharm":10983,"Ġheld":10984,"ĠPoz":10985,"uda":10986,"Ġinterese":10987,"Ġacts":10988,"alities":10989,"istent":10990,"Ġkunlabori":10991,"Ġplenumis":10992,"Ġenketoj":10993,"ĠJES":10994,"Ġsubstre":10995,"paroli":10996,"eta":10997,"fare":10998,"ĠaÅŃdas":10999,"ĠKontraÅŃ":11000,"Ġbeautifully":11001,"Ġpligrand":11002,"ĠkuÅĿis":11003,"ĠanstataÅŃe":11004,"Ġprovizas":11005,"Ġplezuro":11006,"Ġscenery":11007,"Ġvest":11008,"Ġchu":11009,"Ġpik":11010,"Ġremo":11011,"ĠGa":11012,"Ġgermanan":11013,"Ġkoloroj":11014,"Ġpenis":11015,"ĠpaÅĿoj":11016,"Ġopportunity":11017,"ĠHitchcock":11018,"ĠSab":11019,"Ġkunpor":11020,"fas":11021,"fron":11022,"ĠEast":11023,"Ġalien":11024,"Ġstick":11025,"Ġglaci":11026,"Ġfaces":11027,"ĺĩ":11028,"Ġlived":11029,"ĠMu":11030,"ĠÄīies":11031,"Ġsimpl":11032,"Ġputs":11033,"Ġmaterialon":11034,"HO":11035,"eja":11036,"ĠBeat":11037,"ĠAliflanke":11038,"Ġevoluon":11039,"Ġhappening":11040,"Ġargumentoj":11041,"ĠbranÄīo":11042,"Ġcostumes":11043,"ĠTuj":11044,"Ġ47":11045,"anÄĿer":11046,"ciated":11047,"Ġgrow":11048,"ĠVas":11049,"Ġdies":11050,"lessly":11051,"Ġjourney":11052,"anti":11053,"tetoj":11054,"Ġfrun":11055,"ĠStran":11056,"Ġmalkres":11057,"Ġparad":11058,"Jun":11059,"endojn":11060,"ĀĀĀĀĀĀĀĀĀĀĀĀĀĀĀĀ":11061,"hand":11062,"ÑĮ":11063,"ĠKia":11064,"Ġuns":11065,"agre":11066,"manta":11067,"itojn":11068,"Ġmetal":11069,"Ġoppos":11070,"Ġsurprisingly":11071,"Ġintervjuo":11072,"Ġzombie":11073,"Ak":11074,"mil":11075,"Ġvino":11076,"Ġmakers":11077,"ĠloÄĿanta":11078,"ĠJulio":11079,"ĠDavis":11080,"Ġkatolikaj":11081,"Ġstands":11082,"ĠTy":11083,"ĠCur":11084,"Ġdate":11085,"ĠÄīefo":11086,"Ġdecidas":11087,"2015":11088,"Ġesplori":11089,"ĠreÄĿa":11090,"Ġjene":11091,"Ġevoluis":11092,"AB":11093,"Ġbord":11094,"Ġisra":11095,"mado":11096,"Ġrevol":11097,"ĠOkaz":11098,"Ġfilozofo":11099,"rigardis":11100,"lat":11101,"Ġpotenc":11102,"Ġfollowed":11103,"Ġdisappe":11104,"ĠISBN":11105,"ticipo":11106,"ĠAir":11107,"ĠDel":11108,"eller":11109,"ĠÄľuste":11110,"blog":11111,"Ġ]":11112,"Ġfleg":11113,"ĠBag":11114,"Ġ1968":11115,"temaj":11116,"ĠDec":11117,"ĠBis":11118,"Ġregular":11119,"Ġbrutal":11120,"Ġzorgas":11121,"Ġ{{":11122,"è¡Ģè":11123,"Ġeterne":11124,"ĠFab":11125,"ĠVis":11126,"Ġesperantistojn":11127,"Ġorganizantoj":11128,"ĺĩæľĪ":11129,"è¡ĢèĺĩæľĪ":11130,"Ġatento":11131,"Ġkantas":11132,"Ġbazon":11133,"pective":11134,"Ġdisvastigi":11135,"ĠmalriÄī":11136,"ðŁĺ¨":11137,"baz":11138,"cht":11139,"Ġaktor":11140,"Ġplejparto":11141,"ousand":11142,"udi":11143,"Ġlovely":11144,"ĠDokum":11145,"Ġflow":11146,"Ġkonsil":11147,"Ġfinna":11148,"Ġhoping":11149,"Ġintegri":11150,"Ġnarrative":11151,"hn":11152,"ĠPark":11153,"ĠÄīapitro":11154,"hou":11155,"ettes":11156,"berio":11157,"Ġincre":11158,"ĠWilliams":11159,"ĠengaÄĿ":11160,"ĠLewis":11161,"bian":11162,"nok":11163,"Ġauthor":11164,"Ġsimil":11165,"Ġprofesiaj":11166,"Ġmenciitaj":11167,"Ġencoun":11168,"Ġsendas":11169,"Ġdenun":11170,"ĠAndreo":11171,"ĠUstimenko":11172,"Poste":11173,"Ġdread":11174,"aÅŃri":11175,"piskopo":11176,"Ġklimato":11177,"ðŁĺ¨ðŁĺ¨":11178,"Ġcrash":11179,"ĠEle":11180,"entle":11181,"Ġmalgaj":11182,"Uni":11183,"viv":11184,"temon":11185,"Ġdecidoj":11186,"Ġbatali":11187,"Ġrecommended":11188,"Ġglute":11189,"erno":11190,"ĠSee":11191,"Ġinfluon":11192,"Ġiniciato":11193,"ĠSloven":11194,"prenas":11195,"Ġintereson":11196,"ĠTurk":11197,"DF":11198,"jaro":11199,"petalo":11200,"Ġunuajn":11201,"Ġebligis":11202,"Ġekkriis":11203,"Ġtren":11204,"ervo":11205,"Ġdiskrimin":11206,"Ġprogreso":11207,"Ġmalsamajn":11208,"ÅĿtato":11209,"Ġkritiko":11210,"Ġgrim":11211,"Ġpieces":11212,"hab":11213,"Ġlon":11214,"Ġneceso":11215,"Ġlaughable":11216,"Ġkataluna":11217,"mono":11218,"Ġtechn":11219,"kongreso":11220,"Ġoriginalan":11221,"Ġunbelievable":11222,"naz":11223,"ert":11224,"Ġtimis":11225,"ĠPeople":11226,"Ġdufoje":11227,"Ġpostaj":11228,"urita":11229,"ĠKarl":11230,"tuÅĿ":11231,"Ġprintempo":11232,"ĠdamaÄĿ":11233,"ĠsenÄīese":11234,"Ġfono":11235,"ĠPrus":11236,"Ġmorti":11237,"Ġintencis":11238,"ĠÄµurnalisto":11239,"Ġalfabeto":11240,"ĠaÅŃtuno":11241,"Ġproponoj":11242,"Ñĭ":11243,"Ġfiction":11244,"kataj":11245,"ludo":11246,"Ġmerely":11247,"fing":11248,"Ġdad":11249,"Ġaspects":11250,"ighis":11251,"ÅĽ":11252,"Ġpel":11253,"usion":11254,"Ġemplo":11255,"miloj":11256,"Ġhur":11257,"rough":11258,"Ġelektitaj":11259,"Ġmalsanoj":11260,"Ġdecidon":11261,"tims":11262,"Ġkorp":11263,"ĠMoore":11264,"ĠKiom":11265,"Ġequally":11266,"Ġmeritas":11267,"With":11268,"oper":11269,"alth":11270,"ĠanÄĿ":11271,"Ġplian":11272,"fejo":11273,"Ġfondinto":11274,"Ġvegeta":11275,"SS":11276,"ĠNigra":11277,"laso":11278,"Ġmalmo":11279,"ett":11280,"Ġrakonti":11281,"Ġindustry":11282,"Ġuniversitatoj":11283,"Ġwalking":11284,"ION":11285,"diono":11286,"lantaro":11287,"ĠCreative":11288,"Ġintertra":11289,"Ġ49":11290,"Ġquiet":11291,"Ġordono":11292,"Ġkoncentri":11293,"kie":11294,"kau":11295,"ĠWW":11296,"ĠĠĠ":11297,"Ġsolen":11298,"Ġcifere":11299,"Ġï»¿":11300,"Ġtired":11301,"Ġmald":11302,"Ġvalora":11303,"ĠaÅŃtomata":11304,"erdo":11305,"Ġsentoj":11306,"kay":11307,"Ġarea":11308,"ĠChap":11309,"Ġdormo":11310,"ĠleviÄĿis":11311,"ĠClaude":11312,"Ġmistake":11313,"ÃŁ":11314,"Ġfum":11315,"tipo":11316,"Ġvun":11317,"ĠSpi":11318,"Ġinformado":11319,"ĠWat":11320,"ĠAnother":11321,"Ġnuda":11322,"Ġdatum":11323,"ĠIzraeli":11324,"lies":11325,"ĠTun":11326,"Ġforigita":11327,"reng":11328,"Ġterap":11329,"Ġexception":11330,"ĠSar":11331,"ĠSure":11332,"Ġmikro":11333,"tually":11334,"Ġsuben":11335,"Ġkriis":11336,"Ġfundam":11337,"kru":11338,"ĠiÄĿos":11339,"ests":11340,"Ġoutstanding":11341,"Ġsocieto":11342,"Ġclean":11343,"Ġprocentoj":11344,"Tiuj":11345,"Ġgraf":11346,"IP":11347,"Pa":11348,"ÄĿus":11349,"ados":11350,"itter":11351,"Ġready":11352,"Ġmalbonaj":11353,"Sc":11354,"teen":11355,"ĠIom":11356,"ardeno":11357,"ĠÂ°":11358,"Ġafri":11359,"Ġproduktis":11360,"Ġmaleb":11361,"Ġ75":11362,"Ġexpectations":11363,"Ġdana":11364,"Ġripar":11365,"Ġekzameno":11366,"Ġkonfer":11367,"Ġkonscio":11368,"Ġappeared":11369,"Ġmagic":11370,"Ġkalendaro":11371,"ĠHungara":11372,"Ġrondo":11373,"yo":11374,"ĠJackson":11375,"Ġreveno":11376,"arojn":11377,"ĠAnkoraÅŃ":11378,"Ġdense":11379,"Ġinclude":11380,"ĠPhil":11381,"watch":11382,"ases":11383,"Ġ1919":11384,"Ġ43":11385,"Ġhorse":11386,"ĠWhere":11387,"Ġkantojn":11388,"Ġbrazila":11389,".),":11390,"ĠGam":11391,"Ġinteresajn":11392,"Ġlaughed":11393,"Ġexcuse":11394,"Ġciviliz":11395,"Ġnecessary":11396,"Ġbong":11397,"Ġmanuskri":11398,"Ġrepla":11399,"etu":11400,"Ġfakuloj":11401,"Ġinfek":11402,"ĠÅŃ":11403,"ĠÄīinaj":11404,"Ġpictures":11405,"ĠAngel":11406,"cture":11407,"Ġbiero":11408,"lanko":11409,"Ġvenu":11410,"ĠÄīarto":11411,"Ġthrow":11412,"Ġmallonge":11413,"Ġdinastio":11414,"Ġribelo":11415,"rison":11416,"Ġ1988":11417,"Ġjusti":11418,"SM":11419,"Ġposteno":11420,"Ġreprezentanto":11421,"ĠretpoÅĿton":11422,"Ġdisappointment":11423,"tit":11424,"Ġmortinta":11425,"ĠBilly":11426,"ĠplaÄīas":11427,"Ġ[âĢ¦]":11428,"Ġdrawn":11429,"bbed":11430,"Kion":11431,"Ġfilming":11432,"ĠmanÄĿis":11433,"icide":11434,"Ġmiskompren":11435,"Ġkutimo":11436,"Ġkongreson":11437,"Ġsmile":11438,"Ġmallumo":11439,"IE":11440,"ĠMoz":11441,"pse":11442,"Ġball":11443,"Ġspecife":11444,"Ġprivate":11445,"Ġdamn":11446,"Ġvortaroj":11447,"regis":11448,"Ġthemes":11449,"Ġmoved":11450,"Ġmanieroj":11451,"piÄīo":11452,"Ġtrankvile":11453,"ĠMic":11454,"Ġortodo":11455,"erna":11456,"Ġpapero":11457,"ĠHenriko":11458,"è¡ĢèĺĩæľĪè¡ĢèĺĩæľĪ":11459,"Ġvak":11460,"Ġonto":11461,"Ġshare":11462,"ĠAnticipo":11463,"Ġpaid":11464,"Ġligiloj":11465,"Ġambas":11466,"Ġdetective":11467,"Ġ****":11468,"emuloj":11469,"ĠRud":11470,"uros":11471,"Ġflicks":11472,"Peter":11473,"Ġrestoracio":11474,"Ġspi":11475,"bona":11476,"Ġlegu":11477,"Ġdorso":11478,"Ġdepende":11479,"Ġabrup":11480,"à¤":11481,"Ġegi":11482,"Ġjusta":11483,"ĠMiss":11484,"display":11485,"Ġinteresas":11486,"Ġwilling":11487,"vantoj":11488,"Ġdeveloped":11489,"lulo":11490,"Ġaspektoj":11491,"Ġperfekte":11492,"Ġallowed":11493,"timo":11494,"003":11495,"Ġhumili":11496,"ĠdanÄĿero":11497,"text":11498,"ĠDem":11499,"Ġsensi":11500,"ĠInstru":11501,"bela":11502,"Ġromia":11503,"Ġprenu":11504,"Ġkosto":11505,"Ġenskrib":11506,"Ġnotic":11507,"Ġkonsum":11508,"Ġadminis":11509,"Ġ46":11510,"Ġpreparis":11511,"Ġpentristo":11512,"fratoj":11513,"ĠBaldaÅŃ":11514,"ray":11515,"ĠSid":11516,"Ġfinding":11517,"Ġdetail":11518,"Ġtenas":11519,"gged":11520,"Ġklientoj":11521,"Tiel":11522,"valoj":11523,"Ġdevi":11524,"Ġhaveno":11525,"foro":11526,"Ġ1948":11527,"ĠPac":11528,"ĠOndo":11529,"Ġtekniko":11530,"omia":11531,"ĠEvent":11532,"ÅĿov":11533,"ĠPubli":11534,"Ġmalo":11535,"Ġfraz":11536,"Ġformojn":11537,"Ġbabila":11538,"Ġadaptation":11539,"rilate":11540,"Ġ>":11541,"Ġallo":11542,"Ġatom":11543,"Ġ1905":11544,"logie":11545,"Ġfoton":11546,"ĠHolmes":11547,"Ġkarakteron":11548,"Ġcelojn":11549,"Du":11550,"Ġthank":11551,"Ġrealo":11552,"vidente":11553,"Ġrob":11554,"ĠfariÄĿos":11555,"Ġvintro":11556,"ĠHoward":11557,"Ġindividuaj":11558,"ĠdediÄīita":11559,"ctions":11560,"ense":11561,"tivajn":11562,"Ġgazetaro":11563,"zita":11564,"Ġfell":11565,"ĠpaÄĿojn":11566,"Ġfrene":11567,"df":11568,"ĠÅĿtono":11569,"tantojn":11570,"Ġkongresanoj":11571,"fur":11572,"aya":11573,"Ġkvardek":11574,"Ġkonservas":11575,"Ġadapti":11576,"Ġtrejnado":11577,"Ġmame":11578,"ĠTwo":11579,"ederacio":11580,"While":11581,"2005":11582,"ĠneÅŃtrala":11583,"ĠaÅŃtomob":11584,"Ġlacks":11585,"asure":11586,"usoj":11587,"ĠLaw":11588,"piÄīoj":11589,"Ġpatrio":11590,"Sim":11591,"Ġpuri":11592,"poten":11593,"ĠWestern":11594,"nudaÄµo":11595,"Ġcontains":11596,"Ġsvisa":11597,"Ġfascinating":11598,"Ġeldonejo":11599,"Ġsevere":11600,"Ġconfused":11601,"Ġkadav":11602,"Ġkapitalo":11603,"Ġevangelio":11604,"Vidu":11605,"Ġvictims":11606,"Ġfolks":11607,"ĠfeliÄīo":11608,"vig":11609,"Ġetik":11610,"telon":11611,"ĠAh":11612,"Ġselek":11613,"videbla":11614,"Ġstuck":11615,"Ġorigino":11616,"late":11617,"Ġperfid":11618,"Ġadds":11619,"ĠAmericans":11620,"ĠQue":11621,"Ġestablish":11622,"Kongreso":11623,"displaystyle":11624,"Ġlikable":11625,"Ġsilento":11626,"Ġmovadoj":11627,"ĠON":11628,"berni":11629,"Ġpozicion":11630,"there":11631,"ĠAnstataÅŃ":11632,"ĠBecause":11633,"Ġoficistoj":11634,"Ġinformation":11635,"ied":11636,"she":11637,"Ġug":11638,"Ġfiguro":11639,"Ġirrita":11640,"Åĳ":11641,"Ġavan":11642,"intojn":11643,"Ġabandon":11644,"ĠGermanujo":11645,"imoj":11646,"ighas":11647,"hoo":11648,"histor":11649,"ÅĦski":11650,"kven":11651,"ĠPic":11652,"Ġsenkul":11653,"ĠLife":11654,"ligon":11655,"Ġdouble":11656,"eldon":11657,"rantoj":11658,"Ġfortojn":11659,"trado":11660,"tedly":11661,"atado":11662,"Ġtrian":11663,"Ġpolitikon":11664,"Ġdeputi":11665,"Ġoficialan":11666,"piris":11667,"ĠÅĿablono":11668,"Ġkomunaj":11669,"Ġturning":11670,"Ġ1986":11671,"ĠØ":11672,"Ġaim":11673,"ĠPL":11674,"Ġsperton":11675,"ĠVlaÄījo":11676,"cos":11677,"ĠJac":11678,"Ġregiona":11679,"ĠBrother":11680,"Ġregulaj":11681,"ami":11682,"ĠApri":11683,"Ġsour":11684,"AK":11685,"Ġligilon":11686,"BO":11687,"lilo":11688,"Ġnaked":11689,"Ġdonaco":11690,"Ġkreskanta":11691,"Yes":11692,"Ġfilmon":11693,"Ġ1932":11694,"Ġstation":11695,"Ġobsc":11696,"Ġdifinas":11697,"Ġopera":11698,"Ġinstitucio":11699,"Ġkl":11700,"Ġcontent":11701,"Ġedge":11702,"Ġstudents":11703,"ĠBrian":11704,"Ġgejun":11705,"Ġlibre":11706,"Ġ1917":11707,"Ġcertas":11708,"Ġsukcesos":11709,"Ġfamilia":11710,"Ġkongresa":11711,"Ġbecoming":11712,"ĠEngland":11713,"ĠAND":11714,"ĠVjetnamio":11715,"falo":11716,"gun":11717,"Ġkno":11718,"Ġlaci":11719,"ĠLyn":11720,"Ġmontro":11721,"Ġlingvan":11722,"Ġaldone":11723,"Ġkapabla":11724,"Ġknabinoj":11725,"Ġhospital":11726,"\"-":11727,"pp":11728,"Ġfle":11729,"ĠBiblioteko":11730,"they":11731,"Ġrando":11732,"Ġjoy":11733,"Ġmodifita":11734,"atra":11735,"Ġ41":11736,"ĠNico":11737,"Ġrespekto":11738,"Ġbrothers":11739,"Ġroll":11740,"Ġtiamaniere":11741,"Ġnajbaraj":11742,"ĠAmazon":11743,"Ġofficer":11744,"ĠAlbert":11745,"Ġcentoj":11746,"Ġlover":11747,"Ġmalfermi":11748,"Ġprud":11749,"cado":11750,"vara":11751,"ĠKle":11752,"Ġprizor":11753,"hej":11754,"forto":11755,"Ġaposto":11756,"Ġconstru":11757,"Ġeverybody":11758,"Komun":11759,"Ġegalas":11760,"Ġrelationships":11761,"Ġ(...)":11762,"Ġmorton":11763,"Ġcerbo":11764,"ĠkaÅŃzoj":11765,"Ġproducer":11766,"sin":11767,"xojn":11768,"ĠHerz":11769,"ĠJosÃ©":11770,"budget":11771,"bulo":11772,"jno":11773,"ÂĶ":11774,"Ġbun":11775,"Ġeat":11776,"raid":11777,"umaj":11778,"ĠJason":11779,"ÅŃropa":11780,"Ġdifference":11781,"Ġworthy":11782,"Ġenergi":11783,"Ġdollar":11784,"Sa":11785,"taÄµon":11786,"kono":11787,"Ġenig":11788,"zerbaj":11789,"ĠerotikaÄµo":11790,"ĠpornaÄµo":11791,"Ġepic":11792,"Ġportre":11793,"ĠBata":11794,"Ä¥an":11795,"fluo":11796,"Ġmalnovan":11797,"Ġimpressed":11798,"kolek":11799,"Ġconfusing":11800,"XXX":11801,"miks":11802,"tiÄĿon":11803,"Ġeka":11804,"Ġanstata":11805,"Ġfunkcioj":11806,"Ġfilozofi":11807,"Ġatakoj":11808,"ĠdanÄĿera":11809,"ĠEstonio":11810,"Ġneighbor":11811,"Alia":11812,"tatoj":11813,"ligante":11814,"ĠPav":11815,"ternacia":11816,"ĠWalter":11817,"ktis":11818,"estron":11819,"Ġstreng":11820,"Ġelektra":11821,"ĠTogo":11822,"Ġbudh":11823,"majn":11824,"radis":11825,"nivelo":11826,"Ġfalling":11827,"Ġagrikulturo":11828,"gre":11829,"emas":11830,"ĠâĢİ":11831,"ĠThough":11832,"Ġdiferenci":11833,"ĠKristnas":11834,"ads":11835,"provi":11836,"Ġfood":11837,"incid":11838,"Ġsezono":11839,"ĠÄĪirkaÅŃ":11840,"Ġkidnap":11841,"Ġpago":11842,"Ġ1918":11843,"Ġintens":11844,"Ġphotograph":11845,"ĠVenezuelo":11846,"fru":11847,"ading":11848,"divid":11849,"Ġgiant":11850,"Ġsukceson":11851,"Ġkontribuoj":11852,"Ġtraktas":11853,"\"?":11854,"aspek":11855,"Ġkonform":11856,"Ġelsendo":11857,"Ġabstra":11858,"Ġkomercaj":11859,"Ġreciproke":11860,"akespe":11861,"American":11862,"del":11863,"ĠTop":11864,"Ġpoez":11865,"ĠEspero":11866,"iously":11867,"Ġpreciz":11868,"Ġedzin":11869,"Ġilust":11870,"Ġkvina":11871,"Ġrevizi":11872,"writer":11873,"nud":11874,"intajn":11875,"Ġges":11876,"ĠFranco":11877,"Ġdemonstra":11878,"depen":11879,"Ġboat":11880,"Ġkristanaj":11881,"ĠDomin":11882,"laci":11883,"ĠIl":11884,"Ġpasas":11885,"Ġprovincoj":11886,"Ġobserv":11887,"Ġgraveco":11888,"Ġlesson":11889,"Ke":11890,"Ġdiam":11891,"Ġaparato":11892,"ĠMarie":11893,"Ġcentral":11894,"nuda":11895,"ij":11896,"iisto":11897,"pendaj":11898,"Ġtan":11899,"Ġkud":11900,"ĠTon":11901,"ĠDark":11902,"ĠNich":11903,"Ġangry":11904,"Ġsonas":11905,"orgeous":11906,"))":11907,"Ġspar":11908,"ĠVesper":11909,"ĠaÅŃstra":11910,"Ġkreinto":11911,"Ġlasas":11912,"Tiam":11913,"Ġagon":11914,"Ġelekt":11915,"Ġrepeated":11916,"Ma":11917,"Î¿":11918,"Ġpes":11919,"ending":11920,"iloso":11921,"ĠLatin":11922,"ĠHindio":11923,"ĠAfganio":11924,"ikio":11925,"necess":11926,"tigado":11927,"Ġpermesi":11928,"Ġdirekte":11929,"ĠBruse":11930,"Kelkaj":11931,"ĠAnne":11932,"ĠÅĿipoj":11933,"Ġmalami":11934,"ĠArthur":11935,"ĠProf":11936,"Ġsupr":11937,"rustra":11938,"Ġatakis":11939,"ply":11940,"fab":11941,"Ġenirejo":11942,"idi":11943,"Ġstari":11944,"Ġcontr":11945,"ilities":11946,"ĠokazaÄµoj":11947,"Ġ1985":11948,"Ġkomputiloj":11949,"Ġmalforta":11950,"Ġpleasant":11951,"html":11952,"Ġdetalojn":11953,"Ġseemingly":11954,"Ġorient":11955,"ktoro":11956,"Ġbase":11957,"good":11958,"Ġ800":11959,"ĠFox":11960,"ĠaÅŃskultis":11961,"Ekzistas":11962,"ĠCro":11963,"mantoj":11964,"alajn":11965,"Ġservojn":11966,"Ġtage":11967,"Ġfavouri":11968,"Ġforgotten":11969,"Ġflughaveno":11970,"oth":11971,"oran":11972,"bris":11973,"Ġ250":11974,"Ġmini":11975,"Ġporti":11976,"Ġboard":11977,"ĠWhite":11978,"Ġmainly":11979,"teble":11980,"Ġoks":11981,"ĠMongo":11982,"Ġforever":11983,"ĠGen":11984,"under":11985,"sions":11986,"Ġpropagando":11987,"Äħ":11988,"Ġmotion":11989,"Ġgajni":11990,"ĠheredaÄµo":11991,"ĠChristopher":11992,"Ġfrap":11993,"ĠLuksem":11994,"Ġinvitis":11995,"Ã¦":11996,"ionoj":11997,"Ġmagni":11998,"Ġpriskribis":11999,"Ġmalaltaj":12000,"Ġmezepoko":12001,"ĠDistri":12002,"ĠmallaÅŃ":12003,"Ġverkas":12004,"Ġkorto":12005,"Ġkonstati":12006,"liÄĿas":12007,"reson":12008,"Ġmember":12009,"ganoj":12010,"Ġaddition":12011,"Ġdelivers":12012,"aria":12013,"ĠTr":12014,"Ġkomisi":12015,"Ġtertre":12016,"Ġagent":12017,"jev":12018,"ĠPrinco":12019,"Ġfok":12020,"Ġexplor":12021,"ĠAngla":12022,"Ġoffers":12023,"ubo":12024,"ĠOverall":12025,"facon":12026,"udo":12027,"Ġthousand":12028,"amori":12029,"appy":12030,"ĠBea":12031,"Ġretum":12032,"belulino":12033,"ĠTraktato":12034,"ĠBav":12035,"Ġmencii":12036,"Ġdonacoj":12037,"Ġkursojn":12038,"HS":12039,"Ġoh":12040,"Ġvapor":12041,"Ġmalpe":12042,"ĠGirl":12043,"Ġexplan":12044,"pugo":12045,"Ġfemin":12046,"tick":12047,"Ġchase":12048,"Ġsincer":12049,"ĠRajtoj":12050,"Jo":12051,"Ġarts":12052,"ronon":12053,"Ġpropr":12054,"Ġpublikigas":12055,"Ġlatter":12056,"ĠNepalo":12057,"Ġkant":12058,"ĠPA":12059,"iman":12060,"Ġ1933":12061,"ĠdaÅŃro":12062,"ditaj":12063,"fona":12064,"lasta":12065,"Ġcontra":12066,"ĠYet":12067,"Ġefikon":12068,"ĠriÄīaj":12069,"Ġfervojo":12070,"EI":12071,"ĠvoÄīon":12072,"Ġahead":12073,"isman":12074,"Ġdelegi":12075,"Ġaside":12076,"Ġaspektis":12077,"Ġrigardu":12078,"Ġvenontaj":12079,"Ġskato":12080,"cico":12081,"ĠTrin":12082,"mala":12083,"kursoj":12084,"talino":12085,"Ġformor":12086,"ĠJeff":12087,"ĠVirgulino":12088,"mamo":12089,"wil":12090,"ĠToo":12091,"emor":12092,"Ġkorid":12093,"Ġjunularo":12094,"047":12095,"Ġkanti":12096,"ĠJuan":12097,"ĠBroad":12098,"Ġofertas":12099,"Ze":12100,"ĠKur":12101,"ups":12102,"Ġhidro":12103,"Ã£o":12104,"edz":12105,"ovÃ¡":12106,"ĠFut":12107,"ords":12108,"Ġkuk":12109,"Ġkapabloj":12110,"Ġ1979":12111,"ĠNothing":12112,"Ġmalsama":12113,"piraj":12114,"cles":12115,"filo":12116,"ĠWas":12117,"Ġhomam":12118,"Ġmateno":12119,"ĠÄľene":12120,"atory":12121,"Ġdiferencoj":12122,"Ġareon":12123,"Ġplejmulto":12124,"Ġhasn":12125,"ĠNovjorko":12126,"Overall":12127,"ĠTam":12128,"Ġperdo":12129,"tinoj":12130,"Ġnajbara":12131,"Ġleteroj":12132,"ĠPhilip":12133,"ĠMak":12134,"ĠRio":12135,"aylor":12136,"ĠnovaÄµo":12137,"Ġanymore":12138,"indajn":12139,"Ġdekstre":12140,"Ġrevuon":12141,"ĠScienca":12142,"donezio":12143,"Ã´":12144,"ĠDennis":12145,"Ġactions":12146,"ĠVery":12147,"jaran":12148,"mur":12149,"uc":12150,"Ġfinon":12151,"mary":12152,"ĠreÄĿino":12153,"Ġkomponisto":12154,"Ġkatedralo":12155,"ĠDor":12156,"Ġpluvo":12157,"Ġinfluis":12158,"ĠSingap":12159,"mamoj":12160,"Ġligilo":12161,"ĠKart":12162,"ĠfetiÄīismo":12163,"titute":12164,"Ġprovide":12165,"Ñĩ":12166,"ĠaÄĿa":12167,"itata":12168,"They":12169,"Ġweap":12170,"ĠÅľia":12171,"Ġwondering":12172,"........":12173,"Ġwarm":12174,"zerbajÄĿ":12175,"Ġboss":12176,"Ġego":12177,"Ġflaws":12178,"Ġsciencoj":12179,"Ġparolata":12180,"Ġholes":12181,"kaco":12182,"Ġforpe":12183,"ĠÅĿov":12184,"klaku":12185,"Ġmalfrua":12186,"sessed":12187,"Äīies":12188,"cicoj":12189,"ÅĿte":12190,"aver":12191,"Ġlocation":12192,"komer":12193,"ĠBoth":12194,"Ġmillion":12195,"ĠTokio":12196,"])":12197,"pie":12198,"Ġmastro":12199,"Ġfrustra":12200,"ĠCat":12201,"Ġkoloni":12202,"Ġdensa":12203,"Ġslovak":12204,"ĠMol":12205,"Ġjara":12206,"Ġafraid":12207,"Ġdefinitive":12208,"gluteoj":12209,"eblas":12210,"fred":12211,"hen":12212,"Ġatent":12213,"ekshibicio":12214,"conds":12215,"pugoj":12216,"Ġtwenty":12217,"gluteo":12218,"mamego":12219,"mamegoj":12220,"bat":12221,"koti":12222,"jeviÄī":12223,"Ġinternaciajn":12224,"ĠChinese":12225,"ptoj":12226,"Ġå":12227,"Ġfek":12228,"Ġgorgeous":12229,"Ġrip":12230,"haus":12231,"eran":12232,"Ġexten":12233,"Ġexperim":12234,"Ġkomune":12235,"ĠVincent":12236,"ĠÄµurnalo":12237,"father":12238,"Ġtav":12239,"itado":12240,"erotismo":12241,"Ġcritic":12242,"Ġcritics":12243,"Ġreciproka":12244,"ĠWind":12245,"sense":12246,"Ġthor":12247,"Ġekrano":12248,"Ġmurdis":12249,"ĠRevolucio":12250,"milo":12251,"Ġcow":12252,"tantajn":12253,"hop":12254,"Ġjunulino":12255,"ĠvojaÄĿis":12256,"Ġtradukisto":12257,"Ġputting":12258,"Ġcompelling":12259,"ĠBjalistoko":12260,"any":12261,"ĠBour":12262,"Ġcorrect":12263,"Ġhonestly":12264,"Ġwind":12265,"ids":12266,"Ġfunkcion":12267,"Ġcontinue":12268,"bile":12269,"pano":12270,"Ġfat":12271,"Ġinspired":12272,"Ġshouldn":12273,"Ġgvidas":12274,"Ġnacian":12275,"inia":12276,"kokri":12277,"ĠGeo":12278,"fetiÄīismo":12279,"Ġsamajn":12280,"Ġhelps":12281,"ĠpasaÄĿ":12282,"Ġpopularaj":12283,"Ġproceso":12284,"ĠPekino":12285,"Ġese":12286,"adre":12287,"ĠPlu":12288,"Ġkreo":12289,"Ġprezent":12290,"Ġpeko":12291,"celist":12292,"midzi":12293,"ĠInfanoj":12294,"Ġsubjekto":12295,"Any":12296,"Ġsenton":12297,"untain":12298,"pot":12299,"Ġinternaj":12300,"Ġesprimoj":12301,"ĠIzraelidoj":12302,"Ġep":12303,"ĠSpan":12304,"thony":12305,"Ġdisaster":12306,"âĢĻ,":12307,"Ġactresses":12308,"orio":12309,"Ġbright":12310,"tabuo":12311,"Äīiesulino":12312,"Ġesting":12313,"Ġuncon":12314,"rug":12315,"045":12316,"Ġeblaj":12317,"urity":12318,"sesdeknaÅŃi":12319,"midzo":12320,"midzumo":12321,"seksumi":12322,"Ġprovides":12323,"Ġreminded":12324,"Ġlighting":12325,"langumi":12326,"Ste":12327,"teraj":12328,"Ġlernu":12329,"ĠMont":12330,"Ġbataloj":12331,"Ġ1977":12332,"Ġdentoj":12333,"Ġpersonality":12334,"Ġneevi":12335,"Pol":12336,"nal":12337,"romp":12338,"Ġtemojn":12339,"Ġnobody":12340,"Ġuzadon":12341,"dekso":12342,"Ġtradicie":12343,"Ġdifini":12344,"Ġpropagand":12345,"tiu":12346,"raÅŃ":12347,"Ġoftaj":12348,"ĠEvange":12349,"Ġonline":12350,"Ġokulo":12351,"iksoj":12352,"Ġkristanismo":12353,"akespeare":12354,"Ġincid":12355,"ĠSir":12356,"tha":12357,"Ġunknown":12358,"Ġimpon":12359,"acked":12360,"Ġanalo":12361,"ĠNAS":12362,"ĠGene":12363,"ĠEdward":12364,"Ġguns":12365,"Sta":12366,"ĠESP":12367,"ĠNam":12368,"Ġshi":12369,"logian":12370,"Ġstrukturoj":12371,"mad":12372,"Ġtrun":12373,"ĠÄīem":12374,"pert":12375,"Ġork":12376,"EG":12377,"fio":12378,"gli":12379,"Äīojn":12380,"ĠInd":12381,"Ġ54":12382,"turon":12383,"ĠRock":12384,"ĠJohann":12385,"Ġrezulton":12386,"ĠbranÄīoj":12387,"Ġkatastrofo":12388,"Vikip":12389,"maÅĿ":12390,"Ġkontrau":12391,"tinta":12392,"Ġkongresejo":12393,"ĠaÅŃtorraj":12394,"Ġkonsistis":12395,"Ġsinon":12396,"Ġadults":12397,"Ġwearing":12398,"Ġmedik":12399,"Ġteacher":12400,"ii":12401,"Ġthus":12402,"aving":12403,"deble":12404,"Ġpod":12405,"ĠIlia":12406,"Ġkolektis":12407,"Ġtatuajes":12408,"ening":12409,"Ġ1944":12410,"ĠTheir":12411,"ĠlanÄīis":12412,"Ġskalo":12413,"atasha":12414,"abeth":12415,"DR":12416,"une":12417,"terio":12418,"Ġmaluti":12419,"Ġresan":12420,"Ġstaton":12421,"Ġsolvon":12422,"ATO":12423,"Ġimagination":12424,"!),":12425,"hing":12426,"uÅĿ":12427,"Ġzo":12428,"asing":12429,"rel":12430,"Ġribel":12431,"Ġaliron":12432,"Ġaldono":12433,"Ġeblo":12434,"Ġenhavis":12435,"Ġrigardante":12436,"retario":12437,"Ġsacerdo":12438,"Ġattractive":12439,"EP":12440,"Ġunuso":12441,"mane":12442,"Ġartisto":12443,"Ġspeaking":12444,"ĠindiÄĿ":12445,"stream":12446,"Ġterminojn":12447,"Ġnivelon":12448,"Nur":12449,"igataj":12450,"ĠAnn":12451,"Estis":12452,"Ġreflek":12453,"Ġstrategi":12454,"Ġerarojn":12455,"ĠTokipon":12456,"''":12457,"Ġteori":12458,"ejojn":12459,"Ġrenvers":12460,"Ġ1984":12461,"Ġbroad":12462,"Ġapartment":12463,"view":12464,"ĠCons":12465,"Ġ1967":12466,"entejo":12467,"aha":12468,"Ġmonumento":12469,"ĠCGI":12470,"Ġfakton":12471,"ĠmanÄĿaÄµo":12472,"Ġamikeco":12473,"lict":12474,"rov":12475,"ĠTute":12476,"Ġelektoj":12477,"Ġmagne":12478,"ĠKevin":12479,"ĠEuropean":12480,"ĠBarcel":12481,"Ġbelong":12482,"ĠStreet":12483,"fto":12484,"lokoj":12485,"Ġport":12486,"arolo":12487,"ĠfondiÄĿis":12488,"erika":12489,"Ġrented":12490,"Ġindiko":12491,"ativo":12492,"Ġpremion":12493,"teme":12494,"Ġgl":12495,"Ġpricelist":12496,"ĠIndonezio":12497,"Ġinstancoj":12498,"Ġzombies":12499,"ĠpaÄĿaro":12500,"Ġsuperior":12501,"Ġklarigo":12502,"ĠÄĿuas":12503,"Ġvivantaj":12504,"Ġplenkreskuloj":12505,"have":12506,"Ġhin":12507,"Ġesperanton":12508,"Ġtears":12509,"Ġfame":12510,"Ġenergion":12511,"ĠpseÅŃ":12512,"Bri":12513,"IF":12514,"Ġ00":12515,"Ġdras":12516,"ĠÄĿust":12517,"Ġunueco":12518,"Ġ52":12519,"ĠRez":12520,"Ġmilitis":12521,"Ġga":12522,"irty":12523,"Ġpasint":12524,"Ġkrimo":12525,"Ġokcidentaj":12526,"ĠGeor":12527,"Afriko":12528,"Ġsving":12529,"Ġec":12530,"ements":12531,"vilo":12532,"Ġscrip":12533,"Ġhook":12534,"Ġaffec":12535,"xico":12536,"bero":12537,"ender":12538,"Ġmodifi":12539,"Ġekzemplon":12540,"ĠNek":12541,"Ġkaptitaj":12542,"Ġliberan":12543,"Ġpreciza":12544,"Reg":12545,"arily":12546,"ĠÄīirkaÅŃaÄµo":12547,"Ġfruktoj":12548,"Ġlernolibro":12549,"ĠStephen":12550,"ĠFR":12551,"Ġsendita":12552,"laboro":12553,"Ġstrat":12554,"ĠSerbio":12555,"TML":12556,"liaj":12557,"omente":12558,"Ġtrez":12559,"ĠfaÅĿ":12560,"Ġ1978":12561,"funny":12562,"Ġenkondukis":12563,"Ġtragic":12564,"Ġjustice":12565,"zil":12566,"Ġpsi":12567,"Ġformi":12568,"premi":12569,"Ġveh":12570,"Ġripoz":12571,"nic":12572,"sol":12573,"inc":12574,"Ġbrus":12575,"ĠMs":12576,"ĠCors":12577,"ĠWiki":12578,"ĠLittle":12579,"mited":12580,"kovo":12581,"Ġtaksas":12582,"ciklopedio":12583,"Ġfunniest":12584,"Nor":12585,"Ġafrik":12586,"027":12587,"rist":12588,"rity":12589,"ĠenloÄĿ":12590,"Ġperdi":12591,"Ġmalsim":12592,"istado":12593,"ĠPlus":12594,"ĠNav":12595,"ĠRek":12596,"paper":12597,"parol":12598,"Ġprezoj":12599,"Ġrilataj":12600,"ĠRoterdamo":12601,"Ġferv":12602,"Ġdialogo":12603,"Ġmarket":12604,"UM":12605,"Ġelti":12606,"ĠJr":12607,"Ġligoj":12608,"ĠaranÄĿis":12609,"ciajn":12610,"Ġseek":12611,"Ġvidinda":12612,"skult":12613,"Ġtwice":12614,"Ġcollection":12615,"ĠVatik":12616,"vement":12617,"Ġmalagra":12618,"Ġkvaza":12619,"Ġrevuoj":12620,"Ġfajr":12621,"Ġtransformi":12622,"Ġfrighten":12623,"!...":12624,"Ġavo":12625,"ĠTen":12626,"utes":12627,"oling":12628,"ĠaÅŃg":12629,"Ġnove":12630,"Ġserial":12631,"kiuj":12632,"ĠmarÅĿ":12633,"vinco":12634,"Ġaltnive":12635,"year":12636,"Ġdreams":12637,"cajn":12638,"Ġps":12639,"Ġsala":12640,"ĠEsperantan":12641,"Ġ:-)":12642,"zeco":12643,"Ġplua":12644,"Ġintroduced":12645,"Ġkali":12646,"Ġankorau":12647,"Ġkapablis":12648,"igitajn":12649,"2014":12650,"ashington":12651,"Ġsocialisma":12652,"Muz":12653,"ĠAR":12654,"ember":12655,"âĢ¢":12656,"Ġaliloke":12657,"tigojn":12658,"Ġ51":12659,"Ġvastan":12660,"programo":12661,"dejoj":12662,"Ġakcept":12663,"ĠGrant":12664,"Ġbabile":12665,"ĠHerzberg":12666,"Ġthorough":12667,"Ġtam":12668,"anca":12669,"ustra":12670,"Ġregi":12671,"ĠCX":12672,"ĠRap":12673,"Ġplane":12674,"Ġgames":12675,"bloj":12676,"Ġtoward":12677,"Ġhelped":12678,"ĠÅĿtataj":12679,"Ġblame":12680,"Ġmatematiko":12681,"istis":12682,"oven":12683,"ĠBach":12684,"ĠDomo":12685,"Ġunf":12686,"ĠFlu":12687,"Ġdilig":12688,"Ġmalkovri":12689,"ĠKelly":12690,"Ġadministrado":12691,"Ġmalproksima":12692,"Ġtransdonis":12693,"ĠmonaÄ¥ejo":12694,"aly":12695,"Ġvesto":12696,"cezo":12697,"adow":12698,"Ġalire":12699,"centra":12700,"Ġ1976":12701,"Ġmediocre":12702,"ĠJerusalem":12703,"ĠneÄĿ":12704,"ĠBond":12705,"Ġinteresan":12706,"Ġ1982":12707,"Ġtendaro":12708,"Ġkliento":12709,"Ġextreme":12710,"Unue":12711,"Ġalto":12712,"dilo":12713,"peco":12714,"ording":12715,"ians":12716,"Ġhipote":12717,"Ġpano":12718,"Ġpian":12719,"Ġfest":12720,"rific":12721,"loyd":12722,"rantaj":12723,"ĠNever":12724,"Ġpartoprenos":12725,"Cer":12726,"ĠSanta":12727,"Ġlose":12728,"gataj":12729,"Ġstudento":12730,"brea":12731,"acoj":12732,"priate":12733,"ĠHistorio":12734,"Ġmallongaj":12735,"Ġkolonioj":12736,"Ġblue":12737,"ĠRigardu":12738,"flor":12739,"ĠÄĿeneralan":12740,"ĠBoli":12741,"Ġekzisti":12742,"Ġclothes":12743,"Ġgravecon":12744,"Ġunexpected":12745,"Ġnasty":12746,"tivas":12747,"ĠIslando":12748,"Ġklarigojn":12749,"Ġnervo":12750,"teran":12751,"ĠRub":12752,"Ġplie":12753,"gale":12754,"Ġcreative":12755,"ĠFrancisco":12756,"IK":12757,"Ġnos":12758,"ĠDick":12759,"Ġverdaj":12760,"Ġmiliardoj":12761,"Ġmotiv":12762,"Ġkaraj":12763,"Ġmemory":12764,"Ġpagas":12765,"Ġindustria":12766,"Ġstandards":12767,"AE":12768,"ĠMunk":12769,"ĠHell":12770,"mare":12771,"Ġaron":12772,"Ġcircum":12773,"Ġterminoj":12774,"mio":12775,"Ġdying":12776,"Ġnic":12777,"Ġnecesaj":12778,"ĠlarÄĿ":12779,"Ġcelebra":12780,"Ġaccident":12781,"lacio":12782,"tito":12783,"ĠEtio":12784,"Ġ1983":12785,"Ġpruvi":12786,"Ġkapitalis":12787,"ĠBes":12788,"neÅŃ":12789,"Ġnormo":12790,"alism":12791,"Ġpentris":12792,"Ġstarig":12793,"Ġdescribe":12794,"hl":12795,"ilvan":12796,"Ġmurders":12797,"Ġgepatra":12798,"Ġtrailer":12799,"Ġtrovita":12800,"ĠGram":12801,"Ġklopodoj":12802,"Ġpicked":12803,"ĠNikolao":12804,"CO":12805,"ste":12806,"Ġpark":12807,"ĠokazaÄµo":12808,"Ġsku":12809,"Ġindifer":12810,"Ġhungaroj":12811,"Ð¾Ð²":12812,"Plej":12813,"tte":12814,"Î¹":12815,"Ġhat":12816,"ĠCle":12817,"ĠGr":12818,"ikojn":12819,"ĠnomiÄĿis":12820,"Ġelstaraj":12821,"Ġkomplika":12822,"Com":12823,"ulaj":12824,"Ġly":12825,"Ġdron":12826,"Ġkonsento":12827,"ĠIsla":12828,"ĠTraduk":12829,"pova":12830,"Ġtrankvila":12831,"Ġformato":12832,"was":12833,"Ġorto":12834,"Ġfish":12835,"leep":12836,"Ġalvet":12837,"ĠCH":12838,"Ġdika":12839,"Ġresults":12840,"ĠfiniÄĿas":12841,"Ġrok":12842,"ticle":12843,"tivity":12844,"Ġrenkontas":12845,"Ġkanalo":12846,"Ġdirite":12847,"ĠPrezid":12848,"Ġfizika":12849,"BS":12850,"ĠSaks":12851,"Ġprove":12852,"Ġunnecess":12853,"Ġinterkompren":12854,"Ġabomen":12855,"Ġliterojn":12856,"Ġestraranoj":12857,"Ġgejunuloj":12858,"sp":12859,"angh":12860,"Ġprot":12861,"ĠHall":12862,"Ġdubas":12863,"ilioj":12864,"Ġvizitas":12865,"Ġregistaron":12866,"ĠRomia":12867,"Ġvigla":12868,"Ġduobla":12869,"riÄī":12870,"char":12871,"Ġseconds":12872,"Ġshall":12873,"ĠKomunumo":12874,"ĠPop":12875,"Ġincom":12876,"stren":12877,"Ġevidenta":12878,"tter":12879,"aba":12880,"Ġtaksi":12881,"Ġkapablon":12882,"periodo":12883,"Ġtechni":12884,"Ġprezentado":12885,"materi":12886,"Ġmelodrama":12887,"Ġamis":12888,"Ġpensojn":12889,"Ġcivil":12890,"puÅĿ":12891,"Ġheads":12892,"Ġfloor":12893,"ardon":12894,"Ġfrazon":12895,"Ġoriginale":12896,"konsci":12897,"Ġkompletigi":12898,"Ġdrugs":12899,"nome":12900,"Ġsoj":12901,"anan":12902,"soever":12903,"Ġgrafo":12904,"Ġstom":12905,"Ġkomunismo":12906,"ĠvojaÄĿi":12907,"Ġdrink":12908,"bed":12909,"Ġnas":12910,"Ġyouth":12911,"Ġcommentary":12912,"Ġsocian":12913,"Ġmodel":12914,"Ġturistoj":12915,"Ġinfluas":12916,"Ġsurprising":12917,"Ġissue":12918,"Ġgrandparte":12919,"---":12920,"Ġsendepend":12921,"Ġphone":12922,"Ġkonscias":12923,"picxo":12924,"Ġabsurd":12925,"Ġfortun":12926,"Ġkomento":12927,"aga":12928,"hot":12929,"Ġrealized":12930,"Ġcreature":12931,"Ġentomb":12932,"Ġtreege":12933,"anao":12934,"Ġfrequ":12935,"Ġdistriktoj":12936,"Ġsankt":12937,"edom":12938,"Ġgust":12939,"igojn":12940,"ĠÅĿo":12941,"Ġshor":12942,"partoj":12943,"Ġparolo":12944,"Ġurbestro":12945,"ĠLingva":12946,"ĠTesta":12947,"ĠClo":12948,"Ġlandojn":12949,"Ġthanks":12950,"Ã©e":12951,"AND":12952,"Ġegaleco":12953,"Ġmaldekstre":12954,"picxoj":12955,"Ġestrarano":12956,"Ġdungi":12957,"nudajxo":12958,"athetic":12959,"uzz":12960,"Ġhoman":12961,"Ġ1974":12962,"ĠGrupo":12963,"Ġvane":12964,"ĠLast":12965,"ĠAten":12966,"Ġtuto":12967,"ĠbuÄĿ":12968,"Why":12969,"Ġmalbono":12970,"Ġsimboloj":12971,"Cetere":12972,"ĠnovaÄµ":12973,"Ġborn":12974,"ĠAfrika":12975,"Ġfenestroj":12976,"Ġekzamenon":12977,"Ġfirmaoj":12978,"komunumo":12979,"Ġmorning":12980,"Ġaktivaj":12981,"preno":12982,"enerale":12983,"Ġkontaktoj":12984,"Ġdangerous":12985,"Ġsight":12986,"Ġzorge":12987,"ujoj":12988,"Ġprimi":12989,"ĠGon":12990,"ĠÄĪilio":12991,"Ġtrankvil":12992,"Ġgvido":12993,"Ġgasti":12994,"Ġalin":12995,"ĠÅĿto":12996,"ended":12997,"Ġrestado":12998,"Ġpleasure":12999,"Ġfloro":13000,"Ġgusto":13001,"ĠMalaj":13002,"utin":13003,"Ġaliro":13004,"ĠlaÅŃte":13005,"Ġpress":13006,"Ġdraw":13007,"Ġdisponas":13008,"ĠestaÄµo":13009,"ĠLord":13010,"Ġpath":13011,"Ġpiano":13012,"ĠmesaÄĿojn":13013,"Ġfavourite":13014,"Ġmonths":13015,"048":13016,"ĠokupiÄĿis":13017,"ĠMany":13018,"Ġchildhood":13019,"Ġsupposedly":13020,"Ġwooden":13021,"Ġmontrata":13022,"Ġfakoj":13023,"EAL":13024,"Ġligilojn":13025,"Ġmemorigas":13026,"Ġpublikigo":13027,"Radio":13028,"Ġdemis":13029,"Ġproves":13030,"Ġlasu":13031,"Ġimpact":13032,"alisma":13033,"Ġteknika":13034,"Ser":13035,"Ġharoj":13036,"iteco":13037,"Ġscientist":13038,"ERANTO":13039,"Ġconfron":13040,"lege":13041,"cir":13042,"ĠPom":13043,"count":13044,"Ġokazigis":13045,"Ġlastajn":13046,"cover":13047,"Ġbron":13048,"Ġtipa":13049,"igiloj":13050,"agon":13051,"gaze":13052,"Ġekspor":13053,"indust":13054,"Ġwhatsoever":13055,"Ġinteg":13056,"Ġmalsanule":13057,"ĠAntar":13058,"ĠRoger":13059,"Ġmajstro":13060,"Ġdifinitaj":13061,"ĠSlovenio":13062,"kward":13063,"ĠStalino":13064,"forts":13065,"Ġpassed":13066,"ejmo":13067,"Ġsendependeco":13068,"Ġunderstanding":13069,"Ven":13070,"Ġstro":13071,"ĠChuck":13072,"kvar":13073,"pson":13074,"Ġfero":13075,"Ġfant":13076,"emajn":13077,"Ġmanieron":13078,"Ġmej":13079,"Ġdeziron":13080,"Ġtragedy":13081,"Ġalkoho":13082,"Ġefektiva":13083,"Ġunusual":13084,"ĠDouglas":13085,"ĠCy":13086,"Ġorganoj":13087,"athan":13088,"Ġbatalis":13089,"Ġstruggle":13090,"ĠCorsetti":13091,"ĠBBC":13092,"lands":13093,"Ġ1969":13094,"Ġplanoj":13095,"Ġnekrede":13096,"ĠShakespeare":13097,"ĠPeruo":13098,"ENT":13099,"Ġdonacis":13100,"Ġphysical":13101,"edding":13102,"Ġastero":13103,"mented":13104,"Ġeroj":13105,"Ġfermita":13106,"Ġesploris":13107,"Ġshocking":13108,"Ġkruc":13109,"ampion":13110,"Ġreviv":13111,"Prin":13112,"RAT":13113,"ĠAzerbajÄĿ":13114,"ĠHun":13115,"ĠFried":13116,"ĠWalk":13117,"tiveco":13118,"Ġstim":13119,"ĠWilson":13120,"lernis":13121,"Ġcomedic":13122,"--------":13123,"Ġsamideanoj":13124,"Ġigi":13125,"bour":13126,"Ġbonkor":13127,"Ġsekcioj":13128,"ĠDemokratia":13129,"Ġlands":13130,"Ġpostuloj":13131,"Ġrusaj":13132,"ĠKonstitucio":13133,"Rim":13134,"bia":13135,"omy":13136,"ĠAz":13137,"ĠDep":13138,"Ġkomenca":13139,"ĠWars":13140,"Ġedzinon":13141,"omojn":13142,"Ġino":13143,"Ġknowledge":13144,"ĠLegi":13145,"Ġscenejo":13146,"Ġretad":13147,"ajko":13148,"ĠClar":13149,"Ġaccept":13150,"Ġbottom":13151,"Ġ1981":13152,"Ġutiligi":13153,"esis":13154,"edion":13155,"Ġ57":13156,"Ġkato":13157,"ĠVizi":13158,"Ġtendenco":13159,"ĠErn":13160,"Ġtatuaje":13161,"Ġintriguing":13162,"rical":13163,"Ġkuris":13164,"iv":13165,"Ġwal":13166,"Ġlies":13167,"Ġlege":13168,"Ġpair":13169,"Ġ56":13170,"Ġ65":13171,"Ġwanting":13172,"Ġvortaron":13173,"ĠhaÅŃto":13174,"Ġindependent":13175,"Ġfalo":13176,"ĠHaw":13177,"Ġligas":13178,"Ġrevenas":13179,"Ġ1975":13180,"ĠÄīambroj":13181,"Ġekzistantaj":13182,"ĠDonald":13183,"Ġprivataj":13184,"bbing":13185,"hes":13186,"tier":13187,"Ġejoj":13188,"Ġvast":13189,"straj":13190,"Ġesprimon":13191,"Ġrevenos":13192,"Ġbird":13193,"corde":13194,"Ġmortintoj":13195,"speci":13196,"Ġondoj":13197,"ĠelÄīer":13198,"Ġpostenon":13199,"Ġsignific":13200,"earch":13201,"ĠParo":13202,"Ġskribu":13203,"ĠAldone":13204,"mission":13205,"ĠStalin":13206,"ĠHenri":13207,"Ġforeign":13208,"ĠHong":13209,"Ġ1914":13210,"Ġmission":13211,"ĠrenkontiÄĿis":13212,"Ġrimarkas":13213,"ĠlingvaÄµo":13214,"Ġremain":13215,"Ġkomitatanoj":13216,"beloj":13217,"nen":13218,"Ġmel":13219,"Ġreceived":13220,"ĠDO":13221,"ĠÅĿaf":13222,"Ġflava":13223,"Ġcommunic":13224,"Ġvampire":13225,"Ġdeleg":13226,"Ġfondo":13227,"zation":13228,"Ġvaloras":13229,"Ġekscii":13230,"Ġgeografia":13231,"Sci":13232,"krom":13233,"Ġsie":13234,"Ġbib":13235,"toron":13236,"Ġloose":13237,"Ġloss":13238,"ĠInform":13239,"Ġsklav":13240,"ĠReÄĿo":13241,"Ġorienti":13242,"Ġleader":13243,"ĠFinfine":13244,"Ġnoticed":13245,"ĠWashington":13246,"ĠOld":13247,"ierojn":13248,"ĠbroÅĿ":13249,"Ġbanko":13250,"Ġmalhelpas":13251,"Ġekvival":13252,"ĠSpace":13253,"nav":13254,"Ġrecep":13255,"Ġlumon":13256,"ĠGas":13257,"Ġdiser":13258,"Ġcontri":13259,"ĠUnion":13260,"Ġkandidato":13261,"alismo":13262,"itatoj":13263,"imon":13264,"Ġalianc":13265,"odor":13266,"ĠHavano":13267,"ĠclichÃ©s":13268,"Ġdialektoj":13269,"Her":13270,"Î½":13271,"ril":13272,"Ġgloro":13273,"uson":13274,"ultato":13275,"ader":13276,"ĠGh":13277,"Ġpovon":13278,"Ġrenkont":13279,"Ġdimens":13280,"Ġteenage":13281,"tiro":13282,"ĠTurn":13283,"ĠMate":13284,"Ġforgi":13285,"Ġsekvanta":13286,"pied":13287,"Ġpartoprenon":13288,"Ġkutimaj":13289,"ĠEblas":13290,"Ġanywhere":13291,"Ġfazo":13292,"ico":13293,"ĠÏ":13294,"iner":13295,"istan":13296,"Ġchannel":13297,"Ġkort":13298,"Ġklaku":13299,"Ġplanto":13300,"ĠArmenio":13301,"Ġnumeron":13302,"logioj":13303,"Krome":13304,"Ġfros":13305,"Ġalmen":13306,"Ġskand":13307,"Ġuniverso":13308,"Ġfluas":13309,"Ġdatumojn":13310,"Ġinvestiga":13311,"mara":13312,"timis":13313,"ĠPed":13314,"Ġakce":13315,"Ġaktoro":13316,"amenta":13317,"intus":13318,"played":13319,"amenhof":13320,"ĠJerusalemo":13321,"Ø§Ù":13322,"Centro":13323,"ĠAlan":13324,"Ġresem":13325,"Ġkonfid":13326,"Ġkonserva":13327,"Ġkandidati":13328,"Ġstrategio":13329,"Ġtravivis":13330,"gener":13331,"Ġlakto":13332,"ĠSel":13333,"ĠTiaj":13334,"Ġsuicide":13335,"lua":13336,"ends":13337,"arkio":13338,"Ġbirth":13339,"Ġekzistanta":13340,"alifornia":13341,"Ġstrength":13342,"LS":13343,"ĠHim":13344,"istinoj":13345,"Ġjeto":13346,"Ġ53":13347,"Ġbits":13348,"ĠServo":13349,"Ġpruvas":13350,"Ġwindow":13351,"Ġduling":13352,"Ġbulg":13353,"diro":13354,"Ġkomunum":13355,"ĠkondiÄīojn":13356,"ĠArn":13357,"ĠEddie":13358,"ĠFreder":13359,"ĠVictor":13360,"ĠAnder":13361,"ĠAlberto":13362,"Ġbonege":13363,"Ġleterojn":13364,"Usono":13365,"bras":13366,"Ġshop":13367,"Ġebligi":13368,"Ġ1973":13369,"Ġrideto":13370,"Ġtelefonvo":13371,"Ġrarely":13372,"Ġtaskojn":13373,"Ġugly":13374,"Ġjc":13375,"Ġlup":13376,"ĠFort":13377,"ĠAlÄĿ":13378,"uous":13379,"Ġpublikigi":13380,"Ġawkward":13381,"ĠHelen":13382,"Ġpreterpas":13383,"oldo":13384,"Ġafab":13385,"Ġindik":13386,"Ġtradukas":13387,"ĠXian":13388,"Ġindividuo":13389,"Lu":13390,"Mich":13391,"koloj":13392,"recon":13393,"Ġgon":13394,"Ġforces":13395,"Ġekiris":13396,"Ġfini":13397,"Ġakcepto":13398,"Ġkonstatas":13399,"elek":13400,"Ġmultfoje":13401,"Ġsuspect":13402,"ĠJerry":13403,"Ġpordego":13404,"teron":13405,"ĠKr":13406,"ĠNO":13407,"Ġspir":13408,"ibio":13409,"Ġfundamento":13410,"jects":13411,"Ġsoldier":13412,"Ġtreatment":13413,"ĠLibano":13414,"uston":13415,"Ġakor":13416,"Ġ99":13417,"pozicioj":13418,"ĠBerlin":13419,"Ġenergy":13420,"Ġgrandegan":13421,"Ġnumbers":13422,"backs":13423,"nur":13424,"ĠkondiÄīo":13425,"ĠÄľenerale":13426,"deno":13427,"Ġoft":13428,"ĠpreÄĿo":13429,"mao":13430,"017":13431,"Ġpezo":13432,"Ġdeeply":13433,"Ġlimited":13434,"Ġasks":13435,"Ġ1936":13436,"Ġexisten":13437,"Ġcops":13438,"ĠindiÄĿen":13439,"Ġkolero":13440,"Ġintelligence":13441,"cue":13442,"jum":13443,"Ġtavo":13444,"isa":13445,"Ġenigi":13446,"Äīen":13447,"ciono":13448,"ching":13449,"Ġprotekto":13450,"ĠreÄĿlando":13451,"ĠSomalio":13452,"taron":13453,"osen":13454,"rana":13455,"ĠlaÅŃeble":13456,"Ġfacil":13457,"Ġokcident":13458,"Ġsimilajn":13459,"Ġrefle":13460,"Ġcigare":13461,"ĠKartve":13462,"omer":13463,"ĠTeri":13464,"emia":13465,"Ġleks":13466,"ĠantaÅŃan":13467,"ĠnovaÄµojn":13468,"Ġurbaj":13469,"Ġetoson":13470,"Pl":13471,"ĠAri":13472,"Ġmalver":13473,"Ġ1938":13474,"Ġvenki":13475,"Ġgefratoj":13476,"Ġombro":13477,"ĠTais":13478,"ĠKulturo":13479,"dt":13480,"espri":13481,"ĠEta":13482,"Ġfinished":13483,"entation":13484,"Ġfaka":13485,"ĠÅľan":13486,"Ġteritorion":13487,"Ġsurely":13488,"ĠSalom":13489,"ÄĿanta":13490,"Ġreago":13491,"Ġperdas":13492,"ĠNag":13493,"Ġanimals":13494,"ESP":13495,"Ġbando":13496,"Ġenkonduki":13497,"âĪŀâĪŀâĪŀâĪŀâĪŀâĪŀâĪŀâĪŀ":13498,"Ġsenpaga":13499,"ulu":13500,"stroj":13501,"vila":13502,"ĠMaroko":13503,"ĠAM":13504,"Ġ1934":13505,"nology":13506,"Ġsituacioj":13507,"serva":13508,"ĠAÅŃgusto":13509,"ĠÄīeestas":13510,"Ġprogrameroj":13511,"ĠFilipinoj":13512,"blis":13513,"fano":13514,"litajn":13515,"viva":13516,"Ġminer":13517,"Ġadoles":13518,"Ġordinaraj":13519,"Ġlearned":13520,"ĠVaÅĿ":13521,"ĠRyan":13522,"peno":13523,"Ġhated":13524,"Ġmalgrandajn":13525,"ĠUniversity":13526,"Ġdividita":13527,"ee":13528,"Ġ@":13529,"ĠJaro":13530,"Ġmartial":13531,"Ġreligious":13532,"ĠInsuloj":13533,"Ġesperantlingva":13534,"Ġexplanation":13535,"ĠÄľenevo":13536,"fted":13537,"kanto":13538,"Ġhier":13539,"rence":13540,"venoj":13541,"ĠVivo":13542,"ĠRoy":13543,"Ġintenco":13544,"Ġopiniojn":13545,"Ġlerte":13546,"Ġkonsidera":13547,"EV":13548,"devena":13549,"Ġ1931":13550,"Ġtherefore":13551,"rigado":13552,"Ġkromaj":13553,"ĠÅľtato":13554,"Ġturni":13555,"Ġlength":13556,"dion":13557,"Ġluno":13558,"Ġunuflanke":13559,"Ġfrank":13560,"Ġincludes":13561,"karto":13562,"Ġprosper":13563,"Dankon":13564,"uni":13565,"ĠTal":13566,"icoj":13567,"Ġatestas":13568,"Ġmine":13569,"Ġguberni":13570,"Ġgermane":13571,"Ġabsor":13572,"bbish":13573,"Ġredeeming":13574,"althy":13575,"Ġmorala":13576,"ĠZuri":13577,"Ġplanet":13578,"ĠJuli":13579,"Ġstock":13580,"ĠÄĪeÄ¥oslovakio":13581,"Ġmm":13582,"tila":13583,"cil":13584,"azz":13585,"Ġhorlo":13586,"centon":13587,"ĠfreÅĿ":13588,"ĠStewart":13589,"Ġsendependaj":13590,"Ġtrink":13591,"Äįek":13592,"ĠBlanka":13593,"Ġneglek":13594,"Car":13595,"Te":13596,"aÄī":13597,"buti":13598,"Ġjura":13599,"ĠFan":13600,"vivo":13601,"cke":13602,"Ġavid":13603,"Ġeniras":13604,"Ġresearch":13605,"ĠAnthony":13606,"ĠKomer":13607,"Ġadm":13608,"Ġkopiraj":13609,"ĠGregor":13610,"Ġpartici":13611,"Share":13612,"inK":13613,"ĠAre":13614,"ĠMitch":13615,"Ġwatchable":13616,"Ġ120":13617,"ĠRusia":13618,"Ġkunvenoj":13619,"\":":13620,"atoro":13621,"Ġrezon":13622,"Ġnoir":13623,"Ġ1956":13624,"Ġtransprenis":13625,"Ġtromp":13626,"ĠAnyway":13627,"bin":13628,"especially":13629,"usy":13630,"Ġmalkla":13631,"Ġora":13632,"015":13633,"porta":13634,"ĠZim":13635,"Ġanimon":13636,"Ġportray":13637,"Ġstrukturon":13638,"Ġpejz":13639,"OU":13640,"ĠHomoj":13641,"ague":13642,"Ġatro":13643,"Ġrestu":13644,"ĠÅľajnas":13645,"Ġnumeroj":13646,"ĠPaco":13647,"Ġsalut":13648,"Ġheroes":13649,"ĠNick":13650,"ĠHas":13651,"rass":13652,"Ġkonkreta":13653,"Ġreturns":13654,"illo":13655,"Ġbelow":13656,"peca":13657,"Ġ1947":13658,"Ġmanipula":13659,"AV":13660,"inanoj":13661,"ĠTaylor":13662,"Ġarkeo":13663,"disku":13664,"ligos":13665,"Ġtradukojn":13666,"ĠOriento":13667,"Ġfidela":13668,"muziko":13669,"ĠSaksio":13670,"tacio":13671,"rish":13672,"cepte":13673,"Ġ58":13674,"Ġpersonally":13675,"Ġskriba":13676,"Ġnaive":13677,"ĠmaÅĿin":13678,"Ġuniversitata":13679,"cist":13680,"ĠAuld":13681,"ĠProjekto":13682,"ĠOut":13683,"Ġekskurso":13684,"Ġkomprom":13685,"Ġanimaloj":13686,"ĠEverything":13687,"Ġconstant":13688,"cut":13689,"vÃ¡":13690,"ladon":13691,"ĠAaron":13692,"ĠPov":13693,"Ġvideb":13694,"Ġdeviga":13695,"ĠParko":13696,"ademy":13697,"Ġsadly":13698,"ĠpoÅĿtkodo":13699,"Ġrevo":13700,"ĠStel":13701,"Ġelmig":13702,"Ġ1959":13703,"ĠÄĪin":13704,"Ġhapp":13705,"Ġsimplan":13706,"Ġvicprezidanto":13707,"Ġscipovas":13708,"tivi":13709,"Ġbath":13710,"Ġresponsible":13711,"Ġproponita":13712,"Ġgangster":13713,"dro":13714,"ktado":13715,"pez":13716,"Ġdisgust":13717,"distri":13718,"Ġvaroj":13719,"Ġinstruo":13720,"Ġkonduki":13721,"Ġsablo":13722,"titan":13723,"Ġsamnoma":13724,"ĠplaÄīis":13725,"Ġliberecon":13726,"ĠVilhel":13727,"Ġprofessional":13728,"Mov":13729,"uan":13730,"ĠCx":13731,"ĠWolf":13732,"entecon":13733,"ĠÅĿanÄĿas":13734,"Ġdiablo":13735,"Ġekzamenoj":13736,"Ġdeserve":13737,"Ġpripensi":13738,"deÅĿo":13739,"Ġlos":13740,"Ġfriendship":13741,"Ġrapideco":13742,"Ġalvenas":13743,"Ġdonacon":13744,"ĠDomino":13745,"Ġecoj":13746,"Ġeska":13747,"Ġine":13748,"ĠKub":13749,"preh":13750,"ĠÃł":13751,"Fi":13752,"Ligo":13753,"ufi":13754,"enne":13755,"Ġinoj":13756,"Ġribe":13757,"Ġlets":13758,"Ġefforts":13759,"ĠRegno":13760,"ulte":13761,"Ġadvo":13762,"ĠZagre":13763,"Ġkunlaborantoj":13764,"Ġposedis":13765,"ĠMovado":13766,"Ġartist":13767,"komputi":13768,"tigante":13769,"Ġnekompren":13770,"Ġ/>-":13771,"Ġlevi":13772,"ĠAndy":13773,"itu":13774,"Ġrated":13775,"Ġpeace":13776,"Ġknaboj":13777,"Ġ#?":13778,"Char":13779,"Ġexplained":13780,"Ġholds":13781,"ĠStory":13782,"ĠSier":13783,"Ġintertempe":13784,"Ġ1949":13785,"Ġvision":13786,"Ġapparent":13787,"Ġlandlimo":13788,"Ġcrowd":13789,"Ġking":13790,"ĠarÄ¥":13791,"Ġfara":13792,"encan":13793,"tikisto":13794,"Ġtransiris":13795,"Ġfamilion":13796,"ĠMeze":13797,"Ġanonci":13798,"mental":13799,"Ġislama":13800,"ĠTajvano":13801,"Ġperspektivo":13802,"Ð¹":13803,"Ġhurt":13804,"emio":13805,"ĠSocia":13806,"Ġhonoro":13807,"ĠMalnova":13808,"Ġrango":13809,"Although":13810,"Ġkovrita":13811,"cii":13812,"ĠÄĿem":13813,"ĠVera":13814,"Ġsiavice":13815,"vate":13816,"vinte":13817,"Ġmaso":13818,"Ġminutojn":13819,"Ġekonomian":13820,"Soci":13821,"Ġfights":13822,"Ġmachine":13823,"Lia":13824,"Ġsindik":13825,"Ġplanon":13826,"ĠdediÄīis":13827,"Ġfilmmaker":13828,"Ġkategorioj":13829,"Ġthoroughly":13830,"lari":13831,"Ġpig":13832,"Ġrego":13833,"ĠreÄĿoj":13834,"Ġprovoj":13835,"ĠNational":13836,"Ġbril":13837,"Ġaprobis":13838,"Ġcommunity":13839,"Ġgenuine":13840,"Ġvehic":13841,"tite":13842,"Ġenme":13843,"Ġnecesajn":13844,"Ġfunkciado":13845,"ĠvojaÄĿoj":13846,"Ġusonanoj":13847,"Ġmixed":13848,"lingvanoj":13849,"Ġkompanioj":13850,"She":13851,"Ġcard":13852,"Ġaltern":13853,"ĠFoje":13854,"ĠaÅŃtun":13855,"Ġindividua":13856,"Zelando":13857,"Alike":13858,"ĠTel":13859,"Ġformis":13860,"Ġchick":13861,"nifer":13862,"Ġvendi":13863,"Ġbien":13864,"inario":13865,"renkon":13866,"ilate":13867,"Ġpacing":13868,"Ġsurpriz":13869,"ShareAlike":13870,"Ġkuri":13871,"Ġaltaro":13872,"ĠFaj":13873,"Ġfaman":13874,"ĠGuy":13875,"UNK":13876,"Ġseminario":13877,"##":13878,"Di":13879,"fs":13880,"plot":13881,"Ġsurface":13882,"Ġsuperflu":13883,"ĠMalfer":13884,"logiajn":13885,"Ġkomputila":13886,"Ġmalhelpi":13887,"ĠOrganizaÄµoj":13888,"Ġmalliberejo":13889,"ĠDokumentoj":13890,"cl":13891,"Ġframe":13892,"ĠÄīapit":13893,"ĠStanis":13894,"Ġsklavoj":13895,"ael":13896,"tujo":13897,"Ġtipoj":13898,"vola":13899,"Ġservice":13900,"Ġsinte":13901,"Ġtorture":13902,"Ġaccurate":13903,"Ġconcerned":13904,"Ġpub":13905,"Ġdent":13906,"Ġmeks":13907,"Ġinj":13908,"ĠMON":13909,"olingo":13910,"Ġsenlabor":13911,"Ġdirus":13912,"Ġvote":13913,"Ġbrul":13914,"Ġkonfliktoj":13915,"ĠaÅŃtoritatoj":13916,"Ġlicenci":13917,"Ġpr":13918,"arÄ¥":13919,"Ġrezultas":13920,"Ġspertojn":13921,"ĠtranslokiÄĿis":13922,",,":13923,"viron":13924,"erk":13925,"ador":13926,"Ġdevenis":13927,"Kompreneble":13928,"ĠFilipo":13929,"ĠAzerbajÄĿano":13930,"tement":13931,"ĠEug":13932,"ĠLago":13933,"Ġmarry":13934,"039":13935,"ĠJulie":13936,"Ġbruo":13937,"Ġkonversacio":13938,"Ġforpasis":13939,"Ġmalhela":13940,"dam":13941,"galo":13942,"Ġsuperas":13943,"lernejoj":13944,"roid":13945,"Ġmotiva":13946,"Ġaperinta":13947,"Ġeksterland":13948,"Ġtrust":13949,"Ġdeklaras":13950,"esperantistoj":13951,"kesto":13952,"Ġspre":13953,"litan":13954,"Ġloving":13955,"pono":13956,"Ġkarto":13957,"Ġdokumenta":13958,"Ġtombejo":13959,"gemon":13960,"ĠCoo":13961,"encis":13962,"Ġregionaj":13963,"ĠForumo":13964,"ĠfiÅĿkap":13965,"?...":13966,"klu":13967,"äº":13968,"umu":13969,"Ġterm":13970,"oriente":13971,"Ġkonservis":13972,"Ġhistoriisto":13973,"Las":13974,"ĠSum":13975,"Ġprave":13976,"ĠaranÄĿi":13977,"ĠAntver":13978,"Ġcircumstan":13979,"bes":13980,"âĶ":13981,"enan":13982,"terane":13983,"ĠEN":13984,"Ġkomprenebla":13985,"Ġcook":13986,"Ġconflict":13987,"Ġdivido":13988,"Ġvolontuloj":13989,"ĠBosnio":13990,"Ġabor":13991,"ĠMaks":13992,"donu":13993,"Ġinspir":13994,"zonon":13995,"Ġmalfermo":13996,"Ġaward":13997,"poÅĿta":13998,"peo":13999,"Ġrakonton":14000,"Ġmultnombraj":14001,"ĠPluraj":14002,"tood":14003,"Ġwid":14004,"Ġenre":14005,"Ġenth":14006,"Ġmalgra":14007,"Ġ1908":14008,"037":14009,"ĠOrganizo":14010,"ĠJohnny":14011,"Ġvillains":14012,"Ġcalls":14013,"ĠGeneral":14014,"ened":14015,"ĠDeath":14016,"Ġbrila":14017,"Ġopposite":14018,"kino":14019,"Ġdevon":14020,"gare":14021,"Ġservon":14022,"Ġposition":14023,"vojaÄĿ":14024,"Ġcerb":14025,"ĠdaÅŃra":14026,"ĠBoy":14027,"Ġesperon":14028,"Ġtransporto":14029,"Ġstatuto":14030,"kapablo":14031,"Ġnicely":14032,"Ġnet":14033,"ĠAS":14034,"Ġsucks":14035,"ĠFland":14036,"Ġtreated":14037,"ĠBruselo":14038,"ĠSla":14039,"ĠStone":14040,"ĠJew":14041,"036":14042,"farado":14043,"ĠVerÅĿajne":14044,"Ġkatolikoj":14045,"Ex":14046,"jk":14047,"Å¼":14048,"Ġekvid":14049,"Ġseat":14050,"grafo":14051,"Ġgrowing":14052,"Ġmerit":14053,"ĠBerg":14054,"Ġdoloro":14055,"Ġdeserved":14056,"film":14057,"ĠKlubo":14058,"ĠFettes":14059,"Ġplanedoj":14060,"Ġstudy":14061,"ĠStefan":14062,"Ġphiloso":14063,"ĠMass":14064,"Ġresto":14065,"gant":14066,"Ġadmon":14067,"Ġkorup":14068,"Ġurban":14069,"Ġeksplodis":14070,"Ġexpression":14071,"ĠSingapuro":14072,"Ur":14073,"Ä«":14074,"leton":14075,"inger":14076,"ĠFul":14077,"ĠJas":14078,"fortable":14079,"geto":14080,"Ġluck":14081,"ĠrenkontiÄĿon":14082,"Ġcaptured":14083,"Ġmedicino":14084,"Ġcomparison":14085,"bles":14086,"Ġhits":14087,"idojn":14088,"Ġbeleco":14089,"ĠBush":14090,"Ġstudado":14091,"Ġkuraci":14092,"Ġ1972":14093,"ĠWayne":14094,"ĠAnderson":14095,"cc":14096,"ĠIF":14097,"Ġplial":14098,"Ġsenpro":14099,"ĠDiskuto":14100,"Ġvillage":14101,"Ġaktiveco":14102,"Ġkerno":14103,"Ġunnecessary":14104,"LU":14105,"Ġsuba":14106,"Ġ59":14107,"Ġfif":14108,"Ġkurio":14109,"Ġrealigo":14110,"Ġabsoluta":14111,"Ġpozitiva":14112,"Ġpilot":14113,"ĠdeÄµ":14114,"Ġsea":14115,"temp":14116,"ilia":14117,"rapid":14118,"ĠdisvastiÄĿis":14119,"ĠDespite":14120,"Ġkin":14121,"produ":14122,"Ġkomunistoj":14123,"Ã©n":14124,"Ġplayers":14125,"Ġagnoskas":14126,"ĠPreskaÅŃ":14127,"ĠTogolando":14128,"sojn":14129,"Ġamer":14130,"Ġcompare":14131,"Ġplis":14132,"ĠpaÄĿ":14133,"enever":14134,"Ġtradicioj":14135,"ĠOnce":14136,"ĠfeliÄīe":14137,"Ġalportas":14138,"Ġmalsupre":14139,"ĠÅĿatata":14140,"ÄĿinta":14141,"ĠEfektive":14142,"âĢĳ":14143,"ĠHero":14144,"Ġsonoj":14145,"Ġviando":14146,"Ġinternacie":14147,"Ġremarkable":14148,"cias":14149,"Ġgr":14150,"ĠWa":14151,"jariÄĿo":14152,"Karaj":14153,"tact":14154,"arm":14155,"Ġseka":14156,"outhern":14157,"ĠEsper":14158,"ĠMiaj":14159,"Ġhoriz":14160,"Ġpensado":14161,"Ġkamparo":14162,"Ġdialekto":14163,"Ġidenteco":14164,"Ġmurdered":14165,"uf":14166,"stato":14167,"Ġquo":14168,"Ġfalas":14169,"ĠProksim":14170,"Ġalvoko":14171,"Ġtraktado":14172,"Ġcruel":14173,"rh":14174,"tale":14175,"Ġfield":14176,"Ġfeet":14177,"Ġagor":14178,"ĠRober":14179,"germana":14180,"Pas":14181,"Ġclub":14182,"Ġligi":14183,"ĠaÅŃskult":14184,"Ġapuda":14185,"ĠÄīevaloj":14186,"Ġbloody":14187,"Ġanimal":14188,"Ġrusoj":14189,"Ġpopulacio":14190,"ĠSamuel":14191,"Ġaccompl":14192,"san":14193,"xa":14194,"Ġnesto":14195,"Ġlipoj":14196,"Ġnocio":14197,"Ġagis":14198,"Ġaware":14199,"Ġpriskribita":14200,"ĠaÅŃtoritato":14201,"director":14202,"ĠEkster":14203,"Hung":14204,"Ter":14205,"Ġsco":14206,"Ġprover":14207,"kota":14208,"Ġdriving":14209,"undation":14210,"Ġinstance":14211,"ugosla":14212,"ĠSpanish":14213,"ÄĿante":14214,"umbo":14215,"ĠOz":14216,"Ġuzitaj":14217,"Ġspeech":14218,"marko":14219,"Ġvarmo":14220,"Ġkruco":14221,"Ġdetruis":14222,"Ġsyn":14223,"ilst":14224,"ĠPok":14225,"ĠÅĿve":14226,"ensive":14227,"Ġaserto":14228,"xed":14229,"Ã¥":14230,"Ġsake":14231,"Ġrekor":14232,"point":14233,"endio":14234,"orgio":14235,"ĠIsland":14236,"Ġdokumenton":14237,"Ġdokumentojn":14238,"herent":14239,"ekzamen":14240,"ĠMrs":14241,"ĠmalriÄīaj":14242,"ÑģÑĤ":14243,"Ġsurvive":14244,"Just":14245,"ĠforÄµe":14246,"Ġassis":14247,"agers":14248,"gho":14249,"Ġ1922":14250,"Ġtrafiko":14251,"eriff":14252,"Ġnaskita":14253,"Ġverkado":14254,"Ġpotenci":14255,"endite":14256,"ĠÅĿtonoj":14257,"Ġlower":14258,"Ġarmen":14259,"holic":14260,"Ġromanoj":14261,"ĠPatrick":14262,"Ġhumanity":14263,"plano":14264,",'":14265,"AF":14266,"ÅĿu":14267,"ĠGun":14268,"Ġlocations":14269,"Ġconven":14270,"ĠÄľin":14271,"ĠJapana":14272,"Ġpsych":14273,"Ġelementojn":14274,"Ġulo":14275,"Ġlacking":14276,"ĠLic":14277,"Ġ1941":14278,"Ġmanage":14279,"Ġnomitaj":14280,"ĠpentraÄµoj":14281,"ĠSvisio":14282,"ĠreÄĿisoro":14283,"natural":14284,"ays":14285,"ĠÄĪef":14286,"Ġraportoj":14287,"Ġordinare":14288,"Ġblogon":14289,"Ġplots":14290,"Ġfrazojn":14291,"Ġjunula":14292,"Ġrifuzas":14293,"Ġatribui":14294,"Ġlogiko":14295,"Ġkategorion":14296,"Ġblock":14297,"ĠBarry":14298,"III":14299,"ensional":14300,"ĠkonatiÄĿis":14301,"Ġcars":14302,"debla":14303,"aÅŃa":14304,"rina":14305,"Ġcriminal":14306,"SF":14307,"Ġtras":14308,"Ġenlanda":14309,"emen":14310,"Ġspecifaj":14311,"Ġeblos":14312,"prezid":14313,"Ġgef":14314,"ĠJulia":14315,"Ġscared":14316,"ĠÄµurnalistoj":14317,"Mat":14318,"from":14319,"Ġkonforme":14320,"ĠDoro":14321,"Ġthats":14322,"entially":14323,"Ġregionon":14324,"Ġpagis":14325,"Ġcreating":14326,"Ġartistic":14327,"ĠKongresoj":14328,"ĠtuÅĿas":14329,"jud":14330,"Ġgast":14331,"002":14332,"Ġfinita":14333,"ebleco":14334,"ĠbedaÅŃras":14335,"Ġstanding":14336,"looking":14337,"Ġsucceed":14338,"Ph":14339,"orm":14340,"mate":14341,"Ġmalamo":14342,"Ġghis":14343,"Ġrisk":14344,"Ġempty":14345,"ÄĿantoj":14346,"Ġalter":14347,"Ġreformo":14348,"Ġgrandio":14349,"Ġkus":14350,"Ġvivoj":14351,"ĠHai":14352,"ĠKultura":14353,"centa":14354,"jaroj":14355,"ym":14356,"Ġgraved":14357,"aÄĿaj":14358,"Ġartefarita":14359,"Kara":14360,"LO":14361,"aven":14362,"ĠCamp":14363,"ĠVHS":14364,"agoj":14365,"Ġdevigis":14366,"ĠTime":14367,"Ġkvaliton":14368,"ĠaÄµoj":14369,"Ġbv":14370,"ĠMajo":14371,"Ġnokton":14372,"Ġgoof":14373,"ĠMarx":14374,"ĠÄīefan":14375,"Ġmass":14376,"Ġowner":14377,"Ġetan":14378,"ĠDip":14379,"Ġagre":14380,"Ġelektu":14381,"Ġpriskriba":14382,"ĠLiteratura":14383,"fit":14384,"iano":14385,"kvankam":14386,"Ġfate":14387,"katoli":14388,"ĠNata":14389,"ĠAnim":14390,"Ġkolo":14391,"Ġobsta":14392,"Ġnumerous":14393,"Ġtelefonvokoj":14394,"town":14395,"Ġearn":14396,"ĠLub":14397,"vejo":14398,"ĠÄīiuta":14399,"Ġwitty":14400,"Ġcurrent":14401,"ĠRussell":14402,"hat":14403,"klon":14404,"pent":14405,"omi":14406,"Ġinci":14407,"ĠSri":14408,"acting":14409,"Ġunuavice":14410,"okcid":14411,"Ġmemories":14412,"festo":14413,"Ġflying":14414,"Ġbland":14415,"Ġchief":14416,"Ġpermesiloj":14417,"Ġ1887":14418,"Ġtradukitaj":14419,"Ġkeeping":14420,"ĠMalajzio":14421,"jaraj":14422,"Â·":14423,"Ġgala":14424,"ĠProjek":14425,"Ġpasi":14426,"Ġplenigis":14427,"Ġprogramojn":14428,"ĠMontri":14429,"tantly":14430,"Ġtape":14431,"GM":14432,"entajn":14433,"Ġeo":14434,"thal":14435,"ĠGol":14436,"Ġinterkon":14437,"Ġrape":14438,"ĠVian":14439,"ĠHop":14440,"Ġteknik":14441,"ĠPlease":14442,"ĠNASA":14443,"Fakte":14444,"anim":14445,"Ġmental":14446,"Ġvac":14447,"iona":14448,"Ġsubme":14449,"ĠSean":14450,"ept":14451,"Ġfakaj":14452,"ĠinteresiÄĿis":14453,"ĠÅĿanÄĿiÄĿas":14454,"historio":14455,"Ġprovided":14456,"Ġlimojn":14457,"kebla":14458,"acon":14459,"Ġfrekven":14460,"Ġbroken":14461,"Ġsides":14462,"Ġstrebas":14463,"Ġrevolucia":14464,"Ġhidden":14465,"ĠPr":14466,"ĠÅĿtel":14467,"Ġ1942":14468,"trojn":14469,"Ġhopes":14470,"Ġintenc":14471,"EST":14472,"ĠJohnson":14473,"ĠCarl":14474,"Ġalvokon":14475,"Ġdeko":14476,"Ġ101":14477,"Ġoriginalaj":14478,"Ġrevealed":14479,"Ġvikipedio":14480,"iÄĿadis":14481,"Ġekziston":14482,"Ġdesperate":14483,"08765":14484,"Bar":14485,"Ġ..":14486,"rol":14487,"Ġaltran":14488,"ĠStri":14489,"ĠSian":14490,"utu":14491,"Ġuncom":14492,"Ġpoet":14493,"paf":14494,"Ġpermeso":14495,"Ġfunkcii":14496,"Ġrektan":14497,"Ġestroj":14498,"Ġtrinki":14499,"Ġregistritaj":14500,"ç¤¼åĮħç¤¼åĮħç¤¼åĮħç¤¼åĮħç¤¼åĮħç¤¼åĮħç¤¼åĮħç¤¼åĮħç¤¼åĮħç¤¼åĮħç¤¼åĮħç¤¼åĮħç¤¼åĮħç¤¼åĮħç¤¼åĮħç¤¼åĮħç¤¼åĮħç¤¼åĮħç¤¼åĮħç¤¼åĮħç¤¼åĮħç¤¼åĮħç¤¼åĮħç¤¼åĮħç¤¼åĮħç¤¼åĮħç¤¼åĮħç¤¼åĮħç¤¼åĮħç¤¼åĮħç¤¼åĮħç¤¼åĮħç¤¼åĮħç¤¼åĮħç¤¼åĮħç¤¼åĮħç¤¼åĮħç¤¼åĮħç¤¼åĮħç¤¼åĮħç¤¼åĮħç¤¼åĮħç¤¼åĮħç¤¼åĮħç¤¼åĮħç¤¼åĮħç¤¼åĮħç¤¼åĮħç¤¼åĮħç¤¼åĮħç¤¼åĮħç¤¼åĮħç¤¼åĮħç¤¼åĮħç¤¼åĮħç¤¼åĮħç¤¼åĮħç¤¼åĮħç¤¼åĮħç¤¼åĮħç¤¼åĮħç¤¼åĮħç¤¼åĮħç¤¼åĮħ":14501,"Even":14502,"Ġfana":14503,"ĠIV":14504,"tenoj":14505,"ĠparoÄ¥":14506,"ĠetaÄĿo":14507,"Ġkontenta":14508,"Ġfinancaj":14509,"Ġkorea":14510,"ĠJozefo":14511,"LI":14512,"klubo":14513,"Ġeuro":14514,"ĠEri":14515,"ĠHTML":14516,"agu":14517,"Ġprefi":14518,"Ġcounter":14519,"ĠLatvio":14520,"ĠpejzaÄĿo":14521,"tilon":14522,"letoj":14523,"Ġbier":14524,"ĠEric":14525,"dous":14526,"Ġ1912":14527,
[...]
